<UNK>
<BOS>
<EOS>
<PAD>
在
法律
中
定金
与
订金
的
区别
和
哪个
受
盗窃罪
犯罪
客体
是
什么
，
主体
非法
微
整形
机构
构成
非法经营
罪
吗
入室
持刀
行凶
伤人
能
不能
判刑
我
辅道
正常
右转
进主道
主道
有
两个
车
后面
占用
对
向
车道
超车
撞
了
谁
责任
交通事故
认定书
不服
怎么办
损
喝完
就
又
去
唱歌
回家
时去
车祸
同意
开
二审
一般
要
多久
欠钱
没有
欠条
录音
起诉
帮助
别人
套花
呗
违法
关于
吃药
死亡
不
通过
法律手段
如何
追究
申诉
解决
赔偿
因
工作
被
三处
烫伤
伤为
三级
都
需要
植皮
鉴定
达到
几级
？
从
合伙
经营
公司
撤资
只
给
有用吗
事业单位
一九八八年
左手
食指
中指
、
缺失
一节
单位
当时
送
进
医院
还
派
人
护理
找
事故
摩托车
付
次要
自行车
主要
怎赔
他
医药费
小
脑出血
昏迷
5
天
哪些
情况
可以
先行
刑事拘留
一个
撞了人
陪偿
工地
上面
出
安全事故
怎么
来
维护
自己
权
申请
受理
劳动
争议
调解
仲裁
时间
上
限制
商标注册
相对
禁止
条件
问
朋友
钱
取保
侯审
期间
酒后
驾车
交警
抓住
处理
高利贷
不知
如何是好
。
破产
孕妇
委托
专业
律师
草拟
购房
合同
多少
费用
打架
,
因为
对方
先打
后来
着
打
最后
叫
五六
把
肋骨
打断
眼睛
戳伤
医生
诊断
说
角膜
挫伤
?
客户
拖欠
货款
到
法院
签了
等于
取得
房屋产权
迷信
诈骗
团伙
老板
骨干
会
年
婚后
买房
婆婆
一半
离婚
房
分
你好
农村
住宅
基地
申请书
写
房管所
进行
不动产
登记
查
婚姻
实
刑事案件
收费
请
个
大车
司机
拖欠工资
我用
方法
欠
工资
提供
些
材料
主责
我次责
车辆
修理费
算
花
偷
送给
你
公安局
画押
教
罚款
不会
案底
请问
父亲
生前
欠下
债务
欠款人
可行
流程
电话
投诉
才
结婚
二
+
多年
没
一起
算是
自动
站
利息
笔录
上画
押
还教
假如
房产证
户口本
同时
租赁
办理
营业执照
发生
后果
二婚
房子
婚前
买
上午
办
结婚证
下午
去加
老婆
名字
这样
算不算
夫妻
共同财产
轻伤
现在
拘留
还是
几天
放
区分
贪污
受贿
公司法人
变更
工程
代建
是否
有效
带
未满
周岁
孩子
无
经济
来源
签订
担保
女方
男方
协议书
不要
让
她
归还
丢
新房
效果图
一致
可否
退房
有权
没收
手机
通
*
亚
拖
工
拒绝
押金
您好
监外执行
信用卡
6000
千多
4
月
未
银行
收监
五年
一人
归
单人
所有
实行
大小
周
每天
9
小时
周六
加班
警察
借钱
真的
醉
商标
第
38
类
撤销
三年
使用
证据
经营权
所有权
公积金
异地
么
三方
协议
解约
问题
青少年
16
岁
殴打
他人
导致
手指头
断
惩罚
赔
合适
二百六十
六条
刑法
金额
九
万多
四个
平分
但
全部
退回
得到
谅解
像
这类
情节严重
购房者
信息
泄露
总公司
美
收购
分公司
员工
有没有
补偿
（
劳动合同
终止
重签
）
只有
再婚
直接
领
一拳
鼻子
出血
骨折
够
成
中介
看房
结果
房主
私下交易
风险
纠纷
管辖权
确定
辞退
工人
书面通知
口头
通知
做
1
多
过
半
转
人家
加盟店
签
用
原先
完
我交
一万块
保证金
取保候审
这
一万
拿
回来
为什么
啊
抢劫
故意
杀人
该
怎样
判决
酒驾
110m
还会
弟弟
哥哥
继承
房屋
如果
政府
拆除
满
14
不满
犯
贩卖毒品
更负
二级
出车祸
住院
两天
后
住院费
应该
一方
抚养费
不到
不宜
采取
形式
电子
属于
书面形式
迟迟
不下
责任书
外卖
小哥
受伤
点餐
人要
巫
县有
我们
县
家
煤
支付
工伤
待遇
以
执行局
许
浩
此
万分
憾
跟
老公
一分钱
猪场
占地
到期
拆迁
国家
河
驻
店
舆
局
那么
事
民心
怨
交房
日期
延长
六年
如今
一点
动静
本人
干活
造成
韧带
拉伤
劳务
赔钱
咋办
个人
保险
个人财产
赌罪
万
退还
处分
媒体
扭曲
事实
提起
民事诉讼
要求
注意
右手
大拇指
除外
手掌
断离
已接
好
无名指
小指
断掉
一截
伤残
男青年
难
离婚率
高
究竟
右
肩膀
培
50
工厂
上班
电
把手
刀伤
心脏
伤口
3.5
公分
受到
什么样
查出
锁骨
出院
一个月
以后
复查
三根
病例
治疗
生
呛
羊水
肺炎
脑积水
医疗事故
不在乎
感受
频临
外地
过错
可
类似
临床实验
补助
一直
等
三期
理赔
回老家
这边
也
派出
己
存档
为
由
扣押
证书
婚时
房名
复婚
我想加
能加
合同纠纷
法人
必须
出庭
买车
汽车
买卖
解
经济纠纷
影响
子女
财产
测速
质疑
出租车
乘客
撞伤
网站
抄
文章
告知
侵权
鄂
A
###
L9
大众
迈腾
停
小区
老赖
民工
不全
有关
部门
走
同居
取证
财产纠纷
范围
分房
儿子
份
已经
出嫁
女儿
求教
我要
承担责任
耿耿于怀
！
借贷
集资
两者
有何
总是
不了
.
破
盗窃
有过
三次
前科
怀孕
缓刑
已
款
公公
手里
妈妈
他们
查封
并案处理
劳动局
退
共同
征地
从犯
坦白
退脏
数额
巨大
能判
认定
下来
评残
手续
挂
牌
注消
审
过户
夫夷
是不是
侵入
包括
院子
收到
外省
传票
邮寄
老家
签收
另个
省
不去
看守所
事情
离开
当地
小额
借款
坐牢
房屋买卖
见证
碰瓷
涉案
10
以上
主犯
判
几年
牙
掉
根段
身份证
消费
令
银行账号
冻结
交了
想
父母
房产
母亲
名下
卖房
买家
出轨
回
喝酒
酒
驾
我付
法律责任
不管
建筑工地
一天
误工费
远端
可评
双方
先
动手
头骨
车主
伤者
全包
医疗费
能行
小学生
在家
火灾
倒卖
废
电瓶
85
老人
偷东西
捉
丈夫
不理
打骂
犯法
交通
车上
病人
欠债人
任
扻
商业
贿赂罪
但是
然后
报案
却
那
2000
块钱
收养人
成年
收养
关系
解除
新车
第一天
上路
能否
告
折旧费
俩
合资
成立
有限责任
不是
如
知晓
下
另接
亏
诈骗罪
立案侦查
阶段
传唤
嫌犯
电费
多出
承担
法律法规
第几条
救济
途径
解决问题
具体
同一
债权
重复
诉讼
存在
意思
才能
饿
根据
相关
固定
合同工
辞职
不让
压着
北京
黑熊
网络
技术
有限公司
太
流氓
我己
被告
原告
国外
呢
借款人
无法
接通
就是
玩
失踪
我该
汇款单
合伙人
之间
一份
具有
法律效力
断一截
评
期上
高速
保险公司
赔不赔
盗墓
抓
盗到
任何
东西
要判
注册
从来
开启
运营
注销
听说
挺
麻烦
明白人
两年
交工
附
期限
安置
买卖合同
包工头
违反
劳动法
举报电话
硬性规定
餐厅
加收
服务费
到底
合理
新
原
容留
知情
卖淫
别的
参与
反映
户口
另一方
男人
选择
愿凉
一放
再
小孩
之后
结
两次
婚
开无房
证明
出现
挑选
推迟
物业
管理费
收
一年
提出
退钱
好处
撞车
全责
报
维修费
家暴
准备
吵架
转移
为了
怎样才能
保全
权利
厂房
面积
少
400
平
退租
签定
旧
废止
肝
切除
手术
胆管
梗阻
邻居家
一颗
大树
刮
大风
压坏
我家
负责
对位
冒用
身份
结婚登记
道路
修道
路边
挖
一
大坑
防护
措施
开车
坑里
索要
办厂
卷款
跑
报警
立案
女
58
能带
首付
保人
保证
能成
/
压缩性
没到
标准
有套
房贷
贷款
卖
不再
续签
领到
失业
金
前
反悔
锁
不用
管
电信
最长
时
前夫
抵债
债主
拍卖
屋内
前有
2
套房
–
帮
偷盗
2890
元
签合同
应
一片
开谎
地
要光付
发电
给钱
对于
拐卖儿童
重点
赡养费
赔偿标准
提议
一万七千
六百元
款会判
刑
当中
当事人
因车祸
正在
中到
时候
我爸
64
厂里
找劳
超龄
劳
监
大
管不了
大神
在线
急问
误诊
未及
时报
只能
语言
暴力
时会
考虑
宅基地
祖辈
留下来
翻新
奶奶
出资
建
第一层
孙子
二三层
去世
确权
卖完
车欠
零头
不过
户
被车撞
合
六级
一次性
了结
前一天
签署
20
年前
故意伤害
身体
致
案
仅
转账
凭证
主张
施工
抗税
具备
颅
外伤
引起
急性
颅内
饮酒
抽烟
史
电动车
逃逸
处罚
有帕
森病
会判
将
不知情
住房
指标
吧
温州
美尔
诺
化工
陈
光
地道
试用期
算了
态度
差到
开设
赌场
证据不足
叛刑
关
贪污罪
得
脑血栓
定罪
万块
借条
代理费
前两天
明天
工费
肇事者
能出
请教
各位
取出
那些
案件
出来
的话
打成
补偿金
mi
承诺
违约
违规
考评
强行
调岗
就算
旷工
合规
发工资
无权
代理
妹妹
有个
想要
裁员
嫌要
赔偿金
职业病
成功
开发
赌博
软件
处
二手房
顺利
盗伐林木
规定
职务侵占
小贷
700
派出所
2018
拖延
亲戚家
拆
爸
帮忙
工钱
那种
小心
受了伤
手术费
这个
家具
延误
工期
材质
叶氏
医药
合同法
业主
委员会
职责
忘带
驾驶证
无证
驾驶
手指
社保
赔后
还要
银行卡
里
有钱
装修
路
表明
硬判
认
购买
离职
股权
转让
操作
之
哪位
懂
这方面
不同
角度
描述
&#
#
89
;
三人
没签
帐单
产权
后能续
民政局
同志
解答
劳动者
竞业
开发商
买房子
车位
样子
合法
达成
受害人
再次
婚外情
调查
尽
瞻养
义务
侄
第一
顺序
继承人
不肯
接电话
机动车
门撞致
受害者
头部
划分
期权
行权
收益
共有
精神
抚慰金
单方
能够
甲
乙共
谋杀
丙
乙
放弃
甲杀
是否是
既
遂
级
一级
干
8
调到
原因
去不成
就让
虚假
不实
条款
总共
借
000
17
比
黑
期
每期
52
#.#
9509
剩
土地
霸占
确
权证
做要
协警
执法权
北
市
加
前妻
产
赡养
爸爸
不起
聚众
冲击
国家机关
罪判
摔倒
引发
心肌梗塞
抢救
过来
这算
煤矿
井下
遗产
跟着
吊车
触电
击伤
双手
露骨
陪赏
房东
突然
涨
房租
老房子
为准
私
伤
交警大队
肇事
公和
碰面
谈
老梗
清醒
租车
借车
卖方
所
缴纳
维修
基金
否
迁出
享受
村
利益
货车
长
分家
脚
粉碎性
按
发
资金
补助金
宝
逾期
房本
私有
字
代表
摔伤
一万元
索赔
处理结果
利害关系
第三
无效
预防
陷阱
分立
饭店
地方
刀
工伤保险
合作医疗
报销
管辖
支招
：
批
被告人
当庭
翻供
继续
有罪
辩护
认购书
退款
犯人
看押
合作
》
总经理
物业管理
作为
拒交
物业费
律师函
妻子
确认
不想
离
并
可不可以
形成
法
张假
查出来
我能
均
无房
立即
算首
总包方
实际
雇佣
农民工
用人单位
女职工
发现
指点
哺乳期
判给
起诉书
收集
集体合同
时要
捉奸
现场
分居
四年
常年
广
外面
请个
律师费
计算
酒店
一些
方面
不得不
扣除
这种
离不来
不来
我车
直行
拐弯
中间
一定
头
锯
半能
连续
欧打
至
轻微伤
负
喝醉酒
3
我方
喝多酒
闹事
出事
坐等
回复
装修费
分给
三个
辞工
讨要
大货
面部
缝五针
打人者
够不够
整
脾气
不好
残疾
癌症
效力
泰和
所在
哪里
家人
要钱
查不到
档案
一辆车
车子
其
签下
余下
更换
工种
能得
倍
云联惠
传销
赃款
一律
收缴
欠人
抚养权
门面房
留给
书
罚金
执意
合并
变
子公司
私房
分割
点融
网小贷
11
每月
4825
提前
还款
本金
还有
十万元
可能
社保卡
资料
人生
禁制令
逆行
小车
代没
喝
多笔
偿还
讨债
全款
备案
大概
必要
知识产权
二申
按规定
履行义务
哪几种
场地
转载
书评
涉及
只要
绝育手术
男友
欠款
蚂蚁
起会
意见
生气
能要
或
打电话
交警队
筹钱
盆腔
破裂
挂失
解挂
补卡
醉酒
人员伤亡
彩礼
存
重新
几次
决定
李
2013
九日
入职
签订合同
2014
日
能力
五千
领导
才行
急事
给我发
自离
正式
不买
几张
差不多
额度
一万五
这里
信用
拉黑
自家
亲戚
喊
其实
几十万
忙
关键
行驶
他车
错车
判断
金卡
支取
政策
高院
再审
骑车
下班
路上
狗
竞合
拒
交
简易程序
事后
还用
队
结案
配合
原来
出国
打工
挣大钱
后要
家产
挣
承认
前段时间
4S店
####
拘留所
老打
可是
我弟
他妈
愿意
闲
儿
约定
非全日制
用工
这么
分配
风扇
扇叶
打伤
食
指甲
远节
骨
十级
专家
指导
损坏
公路
旁
树木
赔得
付钱
啥
证件
民间
门坏
修能
大四
考试
区县
小学
在编
教师
意向
行
横穿马路
致人
吊销
驾照
借给
备注
留
微信
语音
聊天记录
现
出售
占陇人
所得
拆迁房
伪造
识破
违法行为
求助
调动
脑震荡
始
人格
镇
全
组邓
容
有人
知道
扶养费
强制执行
联系
咋
康复
应是
何时
腰部
九极
胜任
本
岗位
可连调
判决书
贵
惠
自建房
一套
陆续
赔款
伤情
嫂
以及
应签
搬迁
种
鸦片
45
颗犯
违约责任
涉嫌
敲诈勒索罪
大学生
事项
到庭
我名
下车
到场
治安案件
加重
情形
私生女
争
调解书
反诉
看待
「
男子
万元
看
监控
遭拒
警方
致伤
男
59
其三
根肋骨
民事
伸
刚生
二胎
着急
我生
三胎
配偶
者
获得
介绍
认识
甲向
6
因甲无丙
联系方式
没留
汇入
洗钱罪
要件
拉
私人
签字
193
条
契约
效应
司法公正
确保
起诉状
开庭
缺席判决
官司
需
人员
耍无赖
分开
要付
欠薪
内容
据
偷偷
取回
质押
车算
上海
录用
签到
安
拒签
解聘
女孩
捷信
怎么样
劳动教养
假
安居
客房
问答
网
逃
他会
意外
伤害
胜诉
得不到
逼
咬伤
边
乙方
亲属
阴阳
享有
政治权利
遭
找过
村委会
报过
没用
昆
追到
敢
杀
全家
服刑人员
出狱
未交
解冻
A2
实习期
给予
形
雇员
损害
雇主
咨询
不愿
刷单
兼职
骗
清偿
有些
未领
但生
股东
清算
生育
欠捷信
吓人
学法
丨
培训
交会
骨质
一点点
评级
公证
回事
恐吓
未成年人
网上
诉讼费
上门
还手
土地证
足疗
女告
强奸
啦
提车
退休年龄
很多
院
返还
挪用
压岁钱
动用
贷
60
接收
家中
走访
协商
贩毒
抓进
坐飞机
收押
人犯
执行
拘役
爱车
被划
蹭
每个
还些
不够
最低
28
为名
收取
几万元
除母
其余
四指
功能
失去
百分之八十
几
护栏
左
肱骨
七万
其他费用
有报
雇佣工人
回家路上
翻车
摔成
该付
新婚姻法
植物
带到
而
没带
我开
曹
专车
班费
小型
九零
俩个
娃娃
闹
两岁
小男孩
骑
(
证照
齐全
)
对面
两辆
私家车
碰撞
剪
绳子
上铺
同学
手
碰上
我培
各种
美容
费
没钱培
人为
烧车
车损险
等到
没钱
离厂
那该
买受人
迟延
购房款
企业
正确
催收
技巧
履行
涨价
无论
即使
家买
非机动车
醉驾
门
飞
工作岗位
突发
疾病
男女双方
十九年
外遇
多次
劝说
一身
负债
跟踪
偷拍
官员
违纪
侵犯
隐私
顾客
拍
照片
上传
朋友圈
宣传
商品
来说
肖像权
三千
兄妹
养老
其他人
权力
方式
催款
隐私权
甲方
签订协议
两人
合股
运作
知
另
胡家
十万
不出
离婚证
开始
征收
遗产税
询问
赠与
深
後
須要
詹
對方
嗎
1700
会帮
我查
方正
字体
坚持
21
空姐
遗体
找到
按照
能离
遇难
最新消息
从小
养过
连
看过
一次
很
勇气
要验
DNA
赢得
问一问
要花
杀害
凶手
抢错
红包
不适
法无因
管理
效
国家所有
第二
继
代
QQ
跳河自杀
深夜
打车
遇害
宿舍
偷怕
睡觉
发给
产生
请求权
要素
尸体
快餐店
举报
工商
介入
拍照
谢谢
不成
公告
滴滴
破案
商业秘密
事件
自杀
遇害案
原则
我国
跨境
产品
每日
处警
知识
43
做好
证
严重
诸位
休
产假
产妇
敲诈勒索
三
十几天
多长时间
律师收费
嫌疑人
郑
房产纠纷
√
顾问费
告诉
实话
自愿
脚骨
工司
没人管
110
鼻梁骨
15
什
法医鉴定
没出
离婚案
一月
转款
确实
这笔
寻衅滋事
加上
媳妇
收案
相片
做成
淫秽
可撒诉
航空母舰
英文
两
辱骂
被判
检察
公安机关
申如
事务所
办案
非常
用心
行政
刑事
乳腺癌
九年
纠纷案
当
存续
儿女
降到
场
非法拘禁
明事诉
之日起
办完
检查
补充侦查
举证
要点
清单
范本
损害赔偿
爷爷
旅游
男女
对象
病逝
5000
分手
开庭审理
步骤
侵害
公民
自主权
哺乳
绑架
法条
立遗嘱
遗嘱
抚养
老干部
闲聊
篱笆
公正
检察院
年轻人
当前
上升
lg
工作服
女孩子
代书
起
赢
诉讼时效
必读
责任法
医疗
隔壁邻居
卫生
漏水
楼下
债权人
无息
特勤
压力
建设
工程施工
归责
杭
社会
《
婚姻法
限制性
婚姻关系
案由
未遂
逮捕
免除
效果
复核
工人工资
出租人
不负责任
交巡警
辅警应
掌握
代位继承
份额
案例
分析
符合
收条
分别
吸收
公众
存款
经理
职务
240
万圆
独家
直播
上下班
还清
取消
限高
承包
审理
未成年
注明
伍
年内
随时
擅自
退庭
通常
高铁
吃
泡面
引
购
式
庭外
主动
终结
第二次
理由
不准
快点
行使
撤销权
依据
记录
聊天
服务
催
履行地
贫困户
后能
分到
服
主任
对外
加盖
公章
初婚
准生证
全国
被执行人
查询
状态
显示
“
已结
”
比较
不错
法律咨询
去失
商服
卫生间
下水道
反水
马
葫芦
管道
归不归
运输
特困户
私企
当然
稳定性
且
提
若
书写
还店
行为人
退伍
军人
患有
要挟
宣布
淮
法律顾问
韩
现役军人
迁
所在地
随
姓
改姓
看看
月薪
领证
见面礼
全职
争取
权益
外籍
服刑
请求
亲子
存折
哪办
契税
香
婚内
带有
我俩
生二胎
超生
自然
流产
星期
净身
出户
信
师
～
家属
长期有效
一块
土地补偿
协助
组织
卖淫罪
多重
全权
住在一起
睡
答应
远
福
居间
预订
旅行社
设立
与其
签约
物业公司
调整
楼上
程序
高级人民法院
55
无期徒刑
拉萨
务工
刚上
班
动
面临
第三次
交费
老是
推
安全
生产
急
求
一位
一下
把握
保释
通缉
2011
12
发票
未办理
由于
赔付
万能
百度
中铁
长期
及时
胜算
无照经营
了解
叛
免费
何为
预期
非
违约方
自身
深圳
羁押
第三者
隐名
投资
适用
场合
及其
当月
出勤
至少
交社
刑事责任
最新
产品质量
损失
越权
法律硕士
法学
383
档次
考中政有
职业道德
坑人
抽成
拘禁
22
东
援
第四
掌骨
小梁
断裂
故意伤害罪
时请
辩护律师
尽责
有理
败诉
人进
一个多月
扣留
职工
保姆
看管
有什
上诉
还管
文书
价格
过年
勾结
出卖
审查批捕
审查起诉
精神疾病
貌似
临县
吕
母女
判归
欲
唯一
我想
问下
超期羁押
人士
；
杜
杨
关押
偷走
抵押
私下
换地
明文规定
吴
近期
遭到
恶意
映照
修建
于是
提取
图纸
...
王
编号
网友
盆友
当初
处于
煤气罐
漏气
爆炸
重伤
资格证书
地区
平时
领取
咨询电话
进去
答疑
资助
淘宝
售出
实务
涉税
关税
排除
在外
怀疑
后妈
做手脚
l
前年
先后
保母
十二
后母
硬往
嘴里
喂
多长
售后服务
限定
希望
专业人士
贴
欠债
到处
担保人
钱会
欠债还钱
潇潇洒洒
龚
亨
还给
大家
推脱
刑满
起来
年底
得罪
看清
打官司
代款
好友
赤
整容
分期
爷爷奶奶
们
欠帐
腾飞
面对
搞定
宜信
会上
货
客服
崔收
债务人
前男友
威胁
佰仟
怎办
手机号
紧急
联系人
做网
贷带
制裁
买单
侠
什马
开走
三万元
使
无懒
耐帐
办法
车开
兄弟
收回
月子
提醒
卫
扣
另行
精神赔偿
可乐
钱包
捡
复印件
但少
超出
强
有意思
装
没事人
人写
联通
瑜期
好几个
相信
怕
上当
包子
本钱
亲友
平安
信托
养卡人
万达
小旭
金融
垃圾
调节
此人
放贷
任何人
空白
支付宝
评论
没事
耍横
利金
要是
对付
诉状
拿出
1000
帐
原物
平台
倒闭
普慧
快信
分期付款
国企
下属
马上
一台
p2p
博学
教育网
退学
巨款
按揭
踏板车
护士
嗨
薛
刀刀
不上
久
享骑
电单车
让你在
世界
消失
遇到
资产
荣
接到
外
包
理直气壮
我想主
报平安
客栈
不销
我会
现钱
拍拍
太高
块
多享
金汇
乐
驾校
玉石
游说
忽悠
家里
长辈
钱放
网贷
那里
不行
退回去
卖家
1800
买进
项
失控
税
补交
聘请
借通
达
飞云
贷有
他杷
托
go
征信
今年
标的
七八十万
检钱
我佰仟
18
巳
经
十个月
估计
天水
借达飞
千块
五百
浙
找个
代写
劳资纠纷
知名
创为
老
误
转给
1600
两点
骚扰
网代借
信誉
或者说
路路
今天
外包
急急
884
十八个
剩下
现实
中贷
半个
无忧
七百
老哥
下去
信用社
被担保人
坐
用钱
元分
两期
800
欠费
宝借
到手
十三
五期
四
两千
拘捕
同
缘
街
赔偿款
限
本月底
普惠
爆
通讯录
达飞
补写
见过面
真名
家住
哪
花薪
快递
单
二十万
3000
零首付
买手机
租房
d
神龙
理财
火车票
梦
享金
借马云
一期
最近
催款单
美借
扣钱
感觉
有用
备用
钥匙
三万
整形医院
好久
这钱
求知
邮局
工资卡
松鼠
放高利贷
现金
其他
即
4000
8000
受不了
欠宜信
500
贷借
6500
网络平台
职享
骗走
这该
橘子
家庭主妇
只是
米房
手段
亲
万五
玖富
几千块
几十块
规空
公款
119
老铁
今借
1500
百块
害
背负
巨额
无力
平板
电脑
海尔
够花
9500
厉害
玖
富超能
原价
2900
3993
大地
卡
人到
岳
一种
体验
赢易贷
崔款
业务
一概
打算
欠花薪
三千块
30
免
200
70
到时候
诅咒
教教
钱要
趣
生财
里面
pos
赖欠
追债
抬
拍贷
有事
实在
周转
万享
元丰
代不
侠办
口子
账
七天
证大
财富
唯品
半年
它
妈
老子
居然
八千多
六期
484
惠普
及
超过
九千
00
9800
易美健
套路
rkPX3
导航
漯
明
米
哥
话
g1
路况
花样年华
龙华
图
设
钱米
信贷
既有
垫付
盈盈
奇乐
IPSA
专柜
舞
换届
真信
学习
馄饨
南
国大
药房
招联
牛集
扶贫办
女人街
移动
欠该
喜
多福
加盟
过高
青
乐家
瓷砖
美缝
下场
闪住
钱存
名
角度看
同一个
概念
欠佰仟
被家
那边
催债
远航
笑
抽
百仟
极速
四千
赌债
非债
成为
网袋
约
小花
邯
几家
竟
崔
要紧
可怕
超能
身份证号
襄
太多会
易
善悉
什借
钱战
7
小树
时代
按时
现代
约束
光速
伙计
肉偿
36
邮享
四天
中信银行
嘛
最
间
利率
小米
为啥
吃官司
1050
三天
法务部
逾期费
躲
呀
越
生越
全面
放开
不通
留当
超
90
三十多万
24
48
离谱
张
马马虎虎
年生
一个男孩
又生
呆
3535
0
罚
添加
继父
冒
初中
毕业证
匝道
停车
年利率
5.635
等额
安装
sw
忘记
断网
输好
序列号
提示
没断
版权
会退
好处费
工作人员
免刑
加油站
号码
实习
接
案子
提成
左转
后车
转弯
时小
半径
超越
十二万
侓
交完
退货
拖期
债务纠纷
肯接
40%
投案自首
减刑
鹰
刘
住
毁约
公司律师
原始股
上市
退股
案请
租户
##
100
万标
旳
大约
行贿
骗取
80
多万
悔恨
故意犯罪
经人
察
三类
罪犯
假释
公示
扒
树皮
罪多大能
减
几个
:
减余刑
地点
义城
监狱
审核
亲人
第一人称
下达
决定书
追偿
权是
递上
送达
表现
良好
强化
屋
名誉权
快捷
短信
答辩状
钱数
大写
小写
两种
不写
上诉状
一审
上交
凡普信
有事吗
装载机
代理人
委托书
抗诉
追诉
指控
犯罪事实
冒充
群发
通知书
承诺书
借据
前辈
支
瑞
阳谷
不发
感谢
表情
治
市区
开个
便利店
电子厂
孝
城
女人
心
内衣店
昭
实用
期辞
告上
决绝
化肥厂
沃尔德
造音
还收
哪儿
民兵
N年
天瑞
集团
离岗
金仑
采暖费
年终奖
回应
绩效
完工
东械
科技
派遣
蓝
亮出
打卡
刑拘
37
释放出来
禁毒
过去
京唐
婚假
吸毒
游轮
出境
科大
讯
含
双休
内有
封存
看见
出面
双倍
查到
伊
区
叶
际
校
员工工资
紫金
农商
奖金
毛
利
钱利
两万
息
天天
没管
2017
月份
＋
644
为止
月息
一分
保护
探亲假
内休
振
护
多万元
应报
拿个
适合
5500
#######
61
找人
79
一千
另外
算清楚
足彩
超额
开除
短期
早前
贷是
七
下款
期要
六千
六
这是
白金
购物
68
算高
还利
本息
靠
谱
豪
1.5
1398
六百
三十一
哈
5200
期没期
590
高利
转贷
5100
一共
7500
一样
两千多
七千
1988
156.23
公职人员
从事
营利性
活动
2300
顶
言律
2.5
助手
追回
告美
攻击
可比
捷
钱分
九期
一万二千
八
他放
恒昌
三农
换
7.5
租
写给
攫取
高额
累计
人民币
微博借
…
求组
惠今
496
查看
13
一百万
五十万
25
算下
4500
488
私贷
似的
天到
这普惠
万一
92
4W
6W6
接近
虽
掩盖
遮盖
过多
非法性
一万二
二万
算不上
33
1673
2800
7009
六万多
4200
435
六千多
骗局
####.
1317
所以
十二个
定
最高
高过
％
利润
贷高
我贷
四万元
高利货
微粒
罚息
加高
烦透
刚满
学生
不替
几分
amt
千
滚成
1400
消了
怎么弄
来大手
算算
27
2550
普惠快
857
借四
1875.84
2796
万借
优亿
9000
数字
一周
百分之
或者
6582
6743
共
期算
天后
一千一百
十五元
一家
专给
赚钱
474.37
ぢ
四万
五三年
八万多
快
党和国家
惩法
v
x9
us
供
372
4464
猥琐
中学生
法方
减轻
罪刑
轻
六个月
减少
刑期
中无退
清
聚众斗殴
审判
陏
起始
这一
红线
记牢
si
厦
实名
公务员
泉州市
2W5
1660
不合理
部分
九个
五千多
小象
优品
狠过
汝
解决不了
机关
补偿款
到位
原件
方
统一
公益
偿
消极怠工
松宝全
宝全担
去过
法庭
主持
独生子女
不法侵害
行为
附近
滨产检
刚
发展
没迁
狗狗
拿到
伸请
富锦
费是
资深
刑事犯罪
追讨
延期
宁
清楚
会见
合浦
各
降下来
亲情
帮教
下队
坏处
成绩
山
济
女子监狱
近况
犯卖
毒品
十五年
政务
全额
刑满释放
系统
列入
失信
探望
受阻
公证处
代办
签证
未婚
姐姐
遗赠
父子
晚婚
年龄
能休
其它
增加
亲子鉴定
强制
十年
职业性
耳聋
九级
7000
争夺
叔叔
已成
何
时才
诈欺罪
护理费
营养费
算养费
我告
没来
囯
杌
亊
业
离休干部
去年
增长
多钱
变像
坛
攵
件
靖
f
递交
消息
保险法
规
左尺
桡骨
双
参战
老兵
尾骨
静
照顾
1947
离休
干部
分级
沈
伙食
补助费
退休
审请
重要
后审
抓紧
六天
候
妨害
公务
凉解
能办
过失
撞死人
溜冰
强借
电梯
内
玩火
和解
漫天要价
现做价
3013
被关
重度
抑郁症
涉枪
传讯
口供
砸
这能
后传
刊拘
侯
甲状腺癌
审后
至人
高血压
颈椎病
病历
决水罪
伤亡
责任人
近
除理
看守
用做
牢
毁财
自行
宣判
我醉驾
聚众赌博
罪现
猥亵
儿童
出具
院录
能不判
抽头
任定
销脏罪
两会
价值
五百元
逃会
认罪
变为
普通
行政处罚
xx
股份
储存
烟花爆竹
额
私藏枪支
鸟冲
好多
可判
天内
因犯
赌博罪
3800
下发
销赃
书面
提审
交上去
工作日
候申
怎么回事
嫖宿
幼女
额骨
钢板
十五个
就医
收据
推荐
策略
交钱
会员
打价
蹲
是从
从取
隼
吹
打了个
糖尿病
二型
额约
130
免于
女婿
部队
政审
丈母娘
防碍
情节
轻微
悔过书
汽油
逃跑
错误
国家赔偿
民警
追责
造事
自首
以叛
中院
隶
非吸
一年期
续
酗酒
酒精
浓度
271
干吗
老总
十天
不留
移送起诉
一步
干嘛
云
文
没给司
话会
伪劣产品
直
辩护词
自侦
权利义务
涉毒
交警部门
刚刚
一张
期满
发脾气
早育
用途
缓交
困难
定额
收入
范文
固定收入
写张
字据
我姐
未婚先孕
女子
婚生子
要交
去向
未妈
宝爸
那个
陪
青春
视为
抚
执行庭
非别
现今
需交
是非
第一胎
各付
已生
二孩
之前
误区
邵
社
生活费
分红
自
出生
夜场
能告
遗弃
已交
他出
做生意
危险
一不小心
走进
凭条
罢休
150
解除合同
要收
代签
撒销
凭
工程款
名誉
时效
于
医疗纠纷
参照
代替
责
丙等
受理费
交给
运费
没付
单纯
撤回
看到
法宝
打赢
二十多年
回钱
专写
截图
婚姻家庭
明细表
桐
起草
谢
家庭
口碑
男朋友
低
非诉讼
摩托
一辆
轿车
肇事车
主
出差
压
驾驶本
考
科目
下次
残疾人
建房
优惠政策
青州
确凿
默认
某些
信号灯
次
下个
周期
违章
城管
罚单
票据
个体
经营范围
填写
以下
三款
之一
红酒
进货单
这要
【
】
骂
填
年收入
八万
江
花费
食道癌
吻合
口漏
剖宫产
流血
水是
血
脑梗
合理收费
支架
新生儿
缺氧
取
下有
危害
术后
口
瘘
种植
失败
诬陷
性无能
诽谤
转发
弯
追尾
感情
经常
没好
也好
回去
牙齿
痔疮
肛瘘
肛门
狭窄
子宫
输尿管
漏尿是
人流
宫腔
粘连
疝气
复发
歪
更
消肿
左右
故
肛肠
伴发
直肠
胆囊
结石
CT
B超
照影
腿骨
红肿
发炎
检测
恶性
癌细胞
扩散
股骨头
掉下来
刮宫
切口
疤痕
妊娠
假体
手臂
神经
损伤
矫正
脸型
变歪
直肠癌
阴道
粪便
肾结石
软镜
取不出
癌症病人
化疗
搭桥
壁
膀胱
搞
穿
漏尿
脑
动脉瘤
呼吸
钢钉
打穿
漏头
大夫
大腿
粗隆间
鼻出血
凝血
脑脊液
鼻漏
药用
量过大
严格
心梗
放入
腿部
脏器
衰竭
窥器
处女膜
环
撕裂
拔牙
骨髓炎
主动脉
截瘫
胶质瘤
残留
属
碎玻璃
胆漏
二次
刮狠
月经
剖腹产
胎膜
反复
不止
宫颈癌
淋巴
肿大
肌腱
水泥
外溢
第五天
一处
联合
打击
瘦
脸针
整形手术
中医院
结肠癌
肠子
漏
Ct
甲状腺
肿瘤
途中
切下来
化验
良性
过后
开刀
声音
嘶哑
肌瘤
弄
胆瘘
前些年
左腿
隆鼻
排异
病发症
栓塞
刀口
右侧
腹壁
有囊性
包块
先天性
髋关节
脱位
条例
小腿
患者
过期
盐水
愈合
导到
脚部
腐烂
行政许可
抢劫罪
喽
判下来
咯
拍摄
照
照去
拍好
化妆
挪用公款
发型
女生
结婚照
改
传统
说明
新泰
情
肝胆
流脓
申诉状
持有
医患
附带
精
范
一审判决
重症
监护室
医务人员
加班费
廊坊
富强
正规
普
工工资
族
哪一点
中石化
寻求
石油
请假
会扣
哪些项目
季度
奖
该算
激效奖
应诉
放假
真
补休
轮班制
白班
夜班
365
工时
220
随意
安排
基数
最低工资
定时
工作制
休息
武汉
航达
航空
基
本科生
面试
环境
时应
早上
点
次日
除夕
并且
公休
打零工
春节
赶着
出货
吃饭
带班
人去
连班
办个
微信里
发红包
年初一
餐馆
30%
加入
平均工资
自助餐厅
星期一
星期五
有时候
客人
晚上
十二点
因此
不算
三八节
女同胞
一笔
玉环
大酒店
裁判
差额
苏州
纺织
染
做过
技术员
八小时
病假
足额
传播
能量
炒鱿鱼
完成
业绩
英飞特
职员
40
全身而退
允许
明知
乖乖
清账
费率
随行
46
1350
他妈的
融
360
3900
借期
5101
万脉
信息技术
好不好
调休
好话
批下来
137.9
1.3
三班制
星期六
之类
发嘛
多月
它们
二千
我待
一比款
824
303
39
四次
博
救
公安
查人
房借
一千二百元
整天
平邑
两万元
变相
整治
308
23
69
五十个
78
身边
裸贷
抵消
校园
答复
万恶
举
报捷
金融公司
交叉
在校学生
收起
十点
利算
夸客
涉
去告
借不起
难道
要用
命来
触犯
曾经
追
逃债
来秀秀小贷
按借
使劲
逼死
黑心
小姐
抓捕
碰
没命
1840
爱
2998
法制
人管
万才
房照
采沙
许多
逼得
紧
生活
不敢
既然
代了
2544
死
不借
违约金
人欠
对待
追杀
不当得利
债已
打官
19
求解
300
变成
不怕死
贷给
防范
告捷
衣服
4088
1132
柠檬
帮别人
千万
零
周息
2.8
个点
私借
小猪
白卡
每
3750
胎
锐减
以前
降低
交清
能少
交点
净
生出
做到
婚外
生子
啥时候
抵
房款
拒付
少付
逃避
特征
城市
水平
拿来
现任
发短信
催缴
有算
探视权
丧偶
十八岁
反
中止
执
没钱交
应付
证件照
避免
幼升
小要
取环
银行帐户
打入
欧尔
全通
呀呀
网易
港
陪护
一婚
结婚证书
发放
老爸
领没领
周日
周末
顺延
盖
章
双胞胎
再生
假期
夹有
餐饮业
延迟
人流量
场所
查案
底
先裁
正休
不带
综合
评价
包含
节假日
顶泰律
联盟
育
制定
组鹅问
国庆
婚纱照
问过
阳
纷争
大致
作用
消除
改成
原主
暂住证
亿
后台
总监
应有
最能
平息
邑
涉资
责任能力
邪教
大慨要
被害
泰
岛外
房价
140
凡
终审
脑袋
评定
拾级
走私
香烟
值班
算作
170
平方
试用
两份
承
招商
销售
年纪
宪法
改宪
女朋友
比例
抢夺
四起
弱智
涉外
墙上
面目狰狞
调查取证
过程
月工资
陌生人
骗钱
找回
处置
流浪
乞讨
警情
金钱
第一次
撤诉
隐瞒
近亲结婚
加微信
悬案
农村土地
征用
替
农民
说话
不合
娘家
盖房子
强执
贵州
职业
同城
招聘
您
民证局
违章罚款
五十元
九百
三百
扣费
家济
能领
补
律
咨询会
白
三旧
改造
租客
一篇
概括
整理
发表
原创
资讯
贵不贵
开封人
拥有
开封
永
30kg
判处
前提
最少
擦
行政复议
看病
营业
经营者
名义
侵权案
考上
研究生
开学
赔偿义务
住址
方向
非诉
毒
豆芽
资质
劳动报酬
修
火烧
邻居
保证书
义
侯申要
裁定书
终生
妇女
受辱
不予
溺水
身亡
同伴
两万块
服务公司
哪家
清涧
张黄图
构成犯罪
本科
历
一拖再拖
兑现
潜逃
量刑
胜率
评估
故意杀人罪
教唆
职务犯罪
现已
机会
机
间隔期
暂停
砍
很穷
八个
能减
十八
零两月
钱越
早
累犯
对此
昨天
检疫
牛肉
得判
司法鉴定
唱红
歌能
置
儿戏
有害
减肥
品
年会
少管所
好能
非国家
受贿罪
最多能
运毒罪
二建
法规
题
选
BDE
DE
资格
阿
持枪
因素
这得
亲生
有宝妈
六岁
探视
权应
注意事项
准赢
无奈
学费
亲生子女
明文
定义
酒醉
不当
判定
哪些因素
产后
大出血
而且
医
干净
白内障
视网膜
脱落
开销
能涨
臂丛
多有
男孩
一周岁
释放
将来
升学
毕业
嫖娼
抓会
电缆线
销毁
mip
聚众闹事
当兵
背景
瘘算
寻
绊
滋事
戒赌
旁观者
罪有
好找
偷窃
保留
考完
制
证出来
教练
托人
四给
枸
留有
身患
艾滋病
炮火
烧伤
炮厂
上去
本月
号
下个月
同案犯
执业
以内
转所
揭
警察局
销案
诉讼费用
五天
被扣
执行款
不给款
求问
设有
机率
涉黑
贪贿
案能
万至
携带
赃物
刑事诉讼法
经过
二人
追加
900
补充
一场
状
格式
做出
参考
有利
工伤事故
反而
换成
贩毒案件
提交
免责
姓名
民事案件
己方
错过
上诉期
异议
答辩
表格
正当竞争
拟写
林
一案
这起
裁决
赡养父母
鼓
入住
未婚同居
仲裁书
挪用资金
转错
养父母
斗殴
家有
菜地
寨
1986
以来
司法
负责人
一九九八年
分地
我于
一间
人工工资
舒
密码
县城
付完
一封
每人
人取
教练车
租给
写个
书别
压在
债权债务
肇事罪
中介费
成交
租地
租金
手写
打印
写上去
犯罪集团
重
吆喝
切
后撤
引流
打输
最好
房屋中介
控告
平均
写份
私自
楼房
下沉
开裂
程
输
没发
安康
二十五
五千块
讨回
有名
做肠镜
芦
诉讼案
当作
牢行
美女
帅哥
太和
欺骗
代理律师
聊
应收
沟通
结决
要账
120
之内
商事
渝
浦
海事
海商法
一般来说
武
65
赔偿案
审阅
诉讼请求
蓟
刑事案
代笔
拟
慈
评为
人事局
科长
资询
已付
办好
宽城
分户
交通费
尾追
朮
三七
一百
二百
泉
这些
怎
自理
卧床
重大
病
去学
伙食费
脚趾
骨裂
休养
误工
昌
做个
公伤
右手掌
肘
护理人员
两人变
三餐
应算
五保
遭遇
五级
膝盖
坚定
肚子
竟然
纱布
另有
技术鉴定
清宫
切除术
肝门部
胆道
不然
吉
护工
口腔
尚未
卫生局
移送
霸
市讨薪
这难
讨薪
热线
贵府
最快
血汗钱
促销员
商场
超市
劳工
屡次
未果
之下
方妥
固始
不触
句
农
薪
公
找临
市长
管用
救助
打工者
茅
多难
漫漫
讨薪路
年商
市一厅
办公
窒
懂法
出台
家讨薪
难该
心酸
省委书记
永年
二年
无果
彻底解决
年关
来自
51
踢皮球
向监
被员
持
录取
跳楼
寻找
下跪
大哥
大佬
明星
衣橱
创业
走向
万人
无人管
埔
衢
又现
保洁员
东进
球员
向足
西
艰难
之路
暴打
苏
致死
一群
帮帮
槽
姐
劳资双方
有话
讨
打水漂
老梁
打不起
转包
所讨薪
乐视
劳动部门
标题
地址
服装厂
躲债
铁岭
帮其
315
内购
丁
零售
峡
合法权益
好日子
代理商
一九九九年
教师工资
未付
名中
船员
滞留
秘鲁
皮包公司
裴
代课
直到现在
功
维
公司财务
浙江
2016
分包
总包
同友
伟仕佳杰
重庆
伟仕金服
解散
旗下
几百号
何去何从
包队
视频
自述
一事
经验
两招
排
国营
资金周转
赣
骑手
广大
消费者
法定代表
童工
明年
曝光
昆山
国华
测绘
热心
记者
电话号码
质问
温
何时能
没什么
新人
主播
严查
蒲
席
’
公司地址
万友
项目
盗刷
华美
奥
五个
府
发包方
包房
途
旁边
足
卡里
霸道
血汗
华鑫
光学
厂
很大
辞
辞到
工后
搜集
暂时
窑厂
多元
徐
市久发
工程机械
望
莱
水
嘉年华
安全员
游泳
服装
导购
罢工
掉货
书记
本村
活干
占
武和席
丽
矛盾
升级
安心
上学
夫妻关系
紧张
病号
猝死
拔
尽头
牙后
下颌骨
牙医
颅骨
凹陷
闭合式
从前
变化
神智不清
手脚
乱动
牙时
牙槽骨
一小块
同房
开腹
腹部
结肠
息肉
拔掉
提单
十万左右
脑梗塞
偏瘫
失语
取时
根
骨头
肺叶
尖
胸膜
眼睑
下垂
线头
细菌
感染
宫外孕
有伤
补缝
胎盘
第三方
案情
制造
贩卖
托运
逮到
能算
制毒
半成品
小包
帮人
转运
厂方
开颅
血水
结核
肝功能
高出
一千多
五官
七级
做手术
缝上
隔日
勤
杰
斯
甚至
通宵
打更
奥普
底薪
答案
元旦
节气
百丽
华南
物流
涨工资
匿名举报
基本
@
商务
助理
汶上
联民
符合国家
人误
物品
当做
加以
大干
主管
却说
资
1.2
快报
230
中秋
记
统计
天假
耍
最多
十一
天能
超长
1130
姿势
≠
上班时间
过长
一个半月
从早到晚
监察
早退
以实
正方
标
专门
算法
隐形
一模一样
法官
平常
好运来
中心店
高管
强迫
麦当劳
发回重审
记件
出生证明
交纳
法律文书
该要
串通
作伪证
伪证罪
更改
最高院
证据规则
解除婚约
礼金
成亲
决裂
我儿
退婚
聘礼
金饰
南方
退回来
冠
医保
骗保
二休
早班
晚班
一班
二天
顶班
这天
7w
实习生
例假
国假
初一
初二
初三
离家出走
天班外
8.25
双休日
2.75
法定
基本工资
2130
总
给出
道理
才刚
伤透
索回
十三万
媒人
假日
节日
67
不有
两倍
未经
批准
赚
五小时
何群
家具厂
直落
-
十块钱
过节
赛轮
天给
飞行员
下班时间
但厂
车要
发车
半小时
学校
老师
问哈
漫步者
舂
节
3O
天班
正銮
天来
该是
日至
五征
长春
百克
某
制度
21.75
3480
例子
1940
不足
年休假
二十分钟
木工
学徒
工资标准
计算公式
逢年过节
三倍
昨晚
黄
港口
一线
26
天制
2600
搞搞
通勤车
无条件
休息时间
违
1680
工龄
125
K
进厂
妇女节
古尔邦节
青年节
4800
清明
不饱和
顶替
休息天
教师节
华联
恒力
宝尊
夏普
春节快乐
轮轴
车间
歇
说法
强求
星期天
七个
大姐
帮帮忙
三月份
开资
参加
3.8
课
超时
迟到
施工员
」
施工单位
点到
家要
塔吊
司
半天
核算
LG
停电
瑞安
开会
一名
300%
工是
实际工资
大学
教工
补贴
补班
补完
休息日
余
度
9.4
多天
转正
预备党员
普工
应届
毕业生
预报
党员
支部
大会
加工资
谈判
新年
翻倍
泗
燕
慢
刚来
判离
隔
报废
回答
首套
禹城
水泥厂
临时工
进国网
不久
休闲
中心
赔尝
体检
乙肝
教书
布置
任务
一整天
懒散
看不下去
亲妈
冤不冤
华为
生病
生日
那天
简历
不符
予以
地税
助征员会
校招入
职后
满意
海
现有
长相
焊接工
村长
精分
维持
无缘无故
配送
员
莫名其妙
即将
七年
发出
不签
会计人员
下会
国庆节
患病
★
代课老师
未出
工单
天因
偷懒
怀孕期
进修
下岗
岗
险
工作量
会社
矿工
厨师
试吃
菜
讨说法
车是
挂靠
补偿费
规矩
文件
出警
天有
业务员
两笔
重合
当年
不休
假条
伊利
规培
聘用
细则
华为公司
与非
某国
指派
就要
注
字样
合格
外债
炒菜
时常
咸淡
懂得
编
某个
编织
考核
规章制度
服从
轮岗
技术工
同事
饭桌
劝
缩减
无限期
学
觉得
应聘
公交车
蓝色
光标
诋毁
无偿
宾馆
招待所
停止
老动
私立学校
寒假
感冒
餐饮店
阿里
"
抢
月饼
至今
结清
市民
求助于
本报
保密
全部内容
会计
国有
林场
十二年
健身房
莫名
时有
去劳
仲
局有
海外
无故
app
开发者
同行
三星电子公司
十多天
班因
协
警员
诉求
财务
拟定
完全
不利
机密
补签
备选
投资人
神墨
教育
绝密文件
外贸公司
永久
企事业
财务人员
做些
随便
保
聊微信
撤股
中是
脱密
先问
外企
介意
要告
泄密
时女
十六岁
改名字
问小编
现行
法要
上副口
竞争
协作
陕
发帖
帮帮我
本案
侦查
调
担任
性行为
该不该
污蔑
诽谤罪
梅
机务段
照发
路程
京东方
有效期
休完
跨
上个月
月初
连在一起
各地
比亚迪
带薪
假有何
在济
丧假
幼儿园
明确规定
指出
五班
三倒
日休
茂
甘
审批
仍
少于
滁
路途
克
罪能判
0.1
判克
孟
250
美年
健康
四十多
3g
299
克有
1.6
公吨
假是
克是
死刑
戒毒
干戒法
请假条
600
克能判
十克
1.48
克会
毒品走私
抓获
五五
上思
公斤
毒品案
#.
34
93
千克
克会判
农村户口
营运
误班
损失费
助
报告
赔到
理
六十四岁
城镇
应当
右眼
视力
下降
偿费
雅
荥经
脑损伤
下巴
厘米
缝合
股
腓骨
赔多
门牙
碎
半颗
松动
方有
脸部
毁容
我出
变形
嘴巴
缝
针
脸上
人身
纠纷案件
采
课员
二十二岁
胫
丰
耳朵
聋
女性
惨
中受
精神损失费
火食
上出
腰椎
大盖
十字
半月板
评了
盘
突出
发了
2002
年广
右脚
第四个
截肢
留下
8%
日利为
0.41%
亲身
体会
!
打着
旗号
金条
0.85
年化
23.4%
多大
利才
黑中介
坑
须要
五百多
三万块
利属
五万
扣货
我输
费要
车卖
我得花
我前
不接
那写
移交
石门
一巴掌
一趟
原告方
公告送达
5700
递
诉讼状
先付
哪方交
倾诉
不办
百万
厩
肺
万请
钱诉
粮食
#####
民事纠纷
徐州
保山
店铺
赵
走法
光是
大该
出钱
陪购
借债
枣庄
岱
宁德
公诉
减资
结束
崇
市请
行政诉讼
行政拘留
买顶
账房
便宜
去华谷
临
见
当事
打扰
十六周岁
会留
犯过
盗抢
罚钱
录
手印
2050
十指
内裤
南航
刷
过会
技师
飞机
进入
上报
撤案
池俐
撞死
1996
木材
一件
一百多
天会
买楼
十五岁
犯错
消
水果
过关
被查
用刀
吓唬
尤小
治安拘留
批捕
追逃
打人
变衣
抓赌
能消
社区
消掉
专销
有期徒刑
缓期
关了
黄车
盗窃案
打仗
打方
十五天
偷钱
拿走
洗浴
手淫
初中生
验
小便
管制
刀具
警告
消案
犯事
打架斗殴
批评
人会
来察
群里
g
坏话
警
能查
换句话说
色盲
进场
违法乱纪
转行
拘有
差
公安部门
指纹
告诫
施暴者
监视居住
84
严打
按摩
治安处罚
后会
算有
劳教
酌情
刑警队
冲突
消能
学车
抢夺罪
共享
入团
外公
抓人
连同
里加
出走
家里人
销底
猥亵罪
订
尾随
三面
公证书
生效
跟家
须花
套
适用房
何人
在场
两项
应由
这份
能为
意识
公证费
私生子
卖掉
继承权
攻克
难关
证券
黄金
计费
断绝
亲子关系
本本
委托人
先办
针对
送到
酒水
乱说
除
散播谣言
心脏病
转走
单方面
一吕
官事
菏
贬值
宿
刑事诉讼
六万元
三仟元
纠分案
阳新
家庭财产
四千元
·
变换
全给
'
陵
原本
庭外和解
全程
五万元
需付
殷
动迁
人工费
费少
启诉
打小三
万左右
哪里找
打关司
强奸案
35
管司
如请
付不起
庭前
著名
商铺
房屋出租
特别
百科
诈骗案
计
总额
57
疑难问题
子
母能
这房
附合
农转非
房属
我哥
婚前婚后
这套
房是
出租
夫
形态
界定
绑架勒索
期是
本罪
夜店
容易
发来
表示
结了
上庭
劫持人质
而是
举止
得当
######
好要
书上
庭能判
最多判
扶养
十
精神病
强奸罪
不付
合作伙伴
搬走
无现金
有戏
兵
性格
冲动
几岁
镇上
生小孩
检点
争到
日常生活
传染
多少岁
大三阳
钱能
授理
礼物
梅毒
二十天
夜
归宿
订婚
她家
追回来
花掉
多想
骗婚
前女
索取
定婚
标普
007
网能
处处
为难
邯郸
哪有
新娘
跑掉
咨询室
南宁
西乡
塘区
付费
有点
东莞
个事
援助
老表
繁昌
咨询服务
咨询点
接待
淄
滨
当面
有偿
故事
费一
诬告
修正案
九对
拐卖妇女
罪有何
修改
依照
建筑
刺
纹身
分裂
煽动
闹心
车顶
放个
偷油
宝坻区
卸磨杀驴
务
目前
听证会
裁定
养老金
残疾证
听证
人事
没找
分店
医务
工作者
轮转
下刚
养老保险
变月
缴
没扣
薪水
下限
外贸
第三个
放款
刚过
劝退
头疼
当天
第七天
会签
齐
没过
这时候
记大过
尿检
报名
考驾照
招工
戒
八年
财从
隔离
戒毒所
问问
十二天
年检
审时
2012
七折
重考
几科
管控
已满
吸食毒品
b2
扣分
2015
审办
换证
毒驾
吸毒者
恢复
前吸
过毒
大队
搞不懂
动态
撤
以满
考取
预约
史满
2019
检证
申照
2010
订机票
吸多
急救
报考
登陆
常规
疑似
十几年
户籍
土
特
旗
包头
居住
想报
明考
上岗证
讲
房地产
数罪并罚
开无
高度
近视
结扎
同胞
姐弟
责任事故
出险
史能
身上
局带
成分
已过
现回
居住地
高空
坠物致
高二
电瓶车
程度
照看
概率
哪些方面
高异
挣得
继母
恶习
非婚生子
脱离
父子关系
单亲
送人
事由
娃
店长
锋
行贿受贿
向纪
委
贪污受贿
受到牵连
终身
监禁
贪污贿赂
贪
钱算
提高
谈谈
占有
被害人
一词
医闹
1998
疗
胜节
石
玛
行动不便
首次
命案
肉芽
右身
最薄
1mm
英
童
刨
妇产
堵塞
淤血
精液
腓
摔
脑部
玻璃
末
异物
消毒液
中毒
错
粙
细胞
瘤
含牙囊肿
相差
3CM
胰管
结实
留长
抽血
丢掉
肾切
插
管子
脑瘤
生命垂危
术
肠
血管
蜘蛛网
膜
钻头
血流
穿刺
智齿
摩皱
消融术
三度
传导
阻滞
拍片
造瘘
纳术
小肠
化脓
微整
眼瞎
脂肪
液化
胆
乳糜
扭伤
下肢
静脉
血栓
螺丝
没上
稳
鼻梁
有包
山根
0.5
距离
对称
美容院
垫
眼袋
牙根
没拔
镜取
胆结石
疗事
初步
胃穿孔
十二指肠
溃疡
打开
腹腔
腹膜炎
积水
宫腔镜
麻痹
性
肠梗阻
走路
新政
合理合法
解释
1991
食物
渗漏
修补术
缺损
门诊
液算
前线
微创
射精
内出血
管拔
窒息
并未
指
罪与非
行医
节育环
狂犬
疫苗
高烧
不烧
穿孔
治愈
环断
囊肿
消炎药
二个月
左眼
露白
住院医生
开药
毒副作用
四肢
瘫痪
股骨
一口
痰
呛到
肺里
脑子
受损
磨骨
肿
麻木
理解
遵循
严重后果
能胜
捐赠
发烧
院方
毕竟
做人流
费劲
中有分
起水泡
人伤
鉴定书
42
之久
超范围
分娩
建议
腋臭
通气
忘
异致
最佳
鼻中隔
弯曲
四级
前列腺
胎死腹中
鼻息肉
失明
无痛
军队
离退休
人工
腕
奉
扫
发麻
烤瓷牙
周边
化脓性
阑尾炎
感染性
休克
胆总管
中段
缝线
月旦
总管
二十年
假性
事过
结扎手术
前人
高位
梗阻性
黄疸
钉
早期
正州
专打
赶到
发现自己
肚子痛
病治好
法律依据
部位
划破
隆胸
摸
咕噜咕噜
坏牙
火化
258
肌肉
坏死
有碎
药
解体
肺癌
检验
针炙
病变
花钱
根线
我刚
二月
脑膜瘤
右肢
麻药
过敏
呕吐
吐血
拆线
甲等
采用
人们
重先
没清
修补
看不见
除皱
眼皮
做切
麻醉师
帊
喉咙
呼吸困难
脑水肿
鼻
踏陷
发高烧
脑瘫
好转
惊厥
腹腔镜
肠瘘
钉断
脾
摘除
0.87
cm
间隙
长大
二倍
男孩子
绑
刚丝
弟
钢丝
碰到
静养
肾炎
并发症
疝
肠漏
硅油
眼压
血量
毫升
一边
眼角
中线
始终
自主
巨
后期
体外
振波术
结节
切成
甲减
血肿
肠穿孔
失血过多
转院
手术过程
发性
样
物质
输卵
小洞
昏迷不醒
做错
粪漏
症状
封闭
萎缩
手上
桡
中断
喉返
做坏
一只
太大
脱垂
刚出生
婴儿
血尿
肾功能
切断
现象
诊所
处方
没长
膸
缧
丝
打滑
止血
一遍
等级
八级
有血快
试管婴儿
取卵
移植
眼角膜
漏油
双侧
声带
右肩
钢勾为
链接
腹产
第二个
肾
摘掉
全切
絞塑订
移出
导至
肌肤
脓肿
恳请
距骨
外翻
肠粘连
剥离
时肠破
缺钙
多上
肚子疼
患
胃癌
动手术
顺产
遗漏
残留物
在子
处有
积液
括约肌
被切
段
尸检
积瘤
+++
缝合线
拆掉
后断
单眼
修复
现看
黑影
浮动
后过
胸部
用药
冯
缝隙
宽
医治
中途
罪中
药品
残液
器械
胰腺癌
后拔
两周
腘
窝
不孕
疼痛
肌干到
1220
当乱
尾炎冶
性肺炎
俩次
大便
私活
豆疗
x
光片
纠
去逝
安慰
腺
皮割
偏
大面积
定期
晚期
只任
后长
嫩肉
错位
豁
一针
脚踝
关节
颈椎
未能
颈椎骨
补钾
过量
双氧水
清洗
烧坏
皮肤
四维
彩超
唇
鄂裂
止疼药
输完
卵巢囊肿
前列腺癌
做破
后破
脊椎
剖腹
指征
不闻不问
馕
异位
证属
挂针
疤
嘴角
结账
彻切
脓
右耳
畸形
牙龈
中有
一根
针尖
喉上
外支
中患
方要
癫痫
肝移植
肝炎
农村妇女
渴求
揭露
真相
求助信
神经性
胰腺
处理程序
患方
他拔
附件
肺栓塞
快生了
外露
嗓子
哑
高级别
浆液
腺癌
启动
宫产
病情
友友
优秀
因生
丧生
宫颈
裂伤
插管
食管
气管
种树
承包地
亩
黄地
一钱
通州
沙井
询
以为
扎穿
动脉血
胳膊
肿胀
透析
罪要
腿
钢筋
如是
心硬
奥美拉唑
落下
钉子
隆
冤费
唐河
古
辽
康
阳高
大朗
株
陈年
犹豫
修路
祖坟
迁坟
墓地
一到
找衡
宝宝
后遗症
顺义
伤病
55%
复杂
西安
陕西省
榆林市
散份
方案
戊等
年限
医疗机构
表亲
付款
不清
退赔
从轻
同步
获
4320
医方
死亡事故
德
双眼皮
尿管
反回
74
课程
事态
缺陷
侵害人
丧葬费
B
C
D
抚恤
赔偿申请
失误
全科医师
赔赏
除了
相
71
医疗卫生
挤断
水药
特殊
II
政
副
私权
遗失物
肛裂
手续费
所盗
加班加点
人民法院
领土
历史
对齐
种类
分类
次数
睡眠
-------
授予
牌照
纳入
年满
人大
手机电池
可拆卸
境外
人民
第八
十条
抓会关
原谅
遗弃罪
共同犯罪
法定继承
称为
中箭
失效
遵守
学习心得
表哥
从重
坟墓
交思
一会
判会判
法律常识
移民
讲座
观后感
退费
熟悉
招标
招投标
量
留学生
现役军官
道德
常识
学到
作文
逮捕令
接下来
友谊
小船
翻
罪会
小零包
六月
二十
知悉
哪一
秘密
级别
自诉
院以
滋生
财产来源
收铜
外交人员
偷渡
越国
境
不放人
系
批准逮捕
都还没
搜查证
麻雀
国际
商法
简述
逮捕证
签发
法系
大陆法系
釆
英美法
系有
本质
文化
带来
遗嘱继承
对抗
主义
罗
欧
疑问
一旦
改变
英美
海洋法
两家
普通法
村民
选举权
医疗保险
没卖
商业保险
交强限
自费
主观
买保
单元
能管
司考
法理学
执法
含义
收教
从业
经纪人
论文选
题目
法律纠纷
居留
收容
人算
浴场
领班
目的
好像
捅
马蜂窝
伪
女权
产业链
弄出来
讨论
推胸
初次
不正之风
引诱
少女
外号
香在
骨科
隔壁
温馨
旅馆
卖淫嫖娼
废除
罪后
溧阳
大浪淘沙
报假警
店里
京华
电话录音
租房子
红
兰
支持
组团
房间内
避孕套
夜总会
没多久
开店
姑娘
十次
帖
足浴
城为
发廊
收钱
打理
事物
性病
公开
管一管
抓会判
判行
两对
有安低
定居
讲完
无知
最轻
胁迫
惨遭
强暴
侄子
拱
72
陆
室
然
性感
暴露
就会
放人
中间人
无证据
协调
监外
觉醒
表扬
从中
柬
正当防卫
咬掉
一岁
真是
走投无路
蜂窝
经荒信
笥
训呐
十二日
偷车
公共安全
幅度
出局
贫困
骶骨
致使
鼻骨
必填
黑车
在读
高中生
丧命
两处
腰上
湖
脱节
肺部
血压
变高
气胸
头皮
适
睾丸
赔偿费
软组织
最贵
股骨颈
p
s
尾椎骨
折
想着
49
聇
旧病复发
具体内容
责己
耳鸣
后人
犯罪行为
考勤表
通话记录
提起抗诉
暴力犯罪
时限
审查
财产权
住院治疗
婚姻登记
有无
具
司法解释
详
念斌
私生
死者家属
家庭暴力
侮辱
内涵
成本
按摩师
做活
判型
ta
et
大良
顾用
招
拉架
精神失常
快钱分
459
真实
闺女
九岁
要接
能争
倾向
归女
行情
忻
起讯要
海伦
青浦
一万多
得花
交货
先保后
gu
鞍
会接
人告
顾
探监
天津
m
假烟
带要
最多要
淮滨
到家
整个
辫护
找广
遗书
钱武
职务侵占罪
纠份
缅
涂
潮州
稻谷
大连
律师所
书要
丘脑
比照
4150
师要
苏州房产
无赖
假币
案值
受害
方请
代位权
追缴
税费
未获
悔婚
拒返
拘
幸福
未登记
昔日
恋人
后悔
返
谈恋爱
婚礼
传
早泄
每次
一分钟
劳资
实情
婚约
实现
部
比如
四岁
即告
代价
重婚罪
蓓
指南
专利
举行
感情破裂
退换
中银
事务所律师
金山
秭归
沧州
莆
另交
峰
保外就医
临沂
轶
金牌
信阳
运
标点
权威
庄打
喃
咨问
顾问
庞
相邻
人群
请西
经管
送回
孙女
可取
舅舅
外甥女
责怪
侄女
离异
收地
代为
诉说
耗时
父母双亡
有病
带走
一孩
减免
非婚生
补尝
条文
母乳喂养
魏
隔代
要争
我和情
生一子
几率
最让人
痛心
乙肝病毒
尽到
为孩
独生子
优势
追要
继子
不明
已婚
意中
再要
各分
居住权
悲愤
娘家人
销户
好好
民法
十月
改为
听
意味着
物价
该涨
征求
二个
有利条件
背后
大足县
优
2700
烂
赌
一百元
日息
0.12
裸条
疯
认可
1747.28
456
真能
上岸
莘县
本利
5143.33
第三胎
嗌
俳
ふ
庋
反法
118
蒙
胎生
三胞
新规
先前
现役
91
老五
当地政府
交付
24%
反思
家生
驾碎
碎念
踢
辅警
天生
准生
怎样治
拳打脚踢
泸
街采
证人
作证
棍子
天蝎
要失
耀
商洛
超标准
百分之百
左臂
大型
袁
不请
晋
平顶山
珠海
肯定
地步
乐清
汉中
相差近
百色
门店
辽阳
侵占
楼道
公共
威
3.3
万找
进来
戒毒者
接活
办成
法警
辩护人
必败
有价证券
潍
复制
无罪
犯罪分子
给拉去
入户
辩驳
癖
有利于
此案
十五万
军婚
步
严重性
交通肇事
罪轻
农用地
民政部门
造假
措辞
有份
财
武清
五套
形婚生
时否
咱们
满足
猫咪
非农
多份
庄里
里开
象山
先签
办假
理财师
多高算
6250
9761
天要
1300
3.2
3067
花算
一亩
日算
元变
滞纳金
没人
亚洲
国投
征用土地
食用菌
大棚
事宜
缝针
豆豆
1.78%
阳光
小牛
160
4.5
期共
万是
摔断
大慨
能评
脸
刮伤
皮
3.17
没判
耳
打破
这事
矿
千陪
钱算悔
头发
失手
告到
并立
缴费
私闯
民宅
大母
七八个
打塌
打折
末节
五名
眼下
连续性
方便
左脚
内外
踝关节
耳廓
验伤
划伤
缝十来
滴水
巷
台
别
列外
青年
伙同
集众
罪名
集中
失忆
动不动
打死
慢慢
一死一伤
持械
主谋
三种
罪行
打篮球
刑量
杀死
自卫
撕破
扔
两针
指认
未到
会判型
两伙
定为
参与者
伤检
头破血流
结伙
几十个
已取
如东
掘港
苹果
KTV
在校
拉帮结派
老大
顺眼
成群结队
无人
受雇
挖掘机
现以
民事责任
积极
达成谅解
下能
砸车
陪款
赔过
给判
书有
无罪释放
交到
群众
联保
书后
初犯
签写
罪写
书能
减形
线路
起诉方
方写
书罪
指教
逃犯
199.2
况且
自由
作案
贾
不退赃
实刑
法定程序
可定
扣住
十个
天能判
跳车
表妹
人员构成
债犯
拘禁罪
公共场所
人身自由
债人
八十
第七项
自由权
威迫
控制
长达
退役
反正
复员
没关
人格尊严
被困
责令
家庭成员
夫妻间
刑罚
入股
四百万
两千元
麻将馆
打牌
八万块
钱会判
娱乐
涉嫌犯罪
环指
离断
陪付
大额
人身自由权
打多大
麻将
打麻将
有答
玩多大
两百元
输赢
赌资
750
元会
例如
钱够
线
玩多大算
是因为
很小
深受
格力
赌约
期货交易
一类
桌上
打多大算
群里输
发钱
群主
禁
严惩
打扑克
2005
独生子女证
毛钱
棋牌室
百多
蹲点
要关
群
一段时间
较
桌面上
五百块
带头人
妨碍
抗法
十六
十几万
建个
三元
十包
扫雷
因涉嫌
几万块
网赌
输了钱
没录
会放人
73
桂
社步
流水账
万会
获利
万要
上输
输钱
几万
害人
己经
各个
商品房
爸妈
迷上
元到
猜
尾数
微信群
提问
所谓
一段
条纹
一句
毛病
住户
超人
节制
一百五十万
两百万
提起公诉
缝八针
无过错
婆家
起到
之争
房要
分看
己满
一笔勾销
缺席
跟随
家务
版
内江
古请
绵
订立
保险合同
邢辩
预备
要债
湖北
瀛
楚
高不高
嘉
一同
现身
打白条
洛阳
汪
准则
师费
内部
遗
翻案
强戒
候审
双耳
高频
托欠
要算
提租
接单
肺结核
财物
我休
80%
农药厂
42%
已内算
喷漆
污染环境
血友病
招收
腰肌劳损
医疗期
满月
上烟
小学老师
应扣
上市公司
为何
劳管
暑假
搬
菜算
招用
追究责任
会受
中小学生
暑期
十二岁
监察部门
承脑
鹑
雇用
反告
利用
输送
亿多元
帮工
某某
桌子
快算
圈里
言语
不断
名声
造谣诽谤
群及
发传单
个人信息
删帖
删
他家
造谣
这位
监考
极其
难听
谤
肖像
还发
说出
话算
四处
爸面
偷人
人物
此事
侮辱罪
成小三
那人
公然
零花钱
一对一
散布
紫
神
嫌
懒
好玩
鱼
大大
判罚
匿名
祖父母
争执
三佰
柒佰伍
万算
付给
聚赌
要管
7600
8344.8
纠缠
1157
远离
8600
4900
2200
232
4176
安逸
花贷
447.7
1.75%
借趣
危害性
1.89%
7400
期连
本代利
178
日利率
0.188
123
逼债
正信
牵线人
无辜
帮算
中邮
9900
倍数
9700
撕
75
1012
十四天
1100
i
绝对
分算
天使
砍手
贷小
2950
2497
5007
带利
五
正义
屈服
天让
1832
5806
高于
特点
2174
局因
贷养
贷能行
八十万
小额贷款
叫做
收账
九万
二十四
五是
出庭作证
破损
缘起
变迁
防卫过当
罪过
勒死
下算
不孝
仗
急眼
我算
3439
槽钢
砸断
脚趾头
山杏
重婚案
公开审理
打出
新生
打针
我右
下端
残
十人
肠断
指尖
10mm
2mm
廷长
血小板
症
改过
后能争
膨出
继发
椎管
先兆
嫁人
柜
结算
结帐
执照
更大
成长
切实
粘贴
没取
固定物
弱势
我见
两岁半
可能性
锯掉
接上
手背
砍伤
砍断
第二根
肝脏
体积
2cm
瞎
上肢
肘关节
脚后跟
单耳
爆振性
可获
母指
全断
咬头
鉴
多少级
短
两根
半截
两只手
爆裂
三节
胫骨
塌陷
两块
接触
接柱
骨伤
指甲盖
砸掉
评到
末端
断去
踝骨
折能
四根
眼
人体
腰
0.3
0.4
士兵
捎
小母
指关节
截枝
需做
指头
断五
鉴赏
撕脱
性骨折
脚腕
两颗
牙能
第十一
评上
癔症
筠
县人
监定
右大
能定
右臂
环枢
背载肢
癫痫病
腰间盘
杠
髁
衬
因伤
伸直
残纹
3l
烈性
十根
左耳
90dbnhl
30dbnhl
能构
压碎
尺骨
鹰嘴
老年痴呆
测试
智商
器质性
阳萎
成年人
网吧
小骨
两只
脚裸
聋哑
整体
脱套
动是
第五个
截止
左小腿
头颅
摔碎
手碗
手法
复位
肾衰竭
能鉴
舌头
半边
内壁
爆裂性
第十
折断
切处
晶状体
0.8
粉碎
用力
评残评
泪小管
眼眶
母
变能评
碰断
右足
骰骨
定位
劳板
问是
中外
需赔
脚指头
骨碎
可赔
蛛网膜
下腔
双乳
走掉
一眼
1.0
裸眼
矫正视力
左胳膊
隶属
右小腿
压断
医好
断指
再植
眉骨
额头
趾头
二脚
割
髌骨
生话
第一节
该定
孕期
3.4
毫米
分离
创伤性
脾脏
保守
过错方
征婚
给与
分手时
精神分裂症
讲堂
基础
最大
育儿
一女
一儿
钱偿
虹
毁坏
公私
财物罪
处罚金
绑匪
万源
小时数
小女孩
成在
公共场合
读
多岁
女童
养女
猥亵妇女
脱裤子
咱
大街
梦鸽
强奸犯
出量
解书能
证词
于欢
老年人
轻度
陪同
贩
帮人带
绑架案
注射
奶茶
还债
下帮
被查获
83
克判
吸食
五克
数量
保外
0.72
钓鱼
6.3
窝藏
藏毒判
570g
运送
343
克应
接受
克要
消防官兵
陪产
参予
有生
31
特岗
埃
哲陪
昆船
女博后
克明
表有
消防
宜
建有
进出口银行
高龄
休产前
假及
国税局
刚进
赴美
高龄产妇
女工
圆通
华雨
照明
积攒
婚嫁
预
楼盘
男性
呐
退要
正
黄色
32
庭在
记得
需再
因有
梗
预审
不得
铲车
大事
时交
邢
完庭后
传染性
司法机关
科
可信
牵连
类型
公检法
第一阶段
车量
后能判
能放人
被叫
客容
庙满
得来
假药
焦虑症
冠心病
心肌缺血
销赃罪
中要
捉奸在床
作息
关进
三十年
拿不出
时能
胬
牖
橹
ぞ
小说
笙
重婚
家事
跎
跌跟头
两头
夯实
一头
另一头
检
发觉
随母
改名换姓
这件
事要
改随
姓氏
贞丰
老河口
唐
后收
宝坻
车险
利川
答
年休
异议书
天数
省份
公布
秦
岛
讲究
集
晚婚晚育
各省
国
孩子王
公司员工
婚检
可休
oppo
奥克斯
缙
退亲
定亲
首饰
丽水
沧
社部
廊
岁数
图文
筹办
崩
送出
卡上
女友
回订
结成
种种原因
送出去
短暂
未婚妻
定于
五一
磕头
礼
同聚
财礼
不正经
过日子
合不来
天人
礼单
冒领
接婚
没登
婚结
我应
一切
还账
本领
非婚
孩
全职太太
带养
自从
关心
监护权
不负
最有
有恋
不欢
两地
夺回
半年前
物证
一项
盗
穷罪
办户照
十五
十四岁
需求
床上
趁着
熟睡
按压
改性
精神病院
好赌
厅
判完
带写
炒股
应判
申
绥中
采纳
铝
时写
走手
补充协议
算醉驾
退脏后
直系亲属
退赃
立功
九会
同伙
招供
多处
抽痕
弹药
爆炸物
行不行
床
人能
逼迫
咱说
期才
提请
离掉
前婚
后结
胎会
雄
未达
法定年龄
亲姐妹
互换
结婚年龄
俄
临朐
男生
谦
龙
吓坏
佬
小三
我想告
拐卖
女监
运毒
款项
用来
补办
大不大
没退
脏款
张笑
剁
道歉
狱中
掊
即便
尝
时有何
贿赂
偷越
国境
戴罪立功
庭
配备
三月
完能
余成
狱
早点
认真
监规
期后
非法所得
十年间
简
带理
两都判
不良
开场白
分得
伤害案
66
小孩儿
抗辩权
怀
异装癖
一码事
遂溪
浠水
共犯
主人
过世
做工
117
平米
意外保险
z
回三金
夫妻俩
宣
好差
年判
几有
避险
先予执行
中应
网逃
冷暴力
哦
律师证
见到
几米
光权
透支
6.5
指压
互
限售
期内
轮候
全权处理
食品
十倍
下判
询问笔录
涂改
捺印
法律义务
刻意
登
转岗
交接
维修工
支援
不退
办理手续
黑户
进水
僵硬
许可证
华侨
家长
来讲
能用
留学
开具
打吊水
胡
一条
丢失
枪支
不报
会犯
枪
探讨
规制
文献
转帐
应获
礼赔
领了
还贷
准
驾判
性格不合
承包人
栾
天陪
存续期
电缆
春
侦查终结
学籍
渎职罪
复原
后兵龄
算工
招远
弥渡
涉外婚姻
辞职报告
不批
擅长
沭阳
好点
许可
一手
带大
会要
巩义
五万块
三岁
溯
及力
七岁
不愿开
刻章
旧房
过户费
民
两方
商量
回房
岳父
起拆
回判
十七
前囗头
原被告
亲笔写
捡拾
贵重物品
据为己有
拿清
常住人口
九千元
十八天
点评
从香
模型
瞄准镜
筋断
续交
遗失
治安管理
元要
少年犯
刑局
能分
人口
头脑
能代
之日
非机动
机撞
违停
划
房有
协意书
房能
行业
外力
老百姓
期房
在世
分钱
评估师
2516
省钱
重审
原审
判出
浅析
清洁
跌倒
能改
出生年月
签过
方用
扭
脖子
跨市
叔
并出
拦路
截车
分赃
余元
倒水
万判
签不上
精神病人
性关系
小宝宝
微罪
不诉
保释人
会有
底案
开心
带回
永远
落后
借出去
诚意金
十多年
不顾
提出诉讼
手铐
判缓
人身攻击
男同志
无事故
坡
搬厂
私有土地
砍树
发证
地办
封条
授权
尾
引产
充当
公安消防
灭火
殡葬
公司章程
烧
纵火罪
缔约过失
效益
偷卖
续交三金
外婆
外孙
尊重
假冒伪劣
明确
写出
看牙
口角
著作权
离过婚
性质
劈
性生活
开出
暖气
孑女
新进
第四天
一大早
账目
预备性
收尾
刑侦
改嫁
地下室
未签
并调
智障
人有
兄弟姐妹
以车
大本
又方
要出
房改房
修养
健在
能过
监护人
社保局
个人帐户
收受贿赂
办事
案发
打群架
早恋
平均分
报废车
受赠人
只带
户口簿
活页
读书
收银
新店
变动
服务员
许可法
缓行
通行
点半
嘉善
迁厂
六十
几百万
不回
设置
双十
短信内容
遇
车烧
推搡
讹
称兄道弟
相处
没人来
拍下来
大吼大叫
互相
称呼
流转
狂躁
症能
文化遗产
强制措施
维持原判
我报
拆回
拒不承认
偷窃行为
年刑
横行
两车
相撞
放哨
有办
更好
乱采
乱伐
立
不愿付
同等
说了算
二手车
能培赏
诉要
定房
人奸
车船费
佝
扣车
强占
家电
指骨
左中
指指
腹
多分
共分
优缺点
全到
扰民
寄养
履行合同
工厂倒闭
渠道
上万
两闹
没领
被定
手机短信
提条件
临时
胎儿
继任
你们
判责
老太太
在押人员
聚众滋事
两周岁
不过关
免予
撕毁
居民
未节
成轻
先到
敬老院
走失
离了婚
早老性
痴呆
能入
时签
第五
写错
偷税罪
付清
澳
三针
车压
签完
定性
数额较大
145
非法占有
为目
敲诈
残废
鉴定费
神速
后方
警示
标志
前车
五六年
独子
诉诉
推翻
刹车
理财产品
送客
世道
公理
提前退休
烟证
烟
医疗险
重疾险
差别
解雇
爆胎
停下来
换胎
132
效律
版本
支撑不了
保贴
天下
分享
耍赖
鹿
低保
L3L4
椎骨
克扣
定案
角
加大
虚报年龄
人财物
拿证
七十二
刀轻
借欠
断了腿
多人
一人致
房上
摔下来
替人
借债人
工程项目
职工工资
七十多岁
六十岁
不问
发明专利
分案
含量
98.5
睡过
加刑
室内
金银
数会
帮凶
11O
银行存款
达标
土枪
千元
再带
私闯名
宅
忘不掉
判醉
驾案
线行
断列
勾引
迁回来
年间
强装
欢笑
曾多次
坠物
公平
花都
原始凭证
更正
开业
可过
难受
前任
打证
通奸
生意
买方
购置
杀人犯
抓捕归案
出现意外
瓮
胁骨
掩饰
未尽
错判
重大损失
调取
需注意
所分
住宿费
肺结核病
外祖父母
协商一致
送养
鉴定组
回避
左右支
加酒
小三能
广告公司
被盗
淘气堡
分担
能转
现居
简单
大白话
合同诈骗
如此
欺诈
爱福家
非要
几种
怂
哈哈
五千元
出去
私聊
灌酒
喝醉
清除
以办
夫妻感情
擅离职守
商家
发生冲突
姆指
机器
珍贵
动物
制品
审计
作出
打管司
性骚扰
得病
叛离
考研
泄题
嫁妆
坏
好烦
上能
能换
新证
示指
开放性
起纠纷
娃儿
名子
麽
领养
需达
年算
使用证
农户
见证人
本地
行人
迎面
为主
电焊工
尿毒症
期末
引起纠纷
单行道
必
矿里
耳膜
正人
迁回
原籍
提货
肝癌
病理
病退
完税
现需
居住证
扎到
报过警
实体
超载车
卸货
地面
车翻
四万多
修车
拖车
2ol8
合算
一个十三岁
八岁
超期
灵均
律所
复议
车库
使用权
乡政府
代扣
区域
发生意外
才偿
99
扣出
人出
盖章
如约
出示
用于
超速
10%
普法
方地
大打出手
速送
导向
已婚者
居所
罪至
袭警
围观
弟兄
平等
129
喜欢
左侧
不完全性
原配
要压
刚签
扣压
大理石
石头砸
断腿
无棣
他证
材
不孝子
无性婚姻
或是
送往
案二审
工亡
被迫
侵占罪
AA制
负担
搜查
下醉驾
工作日内
划算
儿媳
公婆
开玛
挽回
体面
好聚好散
应处
卷宗
胸牌
恶言
声誉
酒吧
完会
药店
前不久
精囊炎
有错
砸伤
困难户
细节
就业
A1A2
四针
下因
常见
先出
失火
连累
网卡
后续
谣言
黑是
撞骨裂
／
打倒
胸骨
礼拜
渭
调销
考驾证
会办
七千元
肩峰
端
脑血管
堵场
堵资为
保释金
期况
抢注
临沭
华发
华
时因
生理需要
公共财产
2252
经办人
660
左权
源泰酒
庄能
闯红灯
揭秘
建筑业
诉讼法
第九十二
总则
见义勇为
触及
必遭
被告方
没一
认错
乱收费
交易
向前
工资收入
谈拢
弱者
不干
知识点
和谐
一家人
本市
自守会判
老头
立罪
舟骨
移位
缓
早就
星沙
征得
有子
天才
大伯
一部分
压死
小狗
阜
双方同意
伐木
22.5
赌钱
内起
抢走了
家教
效率
保存
不住
职能
横向
达成协议
说好
催促
我气
起床
爹妈
考验
出远门
银信
金服
注会
税务师
腹膜
买不到
返程
车票
九千多
写惜
条才
灵活
断交
十字路
囗
相刮
前面
马路
特殊性
变窄
左后
族间
上坟
突来
烟花
姑爹
煤气
外甥
不易
营
转非
级数
驾能
发货
收不到
暧昧
见面
科三
十岁
多领
2400
照领
航空公司
能干
但己
脑硬膜
法医
萛
双重
没钱治
指断
很差
无牌
日后
激活
十一岁
眼底
交强險
吴工费
补住
上限
耍钱
楚济堂
员工福利
有五险
一金
手镯
当场
拥有权
哪怕
拒不履行
归属
单独
多大才
姑姑
声明书
碰死
人后
产房
户主
封
通讯设备
两部
驾致
说服
事业
编制
闪绿
一秒
明显
加速
炒饭
配方
专利权
改了
转回
原车
不迁
办手续
那能
明白
11.3
2020
那年
我怕
迁出去
人死
洗
休庭
挪车
踹
一脚
资格证
处法
应得
扎
车胎
赖账
签名
给己
个人所有
掏
私奔
我醉
百分之六十五
酒架
两轮
远见
信诚
哪五险
百姓
a2
证开
五座
车能
还会判
噪音
很少
江川
我订
不动证
停车费
c1
上户
追车
投了
老鼠药
延
褶皱
登录
柱
不连算
社戒
申领
血压高
标签
因涉
黄而
相亲
圣农
打该
大师
渉
恶
铜
退出
投靠
落户
56
张家港
莱能士
光电
诺成合同
认购
登记手续
致人前
二根
过诉
能诉
未知
灬
成政
婚签
村干部
斗欧
巨债
劝阻
换过来
网购
受骗
简易
考科
一后
小跑
不结
胃
疼
正欠
几拳
迁移
申请人
被申请人
抱养
锥
振荡
左肩
软组
裸照
养鸡
七口
分成
一改
一个十七岁
就行了
雪茄
广场
鲜花
摆成
图案
外观
淮阴区
合祥
饮料厂
分为
乡村
弯道
五险
趁
识字
骗签
自然人
仍然
常
人拿车
需将车
敬志院
集体
回娘家
撤场
审车
车管所
传过来
四五天
过经
适房
53
有北
合约
相同
亵渎
第二条
待
随州
离家
耗着
心里
连环
行骗
洗衣服
邋遢
不少
城市户口
降级
增驾
日腾
一切正常
产业
兴起
3600
无限
连带责任
未写
处需
手读
抓判
死缓
要服
喀
沁
锦
详细
产权证
长久
开据
计生办
骗过
完年
心态
无可
恋
保降
卡号
没房
没车
5.5
烧掉
地暖
冻坏
外地人
卡证
内地
直接受理
个体户
打官师
08
155
改签
报到证
计件
上百万
一款
案源
补卡后
捐献
扒手
手册
286
干完
亳
校长
欠花
卖假
1960
外边
延后
天算
先告
再告
房客
浦发
诈
骗人
MJ
保底
没结
割腕自杀
红斑狼疮
忧郁症
如实
供述
瞒
恶性肿瘤
广田
民事行为
人纯
开庭审判
最坏
替考
抢手
省长
关注
生有
迁入
我现
歌厅
屋里
无业
有多远
讲习所
影信
无踪
剐
工作失误
房间
有近
跖骨
菜刀
5cm
公里
相同点
不同点
六万
第二天
咬
6x5
肉碎
发上
到劳
钝器
判成
寻畔
滋事罪
挑衅
一在
我负
说要
给孩
向劳
出借
迟
再犯
河间
改气
骶
椎体
伤要
后迁
房有何
条会判
重组
头晕
廉
执罪判
拒执罪
岀
刚领
梁
文酒
刑讯逼供
持续
马车
颠簸
cosim
监护
小常识
一字之差
相距
甚
几百亿
解决办法
事假
47
商店
案开庭
在职
需带
赔偿损失
常见问题
l2l3
横突
提存
准确
收银员
走账
才判
吃亏
必要条件
不爱
第六天
拔管
留案
泄漏
工的
因工
贪玩
责任感
书该
上下学
意外事故
传染病
放火
友
混蛋
法律制裁
妓女
骗取钱财
虐待
狠毒
万象
骨膜
秋
正月
较大
烂泥
扶不上
墙
原有
远算
垄断
黑彩
劳累过度
仅持
确证
丹东
富润
橡胶
有效期限
上告
判判
8500
重犯
退修
公司法
交叉点
纳税
申报
IJRS
优先权
社会保险
立法
矽肺
开支
匆忙
嫁给
驾加
偾
辛
舳
嗑
探亲
知友
真凶
追溯
脚撞
破例
眼部
国旗
绕乱
姓名权
不公
晕倒
重始
八种
恋爱
男犯
案一审
最迟
日夜
高声
放歌
拒不执行
装死
氖
奔
涠
喑
昏倒
下岗工人
人辅警
挣钱
养家
处以
实施
第二节
致残
全能
胯骨
一出
白布
堵
扰乱
社会治安
十元
以外
并罚
上订
多半
三周岁
真情
完整
合法财产
快速
债
半夜
外人
生育能力
就餐
饭馆
奔跑
破坏
发送到
拔火罐
好后
驶出
收费站
误入
才理
一方面
购置税
挽救
重复使用
男酒
哭喊
找代驾
暂用
自个
造事者
`
费能
村支部
高温
煤尘
尘肺
手中
严诚
吓跑
产权交易
能迁
凯诺
劳动权
本身
慢性病
采集
能报
失踪案
临清
推定
过错责任
二十几天
藏匿
善俊
通奸罪
轻罪
房屋贷款
耒
权能
便
假账
借点
孤儿
最重
ず
抛约海
进家
道
掉头
分扣
婚庆
依
徒弟
意义
刑峒
出手
查酒
论
杀人案件
村官
下才
饲料
群殴
公物
转租
胡作非为
熟人
或亲
犯罪构成
最高法院
名为
转股
实为
保持
原判
蛇
注册商标
警务人员
收方
最终
久款
尾款
时效性
中节
评几
力案
依开
无良
定作
报酬
承揽人
货物
物权法
汉
伤款
购车
知法犯法
美团
运管
入罪
二千元
小姨子
连桥
我连桥
十四五个
有车
认为
车负
叫上去
哪几个
应先
纸条
骂人
没要
不论什么
缘由
暂扣
法律条文
领带
降
播放
音像制品
和平相处
其反
考勤卡
十字路口
一千块
满后
回原
62
两罪
罚会
贬低
广告
正当
转化
生死
小手指
第三节
查明
年份
中评
残应
法定条件
集体土地
女主播
发作
酒友
借口
租船
楼层
三层
大案
研究
中晋
资本
离得成
兼并
出资人
逃脱
归案
钱财
表现形式
动机
弄清
各大
公开场合
女明星
生理反应
视觉
小客车
超员
超载
事故责任
新农
家门口
欺负
抹黑
歧义
效用
会入
准予
税要
管理权
城镇居民
消防通道
返聘
两秒钟
黄灯
闯过去
滑县
出外
作业
时出
矿上
陌陌
老汉
抢走
挖矿
私吞
纠分
应找
路滑
路灯
能补
肇
职称评定
材料费
四十万
三十万
讨责起
返回
流动
诉壮书
六七年
抽水
写下
出过
何在
纠集
余人
为先
小孩子
裁人
赠予
单身
举保
治疗费
皮质
光滑
双份
五针
录象
刁难
记工
ca
on
私制
搭
高压电
朝
判好
保金
浴室
洗澡
撬
基本权利
身
退休金
并案
打假
能扣
断碎
人因
半月
转户口
6300
汇给
必要性
抵押权
受偿
优先
所有人
有毒
驰名商标
城中
八号
‘
端木
赐
鲁迅
企业破产
连续犯
死人
速度
增员
狱警
曰
白天
有才产
没才产
抚恤金
断停
报过案
失窃
笔迹
八千
1.1
盗走
打驾
抻
腰算
起能
一诉
十几个
目的地
戴
安全带
指定
团
建设工程
侯审期
近亲属
卷烟
严厉
上能定
打听一下
哪样
话术
224
走私罪
经济损失
这次
寻衅
兹
多高
三轮
警车
后带
龟龟
百分之三十五
收房
保护费
百千
去职
后应
村委
孑
获取
驾大
强买强卖
限速
迈才
爱问
3008
欠账
审判官
误导
至时
失踪人口
继女
自已
车撞
已私
军事
间谍案
蛮横
向市
求医
丢弃
再次发生
点有
身负
国光
知多少
代理词
少年
最高额
胸
第十二
年末
反应
纠嘛
散播
损毁
书面材料
相约
投河
气车
自伤
早读
土地出让
划拨
家庭收入
P2P
车友
斗鱼
韦神
上用
建筑施工
性能
可诉
脚跟
开放
重建
难要
制做
小汽车
橡缆
断粮
特旗
元判
合同书
投
经臣
未开
曾
一夜
合同规定
州
活
扶助
哪能
医保卡
几样
咋样
天价
建筑工人
法律援助
项目经理
家装
丛
2o17
年终
保胎
板不结
板
迁进去
不见
手腕
雷
区级
人大代表
面前
优惠
望远镜
头有
失联
景象
脑外伤
其系
巅峰
机带
像劳
出自
收款员
民法通则
63
挴
没伤
伸裁
小拇指
内衣
母子
咬断
谈妥
根本
月会判
订亲
挣点
费该
算账
回执单
请绿司
骗贷
投保
交强险
迫使
百分之十
抵偿
本事
下雪天
侧滑
苹果树
个人所得税
竞选
选举
房号
等同
要担
认同
意见书
讨绩
裂纹
少判
女网友
房性
警局
赏
律法
闪
公安人员
徒步
博不
最低标准
解决方案
治病
我大女
岁二女
外出
内能
29
玩忽职守
小店
民事行政
以此
事发
下体
毒手
罪能
证都
领钱
党代表
柳州
融水
强判
合同制
抢劫犯
漏网
逆向行驶
怎判
水果刀
车站
安检
肇事案
最晚
眼看
婚龄
谈话
关进去
小量
雪天
两辆车
垮
黑名单
违法犯罪
该判
濒临破产
内上
多个
留疤
电动汽车
人行道
扑克
从业人员
脾胃
劝架
误伤
人致
轧死
纤纷
验证
收不回
乱
死皮赖脸
软硬不吃
未和解
简单劳动
复杂劳动
465
供应商
召开
会议
诉
三万多
停薪留职
福利待遇
不变
さ
医嘱
没满
往回
股票
监视
邻里
非议
未过
劳动工资
骑来
胃病
甲亢
挑唆
方应
稽
肿裁
在实践中
对继
XX
今欠
几十万块
判处刑罚
保有
心情
市场
拘留证
万行
现巳
7800
行车
脏物
完好无损
权限
有交
无线电
通讯
那笔
续订
入狱
质量
连带
劳损
不能转让
公房
须
会压
方能
认赃
倍付
预交
处理费
数罪
段时间
侵权行为
经济犯罪
写效
今
收款人
椎间盘
实出
上加
干涉
地方法院
上仅
瑕疵
隔天
规避
拦截
看人
表见代理
起点
姑婚证
裂该
首付款
流水
性犯罪
最小
和平
五岁
先孕
赠与者
误辱
应赏
一个班
经历
乙肝患者
外保
直系
接见
养老院
罪去
交出
前天
追诉时效
期限内
领事
196
钱及
以经
报复
用人
加工费
富养费
五十八
克且
A04
我款
收受
97
实例
侵
威逼
判进
讹人
门口
胡闹
第四次
签无
作废
许久
刑事赔偿
全扣
复苏
实践
徇私枉法
罪重
民事法律
农合
黄豆
款人
骗子
物权
区別
打掉
稞
假牙
能贷
法读
生产者
销售者
县里
能当
民营企业
瓦房店市
晚
完善
各自
车出
兄弟俩
死罪
签才
真正
神志不清
从而
免受
销脏
租住
坠楼
漏罪
服刑犯
打胎
值钱
分会
头顶
想醉驾
赎回
宣告
代缴
包庇
纵容
久拖
不判
独自
中人
赶出去
不破
中午
表弟
无期
象
缝四针
禁驾
烨
太能
诬告陷害
罪该
费有
要分
追认
证有
门面
续租
疑犯
万会判
交税
国有产权
附加
剥夺
后怕
挨打
稍
预售证
首
抱
性侵犯
近两年
聋哑人
煤矿工
95
牵扯
人多
公益林
污告
驳回
铁丝
钥匙孔
堵住
犯了罪
一辈子
污点
消灭
前女友
有判
分裂症
病史
辑
退职
审判长
致一人
对现
解释权
元能判
虚构
十五万元
入刑
江醉驾
返费
姜
带上
罪定
民事权利
生父母
分配权
贪污犯
逆向
宋
茹
同桌
长时间
不收会
哪一天
清末
修订
不处
何新
父债子还
夫债
妻偿
司法程序
获胜
规则
界限
任意
识别
至死
法盲
共存
左手指
划定
90%
封建社会
教育领域
大姆指
哪份
顺
3050
十八周岁
开房
炒
作弊
钦定
民定
协定
庭审
学龄前
保障
人身权利
墓
袢
松
草签
未遂案
比较简单
工友
寡妇
登记证
犯毒
电子称
神鹰
钢构
斑马线
矿山
碰掉
食脂
两条
主体资格
受损害
根胁
&
少部分
包人
善意
庄
富士康
应不应该
低于
つ
砑
抢枪
时未达
所有权证
证是
包庇罪
假冒
查有
艾
因受
贯标
贯
小名
充公
改判
审几
灌醉
害怕
正式工
实物
人证物证
要不了
幼童
吃屎
犯得
局长
忠实
百
九十
车损
申诉人
罪驾
独轮车
税款
交五险
只得
辛苦
撞成
实验
言词
表
要注
凶器
依法
逗狗
说理
私藏
防寒
弃婴
渎职犯罪
阻力
渎
审讯
第一步
头缝
百分
不是故意
判罪
电站
租出去
互骂
法有
考研题
截屏
被诉
此时
民政
预防犯罪
财产险
查帐
只盖
高利率
砍头
所欠
4s店
难过
两百多
制作
催款函
经济合同
田
小时工
增值
收数
经济性
洗钱
必备
行为能力
人立
贪污案
没年
农用车
回迁房
诬告罪
交法
海洛因
逃避责任
局灶性
大脑
挫裂伤
奔丧
模板
劳动收入
试图
鸣笛
竟是
人身权
成功率
法人代表
檢查院
补发
寄
曾祖母
外孙女
七人
能面
重些
解除权
耽误
里建
组织性
小弟
按份
该案
亦
遭受
着重
价钱
拒不退
四十四
里市
报道
规与
求情
万有
含同
需向
掉包
缉押
后原
公司债务
扯
工资单
董事会
监事会
职权
强迫性
被单
主次
互赠
自愿性
比一
得重
观看
富
红灯
单行线
江厦
国有资产
暗箱
渎职
歪理
需判
带签
私营
借名
＼
获刑
买辆
二首
面包车
法中
情人
计算方法
治两人
膝盖骨
押迫
综合征
分才
赌球
办公楼
下楼梯
不慎
570
万多元
遮挡
车牌
呕
鹱
国防
光缆
见死不救
计算机
应用程序
他污
告罪
待定
望风
算事
隐密
漏食
实用新型
多判
中止执行
服兵役
特有
释是
丧尽天良
恶毒
寻事
嫌疑
分子
还领
我以
要些
暂缓
下要
不务正业
教师法
合一
挂名
儿媳妇
8O
旅游者
失
清洁工
前端
周多
无门
商欠
尤其
开口
换钱
中级法院
最合适
犯罪心理
未买
两月
钺
放风
取宝侯
自院
人用
铁棍
治安
举证责任
只想
申该
摔跤
报复陷害
往出
放钱
欠据
何种
分配原则
没够
修好
退张
高档
奢侈品
包和表
投拆
追收
承揽
只签
论文
用绿漆
喷
已有
银
听力
体育课
实力
上会
这招
康干
替代
文字
人过
伙干
不认
1.7
缺乏
扭送
用处
要进
房产税
指导思想
只判
一个六十岁
届满
巨不势
現在
亮
解能
几月
要认
取暖费
应对
搬东西
腰椎间盘
到家来
泊头市
交足
基准利率
埋尸
扉到
书及
放着
电棒
电棍
防身
荣合
贝体
前胸
车后
出于
轻松
母婴
观点
确已
亲生女
盗窃犯
一万多元
第三代
人格权
自杀式
证明书
炸骗
打缝
伤害事故
家庭婚姻
左拐
鼎
内伤
讨债人
犯有
逃税
卖出
次会
内退
超级
所购
一死
两伤
防卫
国有土地
专利权人
相应
266
TA
会管
十亩
山林
全会
三姐
南平
抓走
质权
出放
开除党籍
怎么着
松原
劳动部
拖久
宠物
多能
起住
能以
一死二伤
犯罪人
芜
三维
称
乱扣
查房
主从
骚扰电话
去向不明
海澜
除权
讲人脏
矽肺病
我结
过激
万有判
boss
他发
电据
钱准
抵押权人
抵押物
行政部门
阅卷
连交
强险
举债
烟叶
车蹭划
面写
无继
急需
一大笔
铁序
拒捕
养狗
做饭
需不需要
袒护
交通秩序
好离
名嘴
郎
淳
拘酒
开资算
当地人
这么久
证据目录
厂有
方才
个体老板
大工
爱管
死后
首要分子
拍照片
时期
接手
偿还债务
朝阳
天算托
聚餐
开除公职
辞快
工扣
门上
村里
犯案
开档
化学
行政案件
三十件
设计
申请专利
交费用
别车
陪场
书会判
抢占
榆
建筑工程
付责
驾驶员
抵贷
监守自盗
持有人
绿色通道
土地权属
楼梯
摔死
463
财产继承
装病
跨国
特大
反抗
误杀
拖延时间
哄骗
舍不得
刻
销
射进
缴税
拿枪
不情
伤案
帐户
不交
五大
外援
ww
胧
两万五千
收藏
九类
继承法
致人伤
完庭
没偷
有要
养
罪应
可变
避难
诉讼权
正确区分
近节
底部
208
点事
辅路
完毕
砍死
判处死刑
政治
核实
烧烤
档要
躲避
毒药
盗用
信息办
二轮
我敢
认证
证言
非说
入赘
居民身份证
驾会
自守
可请
桥车
过半
而用
不可抗力
行为犯
榭
由公
写范
尽快
私刻
抵账
私立
投案
没买
邻里纠纷
互殴
淫乱
留在
村上
公务员法
补课
上颌骨
额突
因酒
驾要
贪官
院判
责任制
制止
鉴定结论
自盗
仍应
尚
贿选
避让
不及
治理
印花税
林地
20%
施欠
暴光
解放
万万
新罪
义务教育
半挂车
应负
要开
必经
资不抵债
公共秩序
许诺
打松
筋
郑万
行驶证
白粉
◇
多么
工次
病假条
酒精度
百分之三十
人一宅
董事长
骗要
路障
隔断
人行横道
套现
已签
拨付
上想加
会算
拉手
1650
规范
来判
报光
物自
不归
参赌
疑罪从无
间谍
军事法院
正航
运輸
补尝金
肯德基
赔太少
结论
嘴
缝六针
几十年
最轻能
判到
哪步
上缴国库
国家机密
书到
拉断
做法
常用
协会
诸
最大化
挽回损失
边境
死刑犯
间隔
一号
二十几
几小时
暂缓执行
如不发
上后
借人
国有企业
优先购买
收脏罪
农用
三轮车
银行账
淖
数十年
打瞌睡
东张西望
出错
打击报复
成镇
是工
打砸
触独
行事
上边
．
开厅
小三有
基准
亲切
送养人
时带
条退
外来
务工人员
搭建
阳台
违建
玻
交通规则
兼得
忠诚
百分之三
信用贷款
再考
发不出
我姨
包子铺
对企
赖着
房产公司
处曜
017
岁算
过继
不开
县工
分脏
罪法条
八仟
换衣服
摄影师
解封
房管局
查册
被解
同车
能开
128
及法条
收完
刚买
陪尝
人者
届时
刚入
职两
恶劣影响
行动
如遇
扣扣
酒醒
后肠漏
需承担
搭乘
鉴定中心
最慢
小伙
洗脑
想骗
涉黄
碟片
会作
而负
小节
八十岁
无关
三颗
三分之一
刀把
接好
背上
凸起
嫁出去
家乡
重病
看望
拆迁户
停下
车来
例外
要定
悔蓉
内测
壁及
上颌
窦
多发
驾者
坚决
破相
满会
福利院
还算首
人现
ps
机上
刷卡
店主
五未
诽
踉
趺
葱
土葬
核桃林
房门
别墅
会以
律付
承包经营
就是说
悔
小轿车
以防
复利
再套
算二
不放车
绍兴
不存
基层
左脸
下颚
求人
赢后
做满
口述
老想
纠期
这不年
给付
五次
第五节
家养
如泄
交通违章
新房子
意向书
但交
坠落
数
需请
困
赶紧
挽留
来得及
线下
表述
选项
报备
冷站
仍判
刹
手筋
手头
万新
用户
多多
回款
450
粮款
2500
费由
方出
群体
小姑子
监督
模式
弄伤
因不交
间接
异同
有法可依
夹断
糸
写明
银行贷款
审倒
天交
找重
教育局
L13
右胸
能培
审前
惩
包容
败诉方
入
职时
后经
物资
诚信
犯病
不取
打鸟
领完
赔会
一助
半途而废
向湖
藏
报案人
诱骗
心上人
以原
租赁期
承包方
大量
取土
申办
闪银
上征
农在
土地局
跳楼自杀
取代
地位
陷入僵局
死者
意愿
赠
丧失
过失犯罪
噪声
五干应
告小三
借到
人偷
贷款人
单子
写成
换清
内要
独立
偿金
宽臼
伪造证据
很难
形势
零六个
罪因
大嘛
成人
保护法
巴掌
重孙
老伴
湿肺
付定金
游戏厅
酒托
线性
因公
捕
3500
n
＿
遂行
签好
脑溢血
打坏
声明
闲散
好几年
抓时
可归还
小朋友
盗取
没牵
栓
啤酒
算酒
职场
建修
厂区
多根
白杨树
管住
钱判
7017
qq
自守会
会告
行贿罪
单能
单车
气
过不下去
年迈
抵抗
无照驾驶
已过期
斤
没查
处分权
孑欠
院该
五万两
诱发
旧疾
巧妙
一部
全险
待命
出去玩
逃废
这款
热水袋
鲍恋
做刷客
一千多块
规章
做爱
信贷员
调头
倒车
美容店
赔偿法
买药
肇事人
合同期
守约方
处开
更名
某人
210
胜
败
高审会
嘴唇
针算
看点
遇上
送货到
精英
篇
先提
死判
丶
仪式
实际上
保险金
保单
假据
作
一气之下
被打者
而否
租凭
租期
上活
不计后果
淫秽物品
符合规定
没交
台式
机动车道
拖走
撬门
割掉
架
六千元
百分之二十
刷客
售楼部
拘传
记忆
音乐
频繁
误餐
录像
这会
怂恿
营利
J
方走
火车
旅客
劳动保护
代收费
不收
来电
土狗
人性
共和国
车停
虚拟
靠边
淘汰
意外险
赔完
再赔
续展
重大事故
之痛
多远
指筋
费赔
车贷
无薪
制宪
京
总部
降薪
伪证
2110
元会判
潇洒
带我去
百年
人权
无缘
公寓
停水
管理员
贺
三千五
摄像头
合同条款
验收
无需
等同于
拦路抢劫
轮流
首要
做牢
考勤
仲裁员
差价
双薪
包者
入口
换道
疑涉
部份
脑萎缩
降照
位置
化
宝马车
车多人
当今
挂牌
出让
金属
养殖
污染
质量事故
监理
太低
病算
砖
大牙
黑工
更衣柜
余次
禽兽
入法
干扰
该狗棚
违章建筑
撤消
冒冲
二十一万
房里
结合
包工包料
马路上
电动
灯光
承诺函
元月
二号
月底
东家
建中
双物
情势
没辙
腐败
当选
委会
小偷
一付
水电费
算钱
典当
享
饶
砌砖
砖条
工程量
伎俩
―
孕妈
职秘
当众
字迹
先审
开着
钱后
结合实际
论述
土地评价
税法
税基
党内
多宗
人签
其中
账户
信任
八针
五证
日起
施行
该水出
有刀
受益人
母公司
人借
抬钱
二分
利头
本和利
四车
前方
变卖
44
百分之一
廉租房
所签
潜
中介机构
四十五岁
三十岁
车工
刚招
没动静
残忍
包赔
农药
店应
缺
直说
扺
~
台阶
构筑物
卷
生活费用
教育费
对内
疲劳
休假
高人
职位
快工
天班想
车箱
起诉人
没能
来会
仪器
有优
租成
转租给
黑心钱
代谢
衡
高手
预售
87
受偿权
内买
一栋
楼
供暖费
供暖
停暖
做事
摔断了腿
建筑面积
本着
户会
自拟
交易中心
L1
万多块
问要
拾
失主
只发
仲裁条款
二极
另谋
此份
谨慎
时得
十多万元
信展
斌
食堂
营业税
我想查
华森
矿业
有限
公可
并发
人问
灾后
披
驾证
查住
民事判决
厮打
装潢
近似
九点
六点
那份入
职表
属实
照样
形为
罪时
转为
预支
新能源
做会
数目
消防法
凉解书
收微信
打通
打开门
脏
中以
地表
受创
房会
影
勒索
欠缴
社会保险费
兼
发去
受不受
打赔
拍片子
施工队
已购
擦破
游客
两协警
冲坏
结局
水表
那帮
鸟
算错
340
骗者
来到
公车
稳定
死不承认
伤害罪
教学秩序
带人
定刑
告不给
骆驼
亭
哪会
套用
防止
违规行为
落到
集体户
贫穷
走上
情有可原
绿
保安
谚语
车锁
简阳
4888
有知
砍伐
印章
屁股
硕士
挖机
组织部
劣质
固安
愿
扯皮
后账
镇聘
几笔
设备
目击
人力
无双
休及
县保
城乡
团结村
农网
扶贫
脸肿
五百万元
二十九年
以写
凉
解书
请能
6.7
有骨
股头
逼人
组
单上
新考
理论知识
瘀伤
我够
杀了人
巧立名目
职前
宠物狗
代管人
进屋
淹
喜酒
白酒
泪腺
管断
钱款
出租房
需不需
判赔
大门
2229
倒地
5050
抛弃
一走了之
载人
转过
红绿灯
电车
安全帽
配件
承租人
代付
税收
里边
惊吓
地上
脚踢
寄出去
烂尾楼
小伤
因不带
村支书
酒席
花招
8680
嘉兴
荣天
佣金
急辞
批慢
辞不批
一千三百
慢辞
肩胛骨
背叛
并建
肛检是
未套
手套
自认
不禁
喆
主债务
人均
十一年
当位
我厂
常熟
押给
杂办
以备
急死了
太久
打条
甸
毛绍波
拍买
购买者
折磨
同居人
脚踏
伤势
伤责
认设
肉
搜索
担责
午饭
自发
操场
踢球
柜台
4700
奥门
取车
94
老奶奶
十日
八百
拓天
速贷
拆伤
很久
数据
完卡
椅子
ぷ
采访
不安
素养
熊
耍酷
86
不尽
中致
应评
洛
由东向西
三分之二
右方
副驾驶
事实上
车窗
初查
恨透了
以降
4740
一万五千
高一
校外
余款
一再
今天上午
明摆着
老实人
仲裁委
眼外伤
布控
盘龙
转签
只属
掏钱
露出
臀部
当今社会
盗版碟
片
大润发
仓储
携
一车
天经地义
把拉仗
人牙
淡定
他争
猎枪
办车
提出异议
忍无可忍
特定
虐待老人
抵销
游荡
孳息
PP
ey
渣
男瞒
婚骗
女致
收拾
包工
加勒比
闯个
害处
高温作业
中暑
整整
管理人员
普通员工
身故
我妈
可恶
而定
路政
软
大半年
哪种
插手
可久
坊
十三岁
82
我租
这句
十小时
月末
撞人私
初始
下不来
监管
脚指甲
上级
迟收房
公益性
忍让
坑坑
数年
抵押借款
救护车
工程质量
戴帽子
值
挂号
1040
拉进去
破解
漏洞
方不给
骗二
儿者
驾入
体现
重视
同性恋
益阳
街边
彩票
中奖
差点
受到谴责
好使
关闭
豪车
赔还
智力
十九
侄儿
列为
审查逮捕
时须
司法人员
交往
帐号
低房
本次
仲裁费
星期日
电话卡
一查
好多钱
查欠
不成认
驶入
单行
路算
犯罪者
骗会
以新
神经症
缘尽
署名
要领
人事档案
干到
存有
接种
无处
求救
人渣
X
剪短
区住
裁掉
干不了
当班
丢钱
二千多
谁给我
伸张
高潮
如过
几千元
结请
依然
清晰
可辨
急刹且
物体
同妻
工商局
去查
视神经
须知
000467
中保
工会
追捕
判案
高兴
力度
搬出去
偷税
骗税
私营企业
裂缝
控诉
万现
据说
工做
网签
好些
去整
偷窥
过劳肥
应不应
扯平
分责
眉
没拿到
滑倒
随父
区内
木门
锯锯
伤筋
锯断
1900
鸣
喇叭
发信
0.75
非公务
婚恋
名词解释
护照
QQ号
东莞市
茶
山镇
世纪
布料
B13
栋品
一厂
没成
工有
做续
为分
闹翻
少分
房屋建筑
碧
不拿钱
终于
可不
五日
高质量
凑合
报税
该死
过节费
全年
能讨
ti
未批
刚干
套牌
冿
收贿
屋子
油漆味
发育不全
停育
低价
无计可施
冤枉
臀华脱
环节
预谋
一辈
取决于
名称
学历
黄牛
拨打
巴
车把
那条
次序
网上聊天
犯是
厂长
修坏
敲门
通话录音
锦纶
房产交易
申通
咖
时用
色狼
那会
写信
没提
封信
能作
奸淫幼女
时算
铅笔
伴
纤维
先交
侵权人
不但
包了
活是
结帳
抢节
出租屋
营业性
非法手段
甘肃省
靖煤
扣发
宿管
工资待遇
购股
商标权
二月份
来调
违返
万退
七十岁
百草
枯
毒死
冲床
五十克
多克
光明网
优秀教师
内受
ぃ
下列
哪项
塞
辣椒
关机
病假单
慢性
带头
一月份
撞人者
举家
外逃
挑逗
冈上
一层
信件
后该
辞急
工够
打至
外县
同归于尽
相威胁
初
避过
嫂子
坐过
入党
顺风
乘车
晶体
建立
帮下
试述
小区业主
应答
好多年
冶疗
施暴
人应
罪共十人
第七
假装
提不出
报假
火警
娶媳妇
公资
几部
气球
机加厂
砖厂
44.40
劳合
股神
荐
万小
侦
奸杀
甲乙
百分之五十
房出租
甲欲
搞坏
不需
如需
提出申请
打个
卖车
通话
实事
相互
佐证
残要
捆绑
警用
五十
大指
母断
转有期
徙
减到
签出
眼晴
视
进一步
机制
省内
书信
探试
急刹车
天发
非法人
割伤
寄给
爸爸妈妈
毒打
宣称
情侣
户有
六个
判过
亨受
咸
我姑
结过婚
老二
活着
有继
之诉
正职
何谓
陌生
控
确认书
拷
手拷
下述
节段
邢证
年息
100%
辅导班
内布
户写
工装
作风
废物
和尚
尼姑
名目
伴侣
十六万
包裹
能拉
法律网
吸烟
方都
神经病
掐死
其家
指使
大爷
起述
裸条门
营业员
利用网络
自律
他律
现应
皮瓣
全身
哪一块
九十岁
因减
放火烧
撕碎
拼
粘
非正常
出版
2176.4
按中
旗法
旗会判
国际法
TOP
服役
甲想
射阳
累
同行人
帮开
公海
缝纫工
296
群里发
裸体照片
简答题
税率
一千万
水泡
内想
纪录
告人
两三年
加在一起
飞单
当辅警
转卖
社会秩序
进度
基本保障
股东会
擅闯
厂家
上涨
进货价格
薪资
余额
宝里
转到
第一部
成文法
典
莫拉
法典
乌
纳
个人档案
税务局
偷税漏税
司法局
先给
住所
下载
百货商场
店快
预留
百分之六十
抵车
延续
自贡
开工
不迟于
开工日期
天以
私查
比较严重
万用
十八万
标准规定
农田
逮
逮会
京东
欠单
牛
网给
钟点房
说谎
扣税
门前
维权
游戏城
心理咨询
退休工人
对门
捐款
那块
流浪汉
第三天
凌晨
融资
草坪
上车
天从
哪天
合租
客厅
入境
遣送
建部
楼梯间
反锁
违章行为
取样
送检
试块
试件
安全卫生
贴出来
等等
隔间
套利
做够
做能
处快
赔签
哪方
公安网
工致
个范
非吸罪
若退
芙蓉
家纺
那样
找上门
中华民国
中华人民共和国宪法
孙
女主人
视同
腾退
处罚法
条中
脚扭伤
银商
发还
医托
限购
打桩
震动
公立
高中
多扣
老妈
催告
函
图片
智
德布
个人隐私
新交规
这方
合理安排
月入
职
二传
二改
津贴
城乡居民
改房
强制性
拉货
补缴
取款
不改
钱到
抱来养
分则
优于
推销
寝室
网络游戏
外派
亲们
开户
代表大会
荒山
买于
轻生
正常人
精神紧张
幻听
她们
跳过
市级
省级
采血
点击
签个
户签
绍
税务
空调
中合
违背
产前检查
传召
文盲
厕所
走出
阴影
医学
神志
污染空气
环保局
养鸡场
应去
多平
我后
出门
停交后
合同范本
一舟
谭小敢
后五险
印
恁
非工
消法
环保
乡镇
人民政府
会下
并购
卖盐
销签
全球
环游
APP
油费
网店
告别
毁谤
工干
一个多
职务行为
赢到
泼
油漆
政府部门
建行
拆借
就职
宣誓
专利审查
实质
滥用职权
要读
欠奉
交学费
漏审
每年
所得税
预缴
退税
查账
应否
养伤
被代持
最怕
惦记着
要涨
卖身
天可
中标
烈士
裁减
死活
最省
UC
被裁
商贷
组合
游戏
养猪场
露天
排放
猪粪
堆积
下雨
恶臭
八万元
责任险
漏判
名单
柴油
用深
显失
二万左右
携款
上来
踢门
严重破坏
三成
宣城
人治死
适应
pc
功夫
认缴
随之
临近
亲属关系
非法收入
成认
不妥
我湖
今天下午
小巷子
可查
妇
人民团体
群众团体
工勤
每周
具体地址
三无
号牌
预告
毫克
选择权
安葬费
后勤工作
卖房子
人恐
呵
贷上
闯
绿灯
健康证
举报信
加工
出入境
足够
一专
私底下
级大该
脑死亡
疗养
居民楼
学习班
旁观
开荒
二房东
承诺书和
办公室
查档
好几十万
未清算
黑钱
上应
刑侦队
湛
决
晚于
奉贤
三只
不交金
唐人
不卖
周五
个体经营者
改要
踢掉
亲自
使用暴力
1w
改增
劳务费
违不
贷到
承受
深户
在职人员
网商
真假
血缘关系
老年
代步车
办学
赶走
荷官
免罚
天上
纪委
购销
后判
秩序
犀牛角
远成
快运
想不租
注册资金
工商部门
老有
手后
人办
主管人员
人来
没入
监听
人力资源
保障局
腔友
十来天
第二十六条
第一款
险能
受国
复印
法务
和律
一个三岁
11%
奶粉
保健品
对不上
董事
监事
养老保险金
全民企业
虚线
变道
一万条
万余元
后私
外孙子
此次
纵火案
决议
公职
之外
财务总监
止损
赢钱
亲戚朋友
steam
沙
水兵
二手
房后
上算
鉴别
工商户
树
天气
提写
参选
村主任
烟草专卖
留存
负有责任
华易
曝
访问
遣散
问个
3300
帮去
代卖
企业法人
新郑
糊涂
无理取闹
抢劫案件
老父
汇款
具体情况
逮住
币
江阴
评估费
开展
志愿
周六日
阻碍
判他
领条
受托人
收款
恶势力
座位
追赃
市首
教授
成员
合法婚姻
改过自新
续期
坐车
中招
年公
赌责
传谣
毕节
居
诈骗犯
但盖
停工
留薪期
出版物
出生证
罪与非罪
自立
闪婚
..
做点
小生意
门窗
赌多
抗辩
验车
假有
税种
袭击
执行公务
新加坡
具体方法
急求
告之
社局
被遗弃
亲生父母
神雾
镰
盈利
股份公司
退休职工
动产
撞坏
车速
年度
过期无效
欺诈性
管理条例
新老
餐饮公司
今年春节
元上
几千万
欠达飞
车会
却是
人无牌
路口
放射
各类
票据法
发布
银行借款
筹资
实效
连带保证
过虐
糟蹋
洒后
妥当
存证
好顺
驾培
后顶
年些
玩多
嫖
抓到
土地划拨
强行性
限额
公文
邳
砸死
有天
我建
挡住
风水
买个
饭
色
表演者
迷
负债累累
妻离子散
回头
痛苦
内疚
迷茫
逃去
绿卡
监控器
在院
诞生
易燃易爆
危化品
乡
联
酒店宾馆
住宿
政协委员
交要
祛痘
操
专业课
近端
公安局长
凌驾于
之上
代购
买贵
陈述
货币
情愿
男士
杀人罪
调职
姥爷
姥姥
中职
道德规范
商
盱
哪边
困扰
卖烟
品牌
实线
就诊
中国
盖亚
日子
电影
资源
政纪处分
农保转
学生奶
交满
通用
连信
化妆品
中华人民共和国
第三十七条
末尾
所提
详文
如下
接着
餐饮
借出
印刷
包装
想法
晒
小吃店
停车位
转入
武馆
交年费
变造
车款
来看
严禁
遵守合同
无异议
调查核实
50%
抵挡
上网
早已
以未
令后
我判
城市居民
延时
利荣
火爆
调岗能
六七万
出让金
改名
方不
以座
牢为
任由
受伤者
家告
>
心理健康
随迁
立新
难产
升旗仪式
脑颅
打脸
二处
险要
多大算
肥
女高管
买下
权时
吨
盗伐
房前
屋后
田边
地角
零星
专用章
证实
想办
食物中毒
订购单
120ml
结构
柏
涛
四步
木渎
观澜
伟星
店门
专利申请
会发
车去
新婚
庄商贷
欠小贷
钱花算
缴领
帮个
俏佳人
救人
吸金
睡着
那事
批文
背着
从不
佛
贷款额度
邮储
职要
小作坊
两限房
牙科
改个
又告
痕迹
可行性
玩波克
充值
明细
店员
排班
采砂
男女朋友
家报
遵
家政公司
休年
九中
尸体解剖
父
或母
伴有
市有
去区
同名
加个
女神
节是
除名
经济法
要约
头盔
各有
律所能
事故隐患
几寸
底色
红色
那照
宰
想开
民房
从家
万自
列举
发明人
撤职处分
党纪处分
房交
冰糖
不均
几多
手机号码
应要
历下区
孤寡老人
全民
所有制
补助款
拐卖人口
野
住宅小区
有规
制假
受过
品行
养活
有来
麻醉
导管
中能
私章
航班
没法
冷战
立据
升
借出来
减去
请律
心悦
在押
想象
女范
吓
告成
作品
差评
已花光
留置
中本
大一岁
小姨
总换
强和马
前置
二十多万
毁婚
188
款付
发个
所犯
事会
妈咪
应主
要生
晚育
158
犯罪案件
________
病毒
需判行
对人
药能
长治
而进
被窝
根骨
逢
好心人
全没
几根
压扁
根横突
张口
受限
二指
失音
猎狗
多针
破漏
磕掉
折能评
腭裂
半身不遂
入学
盐
严
18%
1167
打黑
部对
用肉
720
中资
达飞算
8604
7635.72
人才
不说
点名
工来
三十余
财产损失
前期
打不赢
接案
万贵
想聊
丁克
自杀身亡
熊猫
工程硕士
设计院
输掉
爱钱
进借
玉
侬
百赢
棋牌
里输
抢红包
五包
五六千块
三张
牌害
中央
三千万
参
打多大才
一百多万
手机软件
疏忽
开错
支票
空头支票
样板
受伤害
微伤
刀子
聚群
造
双打
蔡
组孙
轻者
重者
背关
年级
二十三
扇
打瞎
眼后
友信
连本带利
党籍
闪结
前卖
模拟
某作
微商收
风骚
绝命
第三季
教课
太贵
荣成
一生
施实
下调
桔子
新浪
微博
2560
缺钱
涉案人员
花是
金惠善
计划书
我争
几套
遗腹子
算才
金石
及优
找北
特种
惊传
七一年
新法
舟
壮骨
三七分
不幸
性工作者
被北
关抓
群要
探探
像是
行得通
扫黄
应南
团队
桑拿
县开
账本
性交
通知单
噼噼啪啪
媢
垣
城内
整顿
两高
口淫
类推
比法票
suv
加装
保险杠
波
手推
十么
大陆
搓麻
真是假
凡是
必知
这有
几道
一道
哪几
侣
节目
二季
废旧
轮胎
认筹
取回来
船舶
案应
何国
准据法
共同海损
严厉打击
急用
质证
人贩子
无责
到实
辞掉
消化道
找位
完肠镜
静脉曲张
二甲
母体
嵌肉里
濉
颈部
淋巴瘤
放疗
大小便
失禁
侧切
咽鼓管
吹张
所致
鼓膜
中耳炎
腮腺
病情恶化
天子
宫内
有强
回声
斑属
粪
吸入
综合症
心率
针段
牙里
血液科
龟头
不如
也就是说
拔丁
粗
伤口发炎
分钟
吐
排尿
用恩度
药水
地塞米松
精索
输精管
人工流产
情况危急
淋巴管
漏液
根管
断针
内膜
硬块
良性肿瘤
脑梗是
针眼
止住
助产
按断
拇指
脱性
盛
期及
医师
救救
停放
淋巴结
肾癌
切掉
癌
刺激
钠
皮试
牙根管
颗
迟发性
运动障碍
肛
乳头
肥大
内痔
增多
院出
费让
返钱
拦
莫
现状
派发
进京
证会调
行政主管
伯
扣取
餐费
班有
买份
警察故事
红头发
扮演者
美剧
演
空间
江苏
宏邺
律师事务
山地
发份
咋算
诗词
情感
双相
障碍
生命
较差
对立
证才
本来
滴
十一万
7700
将近
和现
罪案
社工
元款
生成
账号
拉客
违禁品
手模
验血
照相
走时
实拍
过算
行证
推油
检方
个人身份
拟份
退课
退卡
宜人
哈怕
一贷
元算
宝上
能付
02
额外
39.7
0.9
成都
同业
竟业
搜
科研项目
创优
签多
人名
陈旧性
郑州
百瑞
福利
拍抖音
火
指挥员
补假
涵
好事
续聘
退岗
章程
蠢
哭
招进
兴业银行
今日
头条
作息时间
几点
计时工资
长假
天都
在职员工
公关
设计师
上四休
三班
两倒
中级
攻城
狮
礼拜六
礼拜天
饭贴
全勤奖
职二
七日
懂行
拓斯达
UPS
初四
初七
全天
执勤
经手
护林员
执行程序
行政诉讼法
253
条是
佳兆业
华测
zara
三八妇女节
阑尾
蓄意谋杀
开窗
米瑞
可靠
叫交
动脉
血管瘤
借光
石碣
沙腰
盈聚厂
黑厂
人寿
未结
未发
书生
土曼
逃付
年薪
樟
96
09
访
港讨薪
高平
拉幅
二十二
冶
炉窑
县讨薪
落实
记云
总工会
下面
五保户
青光眼
倪
伟
太平洋保险
伤着
营养
太平洋保险公司
坼
京师
中山
注册资本
亿元
中安消
一万左右
样本
外观设计
\
老挝
亮能
猜测
总收入
无立
互动
推广
入账
复垦
占田
|
刚好
绥
计件工资
女强人
经典小说
检查官
低额
宁波
十七年
散
面甸人
支配
水象
条子
闪电
购是
人怕
害死
4400
这家
十分
高得
吓死人
凊
3400
390.92
年率
利都
上当受骗
亲身经历
已向劳
老乡
百元
组成
技能
绩效考核
海南
天鸿
市政
氛围
今麦郎
弃权
违反规定
未休
日内
胸椎
鞘瘤
伤到
脊髓
盘锦
无菌
脑梗后
溶栓
icu11
有意识
烦请
抽脂
割个
爸割
导尿管
血块
完半
开发票
采购
年轻
药费
党费
多交
酌定
842
原办
一人养
塘
无条
侄女儿
我哥现
反目成仇
清理
九六年
后放
好象
二元
万已
交还
尼
本省
前买台
偷来
其间
再后
其案
服侍
专人
龙煤
新增
2017.7
2017.12
应发
菅
第五十八
三十日
内为
经办
地被
煤瓦发
[
]
146
印发
加强
盲巷
十项
个人账户
知识产权局
请求书
几内
水像
土豪
钱庄
高利贷者
284.74
2522
小马
1240
快要
1866
2999
3280
4398
1200
欠普惠
哪一条
警惕
典型
一千元
1089
富万卡
两毛五算
千分
干脆
翼勋
1757
家访
老岳
担心
咋整
房产商
整改
site
刚交
亲手
好来
蜡笔
甲醛
净化
淘过
商城
售后
谱瑞
拮据
信普
充电
乐上
农行
5600
麦芽
我在佰仟
至尊
借账
门要
三点
小伙伴
宝应
许家
臻
花光
靠背
催才
爱人
伤感情
自觉
亲哥哥
全看
颜值
网货
载权
院能
领啦
司法考试
咨询机构
凯
这场
爱土
戴假发
降岗
特约
中国移动通信集团
辽宁
140500
烧结机
投诉信
提拔
定兴
费回
原藉
何解
军嫂
新蔡
再来
标的物
第一期
按期
财产保险
几百
病急
钱罚
杂
街上
安犯
二份
袋子
养子
市场价
俱乐部
比如说
互联网
传给
思源
地产
后少发
帮缴
纸张
用假
罪请
能少判
被保险人
未审核
二代
娶
防备
小厂
捷量
_
后办
我刷单
想念
误会
进而
五五分
店想
省心
区别对待
现提
压箱
三金
发生变化
编造
高中学生
坏事
七千块
借款单
校方
课间休息
拖地
推倒
人人
车济
服务提供者
3200
一两万
经查
单身汉
铁路
钢材
所获
年费
后果严重
待转
区红
灯亮了
稳妥
陷入
主机
主和
手提
两三千
熬
啥意思
脚背
障
赶集网
退工
损失赔偿
用作
赠品
邻养
好大
想调
四人
妻子儿女
偷盖
漏盖
留置权
9.3
算下来
姐夫
试岗
有试
0.01
往
区里
来回
推拖
总借
付着
讨厌
空隙
瓦房
林业
用地
这块
地是
生产队
此前
地基
简便
833
.#
1517
54
午休
两三分钟
上司
查岗
应届生
后者
并不需要
前者
这样的话
憾谢
辆
2016.2
这辆
查一查
发钱分
招发
没人发
有服
绿色
起步
车头
舒服
全是
酒味
旅游团
市定
请人
想私
嫌少
四万块
账单
测量
一楼
外墙
2640
二楼
三楼
每层
四百多
拾万钱
问朋支
零部件
没报
店面
八万五千
相当于
最差
生产线
装配工
请来
要修

停变
撞倒
状况
水肿
脑充血
剩余
😊
均分
车归
这回
一大
跨越
双黄
尾扫
直到
胁
会叛
平房
拆迁办
ID
行走
白色
不讲理
跪下
教委
公招
一个一岁
卡内
支出
全网
哟
还款期
打甲
甲才
得知
乙未
随后
依旧
期到
态度恶劣
仗势欺人
我过
正好
走过
两台
前些天
赔礼道歉
和颜悦色
中瑶
知是
谎言
亏了
遗留下
祖先
传下来
养口
五月
等不及
自离压
泡汤
一千左右
终
本期
昨天下午
傍晚
开门
下楼
严肃
经人介绍
不长
傻子
三金退
三金后
洗漱
踩
水跌
20w
迹象
连药
总费用
一盒
几块
我感
淡季
要么
调过去
要放
在纪
包薪
日薪
例
260H
出应
=
经商
卜
莲
相交多年
规划局
管理局
称昵
封号
通俗
解惑
君
辍学
一对
资料费
已于
第一笔
资助款
放署
一阵阵
发些
无视
趋于
异常
思考
健康权
牵涉
过广
必奇
变故
针织厂
三四年
陆陆续续
订单
往后
三件
名气
融商贷
验证码
佰
进错
登不上
人向
删除
荣因
人合
15W
个发
还开
招进来
该笔
真实性
我点
鸡肋
磊
我司
恶劣
日前
期一过
前台
质询
3248
赶上
断决
连本
带息
被拉入
转告
高速公路
问路
隔离带
原是
到长
打过
砖混
二层
该宗
房系
祖遗之物
扩宽
另立
之妻
状告
其夫
219
平方米
施工方
承包合同
包料
但原告
没得
阔以
小镇
官
沙子
三号
第三十八条
第二款
1999
蛋壳
装饰
11.26
4.2
5.4
总店
红星
美凯龙
那家
店签
十几万元
喝杯
拦着
甩
棍
发消息
05
怎能
疯狂
野蛮
血洗
掠夺
骗光
不论
穷富
借来
说告
十期
怕怕
⑦
757
妈卖批
还放
融洽
以求
狩猎
管事
各个方面
🙏
卧床不起
全靠
五六十年代
破烂
多户
打伙
修房子
记分
脑残
婚离
存钱
腹痛
检查和
想求
真话
这比
黑过
心想
达产
用餐
三十二
有招
表面
友善
丑陋
穷苦
决不
心慈手软
心狠手辣
一下子
凶恶
残暴
丑恶嘴脸
面目
恐怖
洗劫
笑脸相迎
十多万
多倍
帖子
短平贷
一毛钱
一问
没人接
十几遍
恐惧
牢笼
禁锢
感
不怕
放不下
挚爱
和生
我养
还好
介绍费
179
有识之士
争夺战
初中文化
其父
有房
城里
康健
为数
－
休班
晚回
麦点
十万块
日放
先要
天在
定论
最多会判
理想
库存
应填
尽量避免
婶婶
在于
房契
投放
找能
一桩
再说
跪求
欺辱
全寨
三代人
明目张胆
走访调查
恶霸
但农
办三人
知办
婚房
无法忍受
依例
一是
二是
信访
寻问
村两委
清包
大包
节点
没完
钱来
此款
北关
地带
港元
赖
想想
热传
身着
迷彩服
手持
木棍
钢叉
追赶
头戴
多名
围
隧
承建
可好
接车
干上
火食费
流氓行为
联系电话
乱七八糟
第一个
求别
川
忠
不要脸
盘点
货品
好人
大多数
包活
列好
改回来
w
基本上
吃饭时间
我加
似乎
前后
不停
照单全收
碍于
拖时间
定好
上周五
倍算
标准工资
周一
周四
缺勤
1510
1720
虽然
共计
硬性
十三年
HR
原话
少数
只加
找领
吹气
80mm
mg
人交
再办
金能
煤矿安全
矿长
找矿
辞去
企业倒闭
开退
局要
没亮
转湾处
过快
车灯
坏掉
视线
眼球
735
七八
不吐骨头
深变
双向
36%
留证
计算器
砸碎
摁
G
悲
那间
开了个
税票
抓关
让开
郁闷
入场
速求
七月
基于
文稿
发泄
对党
强烈不满
散发
签名册
响应
老丈人
多一点
日入
职湖
网络科技
高等学府
面
报到
年缴
缴过
摩擦
薪酬
发文
12.8
能学
告它
近三年
戒断
想考
不依
胰腺炎
太小
很重
山人后
保不着
核磁共振
嘱咐
拿掉
沙袋
帮着
各项
右腿
无钱
停药
因误
孤女
女朋
酷
多过
放肆
口人
念书
种地
有意
那成
刚成立
我伴
院作
仔宫
失职
极大
花去
疗费
我村
什伤
目前为止
牌号
中型
箱式
活动度
17%
经上
力
源
应响
有见
我关
往右边
往左边
站住
停住
的确
如题
痛
末于
院外
处到
我院
既往
史天
体木
压痛
过得
借捷信
##%
讲信用
万收
砌成
水沟
搬上来
硬
田埂
填起来
坪
条说
让出
墙体
十公分
公用
委及
开发区
一而再
再而三
民去
敷衍了事
为证
拖下去
想得到
平民百姓
真不知道
亏损
小打小闹
闯入
主意
堂哥
手给
坎
手是
抓起
庭开
祝明
∶
😭
伤至
中度
开过庭
看着
出心
言行不一
每局
人数
踢出来
两套
清一色
屁话
要不是
一路
两句
恨
从未
这张
楚律
显显
擅
跨区
人声
看不到
定价
870
元有
大年三十
初五
恢复正常
包吃包住
更差
月租
单间
他花
刚到
八月
在佰仟
还付
168
还加
范法
没说
担保费
低压
提走车
周转不灵
总金额
滚出
元实
42.88
1319.8
78.72
15.4260
W
2867
4280
358.67
4304.04
争吵
防狼
警棍
后边
那人缝
十几
龙凤胎
多前
大儿子
讲清楚
最起码
赶出来
日常
诸多
不周
窘迫
矿难
钢针
伤后
大腿骨
脱臼
构
送饭
抓进去
情况严重
稀里糊涂
参军
网有
冤
接过
六七个
让给
女患者
告发
严词拒绝
人事部
两张
单给
公涵
命苦
断奶
二伯
带个
找对象
二哥
多时
来要
下雪
放炮
歉
许久以后
层面
基础理论
急缺
签是
代签人
扡
有假
作主
保管
想续
日有
全勤
证时
赶
接回来
谈好
想加
明说
附上
对应
来往
装穷
远嫁
真想
嬴
早有
b
a
车门
所里
木头
我舅
拐
这时
全保
舅
某局
三千多
找县
带进
第三十七
他进
放过
堪
董
佩
绳之以法
印疾
逆
行者
首都
行方扣
一个五岁
烦死
过班
包夜
五人
庆
自私自利
占便宜
开起
口粮田
种上
果树
表态
族人
准时
出发
一单
他爸
光感
未建
点伤
病全
有点像
没干
公安处
生命权
客客气气
太累
报应
我管
上家
所交
案外人
办卡
翻脸
口口声声
持卡人
设为
同过
穿着
裹
严实
一伙
这女
一说
一旁
飞来
炸弹
今后
燃放
退车
倒
试试
透漏
跟本
一听
开罚单
录入
考了
等待
讲下
响
听不清
三间
买好
扣过
私人企业
记不清
没缴
稳定下来
置换
放寒假
找导员
导员
返校
毕业设计
好多好多
改不了
顿时
信心
习惯
心理
改掉
感激不尽
钱先
当法外
下回
电商
熬夜
一时
房和车
盗款
一把
刑警
百分之四
侧试
中旬
眼里
帮不上忙
谈过
或用
地运泥
时变
我运
口说
一元
分隔
不怎么
今晚
查车
扣罚
判测
讲明
家父
年建
撬开
翻进
高层
砍掉
难处
善后事宜
试问
进货
身前
供货商
未注明
单据
商定
无稽之谈
壹栋
属权
道路交通
安全法
调过来
留好
两栋
挨着
将车
条约
背部
一刀
十五号
说过
难得
屋头
迁过来
帮到
对扣
笔
一万八
困惑
限期
反击
加害人
案发地点
反咬一口
主拿钱
第一年
7200
递增
原平
辆车
事故现场
先是
左后方
放置
来不及
付多大
地铁
安检员
在生活中
身心
想告
几条
任何理由
钱取
可惜
3170
报险
浦发银行
自称
杭州
滑动
挡风玻璃
来后
三辆
一无所有
来广
上二休
在意
人制
长度
深度
手推车
摊位
早餐
亭子
推托
#%
定损
人保
我先
代位
万医
创造
交流
代沟
国家补贴
打进
昨天晚上
路过
买烟
发生争执
成家
小舅舅
没消
大部分
一本
但伤
要发
突遇
层楼
信中
指名道姓
谁谁谁
晚节
茶余饭后
笑柄
祝
baobi
对号入座
靠主路
走到
道口
由南向北
驶来
前轮
快人
飞出去
辞职书
电子警察
月亮
田矿
罚定
违规操作
老铁们
分田
个位
四十七
十四条
日结
次年
愉快
先回去
几百块
到江
澈案
回国
娄底
高三
复读
班主任
服用
药物
借机
治好
路线
本部
模具厂
每件
十五条
生就
领着
没定
开不出
由西向东
由北向南
拦下
闪烁
示意
南向
可时
水电
未接
接清
放心
托词
倒下
半左右
尾部
本能
树上
2006
琐事
贵贱
我带
男主
市价
名写
传到
清钱
脚崴
下旬
承托
劳动保险
只交
往来
邮件
惠享
人加
不发浦
太极
跟前
拿过
四周岁
人带
自离原
想交
现入
籍
葫
耕地
挪
推到
砖头
板凳
手部
中年人
雨
那儿
弟妹
尿
去江
越来越
凶
不对劲
妇幼保健
快漏
保不住
肩甲
心语
婚期
要不然
一批
找些
今年过年
错题
我别
吭声
反到
嚣张
确切的说
有时
惊动
身无分文
监察局
人放
期为
代领
伤心
撕掉
快过
辛辛苦苦
拖拖拉拉
在乎
咳
捂脸
鲁
大都
个性
温顺
猫
登记处
建了
寺庙
建筑师
讨钱
人闹
纠结
出该
关门
我进
院因
咳嗽
挂水
过重
溶血
命
就值
心灵
林权证
审报
焊条
春天
没拿全
那时
时不时
想起
丑恶
嘴脸
拨回
出个
判酒
当着
叫嚣
脏话
早些
大伙
支个
前大灯
先于
人和车
无三证
缝七针
供水
方木
竹胶板
加钱
加到
十四万
经营不善
来天
努
涂鸦
见谅
判重
其问
长矛
戳
怃
恤金
工资条
金杯车
机让
大大小小
吵
妥协
好离好散
没户
连人
见不着
V5
01
两三次
扣掉
鸡肉
仔细
2001
未留下
c
交过
2013.4
2014.11
小儿子
乡间
小路
各一
后视镜
划到
车轮
压线
太快
以至于
啤酒瓶
镍业
公告费
带去
求有
任职
多劳多得
高教
法硕
叫作
深圳市
纬度
通信
标着
等通
因找
有产证
集资房
农保
赔点
三番五次
一拖
谁能给
真要
债券
1920
后天
名是
出厂
正班
加塞
镜子
折起来
刮印
对质
加油
先来
开好
rt
我收
私能
七台河
两三个
说查
你们好
职该
当晚
弄醒
搂抱
强吻
随即
买票
情绪稳定
觉
挫位
毁林
钱该
点心店
厨工
从头到尾
夹掉
戒指
求婚
法律承认
脑卒中
发病
柜子
模糊
调店
太远
四千块
交代
无意识
回忆
去处
骑着
停稳
修理
得付
没钱付
戚
上半年
去结
还接
建外
SOHO
460
06
厂子
国新
烦
路子
五万多
不起作用
分局
搬家
这帮
缉毒
即可
人资
干满
否则
制服
我来
难看
修理厂
沭
堵着
不动
一看
对侧
首先
并入
行车道
因直
辉
关到
月租金
已退
太过
愚蠢
演技
破财
劫匪
提到
家方
姑妈
逆放
投入使用
退掉
商业贷款
每季度
信质
雪地
路面
躲过
第三辆
第二辆
进展
死不认账
归于
刑事判决
主责出
某种原因
伤能
倒回去
空着
使用期
第一轮
已故
喽网
好过
行证部
负主责出
零件
打到
主有
实战经验
完拖久
八点
遗留
债款
胯下
能值
跨省
我些
没人住
窗子
水管
弄断
新装修
没住
屋顶
被淹
事地
米左右
醒来
时间段
昨天中午
考完试
别克
女士
电梯公司
点活
活要
这放
折腾
好几趟
ABC
多只
交通银行
加起
那位
高人能
出点子
以年
14.38
16.38
承包费
6.38
门锁
谢谢你们
扣下
主为
装载
看处
帮过
生殖器官
裸露
留薪
所在单位
坐标
兢兢业业
认认真真
地过
说空话
上星期
只查
院是
院要
行为习惯
用红漆
颜面
丧尽
十月份
争论
也许
记恨在心
骨跖基
证已
带回家
沾化
得话
斜
冲过来
后侧
丁字
拐过来
车身
到极点
方没
奉陪到底
铁西
物流园
工头
说维
现金交易
变得
很快
轰出去
妈宝
搅黄
一架
好马
不吃
回头草
打电
除去
上述
发疯
讨公资
邀请
分歧
结给
摆明
赶人
七月份
记错
记成
专员
不配
生存
祸害
拜托
承租方
完需
带齐
急请
大侠
转交
回些
撒谎
岗位津贴
确安
一行
噢
疏忽大意
预见
那要
学识
会付
前用
谈崩
因而
妇科病
完胎
辞急工
小弟弟
亲密
搬进
号称
负着
债离
砖窑
砖架
萦赔
乙丙
甘心
击中
两手
试卷
我考
发到
冲进
揪
卧室
这点
这死
一个个
会来
拣
客
客车
拉开
用脚
蹚
趴
铐起来
大碍
烧死
撒
楼上楼下
点着
失信于人
普普通通
上班族
腰鼓
擦伤
平安保险
十几人
恰
鹏
拿下
03
年初
地里
栽
枣树
苗
间断
交由
我叔
算过
收成
追踪
逃离
租过
检查一下
扣点
霸王
从现
待业
碰伤
不计
免赔
进出
理论
通道
留出
专用
十号
少量
交出去
周三
家生个
结巴
家长报
冲断
冲掉
三样
比较清楚
花到
牵连到
赚来
很想
从此
蓉
纺
十三号
傻
合作方
能全
服从安排
次之
再就是
大户
师傅
你情
盐酸
气体
吸入性
肺纤维化
间质性
所来
鬼
一脸
懵
免费软件
自带
忽略
........
横竖
2003
想不清
为期
第二年
贷时
因急
积分
提现
充
油卡
好几万
几十亿
千亿元
干够
德澜
月结
采购部
高处
侧根
T12
L3
胸腔
退行性
左室
电压
年半后
1971
封顶
代通金
变卦
1W
事隔
也罢
无理
年结
票
养殖场
泥塘
挖成
鱼塘
阴雨
绵绵
雨水
增
不减
老远
闻到
阿姨
欧美
校企
cp
日去
三叉神经
退烧药
把头
钣
工在
十三个
旧村
个月利
考核制度
我妈换
任命
抽麻烟
毒瘾
关井来
某家
几日
11.28
1.23
1.26
WX
回到
几百个
求求
刚租
拖拉
立刻
买过
车快
先发
工资表
核对
打款
拨款
大虾
刮倒
黑店
鸿星
尔克
专卖店
督导
送货
建材
六十五岁
残费
需负
身高
165
发育
丰满
部手机
工号
登记表
领嘛
新建
预算
超支
同样
少数民族
如期
汉族
尽量
叙述
17.8
断断续续
12W
手工
活外发
废业
联瑞
对比
果然
挨骗
外国人
不便
一两个
经常性
几乎
再扣
总之
想方设法
缴清
反驳
右边
往路
极快
看不清
盲区
物
来付
历年
真题
每题
讲解
于酷
没离成
已写
诉松书
准备充分
举办
还原
交还给
方可
同属
地车
所办
98
来发
70%
麻将机
三四个
家私城
免得
年三十
发给你
存住
1976
押运
时许
便开
运钞车
送款
能立
犯罪团伙
唆使
二流子
闹过
两千块
厂太忙
同城招
放行
还丛
上次
线索
追查
在建
天然气
地下
管网
四五
生活来源
积蓄
电子眼
拍到
他交
窗口
终端
回西
存放
开通
信号
妈蛋
操蛋
个款
扣款
还跟着
串出
越过
观察
照常
狠
草草
肩关节
承兑人
承兑
而应
本票
出票
付款人
汇票
背书
票价
不获
死时
对不起
只言片语
看出
看不出
音
言论
著作
合法权利
冲
不轻
三责
那份
三十一日
他来
停缴
很久没
仇人
切开
CM
茎
功能障碍
没见
然而
一声不吭
一地
出月
矛盾重重
闭门
见见
速快
处点
二维码
用花
嫁
着手
大专
大三
顶岗
招聘会
考虑一下
推辞
二十几万
RT
室内外
雕塑
字画
1%
49%
帅哥美女
行政处分
教学
体罚
品行不良
关键技术
投入
经济效益
相比
繁琐
成渣
暖昧
难以启齿
要来北
正月十五
不仅仅
再交
蟑螂
标示
同行业
2.28
可退
2.23
末前
算来
租满
其为
🔑
人于
晚载
T
有图
椭圆
黑色
方形
静止
绕过
后轮
则
我大一
大二
学期末
制卡
大人
四楼
加工厂
说私
离生
多点
自私
搬到
市新
一摊子
过渡
新厂区
不太想
再取
无证无照
摆
桌
台费
听人
至于
从北
为绍
本科学历
日语
引进
庄交
三路
记录仪
179.1
100ml
时压
人未
计划
业内
要价
隔三差五
姐妹
女同事
从来不
买菜
后分
礼品盒
log
垫钱
金辉
酒业
玩彩
分割部分
围挡
天年
解剖
盖新房
他方
拳头
他方带
ct
市里
精神不振
消瘦
挂车
25%
乘
公交
电汇
创意
建模
画
三维图
别租
伯伯
自购
日要
处问
纸质
只好
直属
只批
奖励
高峰期
一男
半路
硬邦邦的
pg
jb
没喊
害羞
专
低晕
血症
低蛋白
贫血
鼻窦
皮下
肿物
武警部队
时下
同个
切伤
连接
问应定
长年
那去
袋鼠
贷受
休学
电脑游戏
停歇
谁知
安宁
想个办法
公式
为例
35b
am
开水烫
某件事
想一想
耳光
等候
一桌
挣扎
抓伤
带息近
之名
之实
江人
白对
珍爱
往返
白给
长途电话
敏感
察觉
山坡
蔸
柴烧
咱俩
爬上去
往下面
滚
石头
父子俩
悄悄
爬
山顶
地往
一时间
乱石
飞舞
差一点
看微商
诱人
芒果
比款
公务人员
王五卡
补贴款
业务部门
党政纪
对张
经业
老三
三岔路口
轿子
时速
码
双腿
在司
考三大本
扩大
人身保险
古玩
运输工具
航程
进口
此批
坡籍
货轮
quot
比西
承运
洋
航行
马籍
丽莎
quo
很熟
互相联系
门们
铁工
鸡
保险单
尿液
胆囊息肉
危急
气愤
不解
出血点
想到
进医
主治医生
伟诚
策划
线上
吸引
粉丝
知名度
t
出群
几轮
培训费
蛮大
内勤
外勤
成心
一五一十
全说
区先
扎破
纸写
篮球场
放在
球场
证据确凿
机主
所长
教训
靠山
护身符
保护伞
强势
美化
合法化
农业户口
根据上述
溜
麻果
尽兴
送点
上楼
我入
职有
🏻
9.5
能发
说脑
颈
架子
没放好
我花
人罪
冒出来
可借
坑害
太多人
招不开
标注
方拿着
客源
叫陆
4960
名词
一系列
和国
拆旧
第一批
门窗厂
机器设备
僵
多谢
一阵子
充分
客观存在
爸生
胸口
口气
889
着实
吓了一跳
太坑
打息
这大
珍惜
不法
狠狈
奸
惹
祸
追根
压榨
马鞍山
同工同酬
270
胆汁
焦急
听懂
听到
体征
现为
下腹
入院
泌尿系
增生
全麻
行经
尿道
等离子
切术
四五个
前离
添置
必须品
生活用品
食宿费
政策法规
怎成
一纸空文
乙将
上成
不划算
无意间
建设银行
借用
只收
充不
打不开
一打
闪退
找长
天办
64g
16g
24g
三分
抵在
混
打去
以行
日借
迄今为止
法律系
事前
老实
租下
一年多来
醒悟
散伙
五周岁
房基
规划
后院
盖房
年久
乡里
家能
办说
果蔬
位
管理工作
本季
该负
班长
补考
数日
上旬
用车
发送给
坚称
四月份
五月份
补给
恶人先告状
重修
阶梯
另一半
转借
一小部分
商住
两用
没办
咖啡店
上岗
所说
相符
等级制度
彩婚
连合
嫁装
定存
多中
未有
各花
台球厅
你点
全都
病房
用光
果汁
半到
老板娘
学会
我算成
好惨
195
彻
数万元
对接
账务
接听
硬装
冠名
做判
整栋
那栋
一户
无法自拔
坐立
输液
质
电疗
辅
遗忘
开展业务
但现
不比
小企业
新来
承重
采取措施
建委
加固
个人行为
90mg
协办
社会福利
一老
一小
说多贷
工商银行
必需
他俩
想过
促使
得以
还应
抵作
价款
预付款
而言
附着物
田地
农作物
山上
建筑物
能源
电力
例外情况
最高人民法院
应用
若干
简称
轻重
未经许可
专营
专卖
进出口
原产地
市场秩序
一经
前款
二百三十
四条
本法
审限
审结
第一百七
十六条
第二审
本院
院长
剪辑
拼凑
篡改
臆造
印证
去卫
扯淡
即时
亲眼看见
住处
企图
毁灭
串供
流窜作案
第九条
显著
便于
相冲突
其次
第十条
徽
军旗
勋章
央
标志性
图形
同外
旗帜
徽记
经该
官方
印记
但经
红十字
红新月
歧视性
夸大
欺骗性
社会主义
道德风尚
不良影响
地理
标记
县级
行政区划
地名
组成部分
商标法
型号
仅仅
原料
重量
列
形状
需有
实质性
摹仿
翻译
混淆
不相
攒钱
委婉
一提
发微信
面谈
花销
具结悔过
这步
你家
第四十二条
第四十条
第四十一条
产期
第四十四条
宣告破产
第四十六
条有
第三十六条
第一项
第四项
第五项
第四十七条
每满
直辖市
设区
本条
价额
分段
2.5%
2%
1.5%
0.9%
0.8%
0.7%
0.6%
0.5%
元至
不另行
名称权
荣誉权
自治区
第十四条
申请费
公证机关
赋予
外国
0.1%
第五十五
第四款
本项
购房人
三万五千
并处
均等
何原因
批复
在册
㎡
堂前
厨房
申请理由
水田
旱地
园地
晒场
水塘
荒地
宅基
原址
拆建
合计
建造
铺房
用房
四至
村队
现经
我户
附调
年月日
婚姻状况
房产局
第十五条
由国
档案管理
身份证件
查阅
因故
前往
门为
介绍信
有效证件
不得公开
外借
仅限于
木
http
china
fi
aw
cn
wu
qi
展开
衔接
此类
楼主
这条
工作证
更加
期望
除非
良心发现
索性
车辆驾驶
你车
七成
而已
不能偿还
而子
培养
亡故
提倡
发扬
光荣传统
社会公德
父与子
混同
父债
清偿债务
为限
不在此限
旧债
综上
P
S
鄙人
承接
各写
服务中心
主审
书记员
一百三十
五条
第二十二条
住所地
判令
时向
如经
任何一方
去法
确是
适当
指对
由法
准许
一致意见
由人
具体意见
确无
互不
同期
四倍
中央银行
6%
利贷
<
专业术语
话语
惯例
避免出现
不必要
签份
二者
便利
侵吞
窃取
各种各样
人事工作
文化教育
限于
管钱
管物
出纳
政工干部
虚报
差旅费
制约力
必然联系
职权范围
相勾结
不仅
某种
制约
请托
谋取
称之为
斡旋
换言之
之分
任职期间
内外勾结
另当别论
乘机
隐蔽处
伺机
看成
行贿人
论处
才告
原则上
大小不等
事所能
大不相同
高低
追求
交换条件
受贿人
很强
制约性
相当
使得
权钱交易
短时间
索贿
而后
招来
第三十九条
妻
抚育
照料
付出
所负
应从
具体办法
商量一下
工本费
报纸
刊登
第二种
尽管
基本相同
收走
此种
景观
生可向
换房
房源
哄抢
改正
要加
产证
意图
报出
再重
签加名
交款
两人后
重交
仍旧
停止使用
局限
容器
服务商
菜单
招贴
价目表
广告宣传
广播
电视
杂志
广告牌
展会
主管部门
被国
遏制
运气
与否
包孕
商品交易
展览
纯真
所作
第三条
商业活动
熬头
上要
声
标识
被声
预示
使用者
容许
但应
审定
进取
推算
声请
2004
就是指
颠末
外文
传译
中文
比力
记载
接管
交来
真实有效
发卖
有力
简写
税控
装配
升值
专用发票
和谈
条目
看似
严谨
出格
注册号
电视台
企业宣传
大好
电视广告
户外广告
难于
展览会
交易会
更为
包装物
用品
印制
左证
产物
行业协会
势力
巨子
品质
前提条件
不克
采信
有着
完美
完备
说明书
LI
报关单
单一
充分证明
往往
多种
彼此
关联
链条
才气
尽可能
顾名思义
产品包装
越多
之物
战
支配权
对物
核心内容
对物作
以至
缴存
自住
审批表
此表
大厅
交至
核心
承办
闹僵
指望
招人
因其
新版
负有
具体来说
非因
检察机关
审判机关
纪检监察
披露
本合同
为原
缔结
领域
下落不明
第二十一条
对公
辖区
各该
第二百六十三条
交通工具
金融机构
军警
军用物资
抢险
救灾
第二百
三十二条
处死刑
较轻
重刑
血液
顺位
第十七条
该条
十四周岁
投毒
电文
电报
电传
传真
电子数据交换
电子邮件
有形
载
可见
逃逸案
侦破
据此
跟进
需以
餐员
拒绝执行
第三十三条
需经
第五十四条
调解法
第五条
第五十一条
停发
本章
对仲
决书
繁多
归纳
保险费
退保
两全
计息
储金
人寿保险
投保人
不能变更
最高人民检察院
适用法律
第一条
二十万元
百八十
三条
花点
同船
渡
千年
修得
枕眠
来之不易
冷静
建议您
可先
轻易
妥善解决
外界
夫妻生活
一门
艺术
--
难以承受
何况
难点
贵重
家用电器
应明
如果说
万年
相识
相认
相亲相爱
海誓山盟
甜言蜜语
反对
决心
爱情
欲望
算计
上床
惺惺相惜
吃苦
享乐
拖累
无休无止
劳作
不知足
因果关系
心里话
常住
住满
速裁
属地
报告会
N
该项
民诉法
房管
出席
中华
四十八条
第四十九条
辩论
重测
作者
应向仲
副本
十五日
答辩书
前会
应为
应归
该方
辅助性
权属
义务人
归该
指未
发行股票
社会公众
筹集资金
还本付息
合法经营
推介会
回报
悔罪
重判
早知今日
何必当初
屡教不改
不至于
联合会
颁发
该车
调出
旧车
交易市场
经纪
指为
不分
先后顺序
不足以
〈
〉
第二十四条
第十九条
第三款
确为
第三项
以夫
不利于
谈失
一般而言
后宫
词
以鉴
原劳
需提交
申请表
楼送
公断
指劳
对争
居中
内向
撰写
提纲
针对性
调查结果
努力
经仲
或仲
决要
由仲
多数
决后
以北
所属
街道
科室
单等
交予
涉事
简明
确有此事
派人来
绝不会
单听
一面之词
听取
弱势群体
......
会先
取舍
ok
应尽
啰嗦
房钱
下应
自负
亲朋好友
—
劝酒
用话
自制力
身体状况
醉酒者
护送
饮酒者
控制能力
会根
津
其原
数应
60%
两百块
追究其
合意
第一百六十三条
第一百六十四条
七条
八十九条
百九
十二条
把酒
问月
今人
古时
今月
古人
定责
关系恶化
因养
女年满
应征
但收
不受
通缉令
非同
①
复审
②
二百四十
后诉
前诉
否定
请不起
不大
比率
中因
发包人
发包
从入
依法处理
国内
盯
开头
宗旨
经营项目
资金额
仍为
盈余
入伙
未尽事宜
正本
四分
各执
备份
结尾
签章
无心
正事
异心
另起炉灶
危机
可想而知
需求量
储备金
您们
各人
产品报价
争端
两回
中负
负主责
盗掘
古文化
遗址
古墓葬
二十八
科学
并外
文物保护
珍贵文物
构不上
国税
缴销
补税
它会
交回
仅供参考
税务机关
附款
所加
通则
贯彻
试行
所附
成就
不正当地
阻止
促成
届
届满时
客观
不同于
消极
事关
到来
有赖于
表示同意
法定代理
误解
明火执仗
乘人之危
方有权
权因须
以诉
鬲
公共利益
催讨
由劳
第五十
暂行规定
第七条
餐饮企业
调节价
范畴
定价权
权益保护法
第八条
真实情况
知情权
359
供参考
查处
举报人
此栏
祝你幸福
就行
两码事
吋
创伤
记住
感触
讲太多
过火
不忠
阐明
无止境
共渡难关
井能
此刻
天然
有所
暗影
或许
随着
体谅
不忠实
加深
发自
促进
眷恋
下称
习俗
但确
第一种
确立
1994
亦可
析产
补领
暂行
第五十七条
第四条
已登记
可向
立卷
归档
二项
同级
国家档案馆
地为
七项
可持
补足
交强
险买
性别
民族
具状
发送
第六
勇敢
地站
一味
忍受
注重
隐藏
毁损
第三十一条
看新
技术人员
诊疗
后勤人员
执业资格
造成危害
未预见到
过于自信
轻信
借助
蛔虫
胆管炎
违法性
部门规章
器官
过久
危及
或墙
调理
联网
确因
所在城市
招行
尝试
详询
分行
客户经理
致电
客户服务
不好办
进保
那得
当管
为家
三到
第八十九
三日
一日
四日
所有物
个人用品
工资水平
或单
订合同
奸淫
婴幼儿
卖往
指以
拐骗
收买
接送
中转
看其
残疾者
公安部
所指
丁等
年老
人时
换句话
夫妇
减开
除以
×
÷
应以
本文
两半
刑为
1670
保额
第三十二条
辅助
器具
难以
由省
统一标准
按原
此罪
人身安全
恐吓信
扬言
纳税人
来收
想不通
第六十五条
附加刑
不致
危险性
办结
抢救无效
第九十九条
交通管理
二百元
第二项
第八项
择日
病情严重
普遍
举例说明
场景
可依
印鉴
暂存
专办
及本
管理中心
办事处
划转
利于
因病
非因工
绝症
总和
以下内容
与何
养育
现住
一九
故双
搬出
婚生子女
直至
彩电
冰箱
洗衣机
全归
代理权
被代理人
不作
否认
履行职责
人负
以利于
那算
无用
第三章
健康检查
放射性
疾病诊断
剂量
监测
接诊
第四章
两级
da
an
要说
中请
可疑
齐备
申请材料
充分考虑
稍长
弄清楚
社会保障
搞清楚
单住
制发
按程序
第二十条
渔利
依法追究
预先
警署
出售方
应到
迁走
结果表明
设定
如上
购买方
审慎
集体所有
森林
自留山
成片
森林资源
蓄积
积
立方米
幼树
林区
材积
指原
树种
生材
率
之立
生长
幼龄
胸径
即以
伐
偷砍
自留地
应定
采伐
珍
前罪
后罪
345
见下文
森林法
滥伐
国家级
自然保护区
犯本节
百三
十八条
四十五
之罪
责任人员
本节
侦查案件
第九十
怠于
参看
重大过失
应予
疏于
应此
防范措施
冒然
致其
中对误
业主大会
召集
选聘
监督管理
规约
委员
公益事业
责任心
推选
又名
证去
开大
不带证
符合要求
没商量
并非
三是
四是
划走
由父
长短
会想
处应
一倍
三千元
投资者
外部
差异
出资额
名册
准据
除依
还须
工商行政
七十二条
过半数
半数以上
同等条件
此处
投票权
转让方
中可依
程序性
实体性
受让人
无太大
草案
转让款
回收
具体分析
暂行条例
工业用地
体育
不可
虽说
管理部
需向国
持所
县级市
或镇
一栏
指印
高级
特性
机械
偏低
得定
现实生活
有太多
理智
极端
相反
摊
辨别
指在
展示
盯梢
另一方面
合乎
声称
针孔
摄像机
设施
忠诚度
第二章
岳父母
强力
离成
再诉
七八次
顶多
都构
交管部门
伤害者
由交
承保
残级
责任保险
因给
保险人
上位法
下位法
该法条
显然
保险条款
埋单
谋划
四项
弹性
最多为
那以
元来
可得
9.9
只到
介于
强令
假借
磋商
诚实信用
第五十二
协同
不在意
警力
群防群治
队伍
带领
交通警察
第一章
很费
精力
背
妈养
待个
指挥
严重损失
时受
险种
强制保险
或出
安全隐患
车辆管理
选用
房小
乡政
快车
小编
拆迁人
门牌
迁过去
足以
一并
赔法应
房在
守程
集体经济
所涉
人即
自付
完后
先由
防治法
统筹
经报
在此期间
由该
工会组织
个人信用
未来
可分离性
卖于
买卖双方
租出
九大
费者
三思而后行
心中有数
售
务必
阅读
贸然
一关
沙盘
草率
系数
地域
重要环节
由此可见
谈到
脱密期
得出
讯问
无罪判决
固执己见
思路
理会
若无其事
立场
蔑视
背离
伦理
就长
属性
强制力
慌张
前去
露怯
切记
心中
底气
焦虑
以其
兼具
财产权利
择业
权等
报酬权
密切相关
独立行使
主流
薄
较长
漫长
领事馆
期骗
诚实
守信
冒险
险径
尚存
赎出
住房贷款
免征
转绘
缴交
登记费
时所
客观情况
有益于
一般来讲
两边
优越
较为
更有甚者
理所应当
事先
犯下
饶恕
无可挽回
第三十四条
确有
比较复杂
阐述
关系紧张
故而
职时劳
商业银行
为劳
代发
不为
报送
合同文本
内未
合法性
专项
首席代表
文本
三份
就劳
抵触
载明
自其
本方
全体人员
好合
慎重处理
换位
消耗
难易
复杂程度
标的额
既然如此
果断
不离
只会
捏
整没
心死
随缘
男渣
有国
议价
统一价
何来
康复训练
合理性
训练
必然
定型化
确需
算术
公正性
收人
至定
残日
平均收入
受诉
相近
据实
发生地
收人者
不设
供职
其收人
应不赔
少赔
自理能力
时止
健康状况
定残后
依赖
配制
若属
短于
多余
裁量权
车旅费
乘坐
公共汽车
凭据
相符合
赔偿额
客观原因
这项
饮食
机体
热能
营养素
如在江
省张
甲犯
鉴于
下向
传销案
38.98
邱
向江
院依
尚有
官经
批案
肖
该批
总体
案款
86.66
以便
此杰哥
赘述
废话
说起
扪心
因患
身心健康
愿随
正当理由
起码
真够
窝囊
无能
面对现实
错会少
俗称
占优
留着
留恋
留不住
放手
冲淡
股权结构
减除
说不定
通货膨胀率
看法
不喜
勿
没招
随母方
可予
随其
对十
参保
较重
公然侮辱
捏造事实
刑事追究
窃听
上述情况
得利
所借
不难
归为
个别情况
仅为
中所负
总数
辖
二条
以国
由北
适用范围
涉港
由经
并报
第二十八条
付出劳动
第八十二条
情下
缺点
未必
保费
中拿回
生存保险
存活
年数
有益
欠缺
宣告无效
值得注意
始为
偿付
人民银行
计收
万分之
欠租
可待
完结
迳行
可用
折旧
承顶
时所交
弥补
所受
表达
倾注
表达形式
情理
对价
铁面无私
毫无意义
相似
那方
母方
可随
父方
久治不愈
随父方
健康成长
母方均
予以考虑
拧
第八十七
第四十三条
不好过
向省
营业网点
任一
0971
卡片
每张
新卡
大于
呼气
阈值
暂时性
危害不大
可免于
难办
确属
向仲
委等
草本
财力
分清
一会儿
禁入
恶意透支
如若
我觉
摆脱
家底
拉下脸
情况不明
无疑
嗯
翻建
大修
挪作
它用
金时
任选
其一
身份证明
到市
保障金
人与狗
轨道交通
客运
轮渡
大小写
即属
易言之
第十二条
具体操作
详谈
na
耐心
这捞点
之大
合同额
k
车商
⊙
o
不值
软骨头
挺不起
腰板
可怜
之人
必有
可恨
越是
软骨病
更会
家常便饭
不自重
小舅子
无用功
吃力不讨好
反之
老为
软弱
退让
当人
忍
醒醒
路基
防护林
国有财产
需对
受赠
以该
全资
中非
3%
每平方
水利建设
年外
可免
5.6%
详细情况
婚迷
就业局
本职工作
花月痕
一失足成千古恨
居民点
存量
以往
镇级
乡村规划
核查
核准
大项
包办
买卖婚姻
插足
视听资料
生理
诊断书
品种
存款人
两者之间
或曰
相等
评判
社交能力
痊愈
gb
########
国家标准
行政责任
以轻
社会活动
以此为由
约束力
审判员
执行员
1997
十三条
基本一致
履行期
言辞
客观事实
108
条对
含有
具体表现
届期
拒不接受
受领
加害
指除
附随
误差
规划设计
七十四条
主营业务
此外
表达出来
具体劳动
填写内容
负伤
妥善
字条
官会
时所为
言词辩论
实属
难免
西方
代表性
对席
充分行使
修正
一百四十
一百四十四
第一百零九条
查清
112
百条
如其
控告人
同父异母
同母异父
国家有关
并须
五种
贯彻执行
物质性
精神性
荣誉
要胁
危难
处境
紧迫
真意
邮票
甲之子
落入
水库
乙会
重金
其子
甲救子
心切
得救
成诉
错误认识
多因
规格
相悖
等价
事理
凡事
生男生女
后代
传宗接代
育婴
器
同年
重在
转换
汇往
犯罪活动
散存于
关系密切
施加压力
一百九十三
五十万元
证明文件
男女平等
歧视
应少分
第三十五条
平均分配
不算数
突破
低收入
如有
不多
抚养人
折抵
二百六十四
第三十九
此条
悬崖勒马
快到
斩断
不能不要
花个
偶尔
爽
一爽
包养
糟糠之妻
弃
携手
精彩
签捷
信钱
不小
捷信会
不良信息
最为
是央
将会
提问者
四五年
保护期
中共中央
深化改革
日全
第二十五条
但原
教养
各种因素
之时
侦察
自由选择
人户
所持
样式
人身保护
交涉
完即
自由恋爱
徒刑
激烈
唯有
应立即
实践证明
越早
破获
处在
切忌
不分青红皂白
负下
事务
虽是
遗留下来
折价
变现
即多得者
少得者
接受者
遗赠人
到法
可到
时起
分就行
计生
过渡期
小结
技术培训
服务期
分摊
再有
草稿
房地产权证
存单
公证员
③
处理意见
④
⑤
看来
第六条
鉴定人
翻译人员
理算
去掉
百分之二十五
如对
礼让
鸡毛
道德行为
机车
科一
套题
给你个
警钟
万幸
开灯
抢道
拍卖时
进行拍卖
协助执行
现将
法函
102
各级
顺利开展
筑
屋时
第二百三十六条
情节恶劣
轮奸
做做
法理
到龄
杜绝
退者
按龄
请参阅
未供
即日
一两
除为
相适应
纯粹
兴趣班
依靠
武器
第十六条
排斥
诉辩
资金来源
法则
盖然性
不合理性
心证
不可否认
------
轻刑
太短
就近
市辖区
酌量
认罪服法
时事
道德品质
因地制宜
技术水平
一至
查找
全方位
全貌
大多
路段
覆盖
哒
发卡
第一百九十六条
肆意挥霍
逃匿
抽逃
隐匿
不顺心
拿主意
自由人
说滴
全干
恐怕
事实清楚
撤离
一式两份
如能
其后
为免
有口
说不清
简要
无理要求
对劳
第三十条
第七十四条
府劳
督
切身利益
百分之一百
加付
定向
韧劲
清收
艰苦
坚韧不拔
毅力
打发
乞儿
忍辱负重
坚守阵地
临阵逃脱
前功尽弃
一丝
曙光
诉苦
同情
采取行动
资金紧张
收帐
千万别
互相推诿
牵着鼻子
出出气
此法
龋
脸皮
就此
理所当然
不快
得寸进尺
助长
运用
大不了
当机立断
供货
越陷越深
至关重要
拖得
越久
帐龄
帐款
失策
竞争性
总得
钻劲
穷追不舍
摸索
紧跟
战略
过份
不得已而为之
滴水石穿
绳锯木断
功夫不负有心人
柔劲
道义上
心有
歉意
理应
礼宾
相待
老脸
不屑一顾
进门
诉诸
总有
存心
赖帐
讲理
无异于
对牛弹琴
奏效
别出心裁
奇效
难度
丰富
应改
行使权力
份数
写四人
丙丁
按题
主所问
谎报
题主
三言两语
医疗保健
具备条件
本级
第十一条
血亲
三代
旁系血亲
第十三条
尽义务
第十八条
征税
初衷
贫富
过分
悬殊
赠与税
流入
长短不一
处去
别忘记
少则
多则
更长
对薄公堂
不在少数
nd
uv
积极参与
语
源自
罗马法
su
##############
意志
亲近
而会
满十
谁主张
谁举证
闹到
友情
敌人
书证
人证
亲口
越多越好
裸体
裸奔
天体浴
忽视
导向性
扯谈
辩解
排练
思维能力
避税
异样
假戏真做
不良嗜好
缺少
增大
浪费
摧残
屡戒
疲惫
失望
绝望
收场
婆媳
不睦
天敌
别说
和睦相处
各不相让
任凭
夹
苦苦哀求
相劝
无济于事
迁怒于
向着
解脱
原则性
而来
之所以
细化
旧社会
封建思想
认命
忍气吞声
观念
光彩
奇耻大辱
寻短见
不能容忍
偶然
致命
人心
浮躁
责任意识
减弱
意料之中
社交
工具
普及
便捷
强大
内心
有机可乘
挡不住
诱惑
脆弱
心痛
六大
平淡
呵护
婚外恋
38%
16%
一成
失调
婚外性
精神痛苦
杀手
绝大部分
维系
根本原因
主因
催化剂
引出
有所不同
不尽相同
相去甚远
原野
干涸
外向
依赖性
独立性
调适
尽责任
久而久之
调和
话题
重要性
不言而喻
牢固
报怨
实用型
贪图
容貌
慎重
芳心
殊不知
人靠
遗憾
进步
奋斗
停滞不前
落差
好学上进
无所事事
玩耍
素质
日久天长
共同语言
兴趣
越来越少
世界观
价值观
疏远
异性
逐渐
两性
认知
思维
根本就是
一无所知
平日
忙于
感到
漠视
孤独感
强烈
红杏出墙
两地分居
感情交流
淡化
移情别恋
住房问题
破坏力
远远
婚姻生活
必不可少
日趋激烈
心理压力
常常
持续性
责备
加剧
过度
富裕
男尊女卑
根除
大男子主义
思想
无权过问
残害
无法弥补
成性
染上
沉溺
不能自拔
成瘾
筹集
毒资
不惜
铤而走险
婆媳关系
同辈
晚辈
在生活上
相互理解
子女教育
处理不当
产生矛盾
淡漠
这才
最新进展
嫌疑犯
后弃
跳河
航
渠
桥
通报
落
一具
打捞
体表
案发现场
分型
确系
珠
至此
告破
安息
需谨慎
以随
原定
合理要求
父或母
归纳如下
产生纠纷
政局
到任
驻外
馆
张大
寸
半身
免冠
彩色照片
不能不
并交
莫过于
之手
极具
充分性
万无一失
他处
专指
境内
新闻联播
无因
因致
一宅
土地管理法
第六十三条
非农业
村民代表
全权代表
先说
第五十九
申请回避
勘验
非常明显
成败
授权书
查证
一百一十
博客
电子签名
域名
存储
介质
影像
头像
相册
辨认
腾讯
原始
编辑
链
看道
自尽
罪有应得
血脉
父母亲
服务业
价格法
律师法
获准
便民利民
提供方便
优质
指导价
三十天
第九
其所
日以
少扣
但定
作人
指示
选任
引入
侵权者
警戒
专用权
难以确定
使用费
尽力
账簿
査
上诉人
本诉
任何借口
动员
有损于
符合条件
撒诉
另案
原案
保障线
赡养人
几类
市场竞争
私人物品
私有财产
管理制度
随身携带
涉密
放到
行李
值班室
施以
遵守纪律
照成
意想不到
放纵
各条
贡献
绝不
上将
某项
习惯势力
生理特点
谋生
要弱
列人
生产资料
发挥
生活资料
分物
滥用
合法利益
自觉遵守
自营
所售
入驻
交易过程
多于
拒绝接受
调配
可延长
利害
关系人
洪水
地震
战争
某地
计划生育
计发
截留
学者
复合
入手
经费
仍须
补充规定
民商事
前述
规范性
辅之以
凭借
处理过程
化解
不应
仇恨
相爱
幸福美满
语气
中性
面面俱到
心理准备
可减轻
实话实说
形象
填发
孰先
证上
登记员
格式化
第二十九条
第五十六条
阅后
查验
书面声明
两本
监誓
员作
此件
涂改无效
XXXX
长方形
处理表
出生日期
条型
第六十条
第六十一条
应持
需去
A4
纸
一式
另文
底板
快照
因双
现双
清双
写清
婚生
付到
止
坐落
民币
经报区
要视
三十个
委托事项
疑难
较长时间
经本
延长时间
计入
无受
所付
抚育费
工资总额
令来
三大
三十
单凭
九条
行为恶劣
追逐
强拿硬
无事生非
起哄
混乱
二百九十三
依法惩治
情绪
逞强
偶发
借故
生非
矛盾激化
前列
码头
机场
公园
影剧
运动场
肆意挑衅
四种
1979
流氓罪
分解
对之作
八对
一般性
数月
急于
将经
向法
答辩期
法庭调查
→
总结
毛发
公序良
俗
承载
败坏
恢复名誉
自尊
自爱
免遭
载体
j
ng
u
精确
ai
###########
er
Ai
从石
获悉
乙因
抗
终将
丙一
堵门
乙用
平板车
推着
丙往
大门口
冲撞
陶
翟
到达
胳膊肘
匕首
冲向
挑战
抗拒
引以为戒
新闻
二百七十
全国人民代表大会
人民代表大会
自然灾害
突发事件
红十字会
人民警察
籍贯
请求事项
列示
申辩
纠正
呈递
附项
委托合同
向司
律师协会
有违
牟取
管得
挺严
自诉人
公诉人
可据
十分必要
轻率
条到
该法
灭失
实践经验
不该
出气筒
明智
有远见
设法
婚变
避开
关键期
毕业考试
消极影响
商议
对大
听取意见
第六十二
唯一标准
仅凭
其二
不可逆转
诉法
一百八十
若想
不容
第一百五十
诉至
用本节
六十日
案卷
中记明
由谁来
时则
利的诉
审理案件
提前准备
预估
法定期限
一百七十
院后
股权证
情书
日记
卫生纸
巾
口红
不法行为
所见所闻
毒害
愧疚
赔当
其过
愤怒
本位
又称
承租
人称
价质
投诉者
回扣
小费
旅游业
山东省
宗教信仰
风俗习惯
未向
爱护
景区
景点
不予认定
礼数
交换
一招
时附
列上
中未
交没交
口袋
何苦
这损
逐一
期货
包办婚姻
婚姻自主
提供者
笔者
以死
之中
受到限制
罚法
多胞胎
每多
江苏省
劳动定额
体弱
困难者
指引
加倍
折算
重罪
数个
逻辑关系
人所立
专业知识
信赖
该所
蒙受
人经
亲笔
危急情况
所立
更强
为此
由立
嘱人持
户籍地
到立
嘱人住
时立嘱
公证人
可向立
嘱人
行使职权
宣告无罪
审判监督
警械
喜新厌旧
激情
维持下去
丰富多采
寻新欢
型
夫权
应知
商誉
推知
其所持
恰当
首选
让步
专家建议
陷于
会仅
疏导
不佳
良机
没底
若能
友好
顺利进行
别闹
第一百六十一条
推出
时起算
161
督促
第二日
紧急情况
消毒
药剂
医疗器械
输入
志
八条
惜款
不定期
无息贷款
出惜
同类
衡量
由此
章节
讲述
内在
复杂多变
主观因素
其所要
具体说来
私法
不必
干预
宜兼采
精神创伤
拘押
禁闭
国公
非经人
自由支配
除此以外
渎职侵权
利用职权
械
恶劣手段
自残
人次
238
234
犯该
相当严重
私为
一百一十二
经审查
中向
合议庭
第一百
二十二条
报请
当即
另定
中须
缴回
3.1
使人
肢体
毁人
听觉
原发性
犯本罪
规模
交通要道
借完
毋庸置疑
表意
用语
中外合资
中外合作
他物权
权人
向上
第五十三条
各方
经法
破坏性
全法
首要条件
惟一
卑亲属
代数
明确指出
曾孙
人不受
辈分
会因
欠物时
钱物
企业承包
用以
条向
易于
抵赖
条据
右下角
署上
假名
记述
先用
中文数字
再用
阿拉伯数字
打下
单处
经济社会
利害得失
同其
仅以
本质属性
期待
最早
转播
CCTV
解除限制
肢解
勘察
承包单位
多项
272
大法
工程建设
二法
建设部
培育
项目管理
建市
试运行
竣工
全过程
造价
epc
e
送审稿
鼓励性
推行
鼓励
企业资质
资质证书
资质等级
业务范围
以本
第二十七条
结构复杂
各方对
承包工程
第八十三
180
第八十八
除有
二百零三
条人
由本
指令
提级
团体
169
跪
603
查实
就读
生父
生母
收养法
恢复原
暂由
一百零二
零三
为业
无关紧要
以本罪
诉方
如期举行
密切
同争
可达
缩短
指当
这就是说
不以
全体
互为
进站
请勿
列车运行
公共卫生
列车
磁化
刺激性
气味
异味
导盲犬
服务设施
备品
较强
泡
面上
明文禁止
公德
负面
信息网络
基因
资信
大产证
仔细认真
小产证
办出
管理法
第四十五
限转
受让方
可供执行
继续执行
用词
字面上
直接判断
教条
二字
结案率
夫妻之情
多为
日夜操劳
着想
家庭和睦
温暖
天真
克服
妥善处理
结发
恩爱
两不疑
互敬互爱
安博瑄
正处
势必
共同努力
重归于好
虽均
推委
累赘
应予以
多加
视其
踏入社会
风风雨雨
荣辱与共
家庭事务
宽容
高考
不足之处
认真对待
和好如初
综上所述
无法挽回
说白了
拌嘴
彼此之间
生活习惯
层次
真心实意
少不了
脱
诉权
毫无疑问
强有力
薄弱
清册
并予
难免会
偏向
有数
易生
弊端
威信
为宜
不称职
中会
一九九六年
九月
法发
〔
一九九六
〕
调试
未以
未作
深刻
写得
自提地
术语
受乡
党组织
或村
评议
报乡
劳动力
优待
扶助金
奖励性
群众监督
纯收入
类别
分档
加快
国库
多种形式
困难群众
生活状况
减发
增发
盖具
必备条件
自成
立时
以示
强调
证明信
乡级
持盖
行政级别
事处
接生
报在
承办人
再行
法妞
葬
凭居
卫生站
卫生部门
死亡者
暂住地
旅店
户内
查对
来历不明
来历
备查
藉
恩
高发
修缮
多要
防水层
管线
屋面
防水
保修期
常会
精装修
使用不当
毛坯房
闭水
合格证
时有发生
正当要求
相连
共用
附属
异产
毗连
零条
凡异产
修身
缮
起条
内因
外因
公用设施
启用
水上
航空运输
始发地
最先
按理说
第一百八
一百九十
办事机构
联营
体
地人
注册地
相互之间
评选
务农
2736
价
灾难
致贫
全日制
院校
已扎
女户
军烈属
消费品
机械设备
机动车辆
好逸恶劳
集镇
一块儿
顶用
干什么
若果
应记明
代填
证费
人如
公证人员
两名
报批
司法部
挖改
校对
即为
出证
嘱人到
送发
回执
作法
一百零八
具体做法
第二步
第三步
杳无音信
补强
第四步
公告栏
中告
第五步
法令
削减
供给
支撑
土政策
使公
复函
因向公
心疼
打屎
高大
五六万
一把手
三四千
头婚
以司
人连
清高
法律认可
细
说媒
这不来
还出
陪嫁
再者
周围
随大流
笑话
小数
一寸
近照
二张
权在
改动
可至
哪门子
地法
张去
＜
＞
平均主义
购得
不可分割
下同
减按
第二套
改进
北上
广深
暂
市暂
悉数
绿本
哪班
优点
无须
总资产
作价
持股
仍归原
净资产
竞买人
拍卖会
买定
成交价
相差悬殊
结就到
拘束力
昨日
五花八门
公报
尽管如此
尽早
白头到老
美好
绑住
婚姻自由
法新
潍坊
we
决意
依据事实
救治
够买
第六十七条
市县
出租方
宗地
青苗
富余
由市
年产值
基层单位
年报
物价部门
单价
欢迎
来华
律网
招募
保镖
打手
管账
五十八条
达十人
达五人
对犯
时除
几千
要求归还
胜诉权
无论是
居间人
最要
双务
道德风险
援引
经济学
劣势
哪国
二分之一
二十五年
情况紧急
目录
险药
险住
角色
核心成员
金融管理
取缔
营业额
触犯刑律
危险物品
原材料
工商管理
讲得
通俗易懂
复制粘贴
优异
几率比
先期
来算
白做
农村居民
自定
七十五
＝
人均收入
乘以
以此类推
去司
并不一定
只不过
节约
诉累
基本概念
进到
要报
机关报
124
126
交通不便
流窜
经省
127
138
至迟
一百二十六
共和
157
严格执行
法释
初创
市场前景
打退堂鼓
显名
代持
拿给
潜在
刑责
倒置
不出意外
分数
复试
稳住
分科
小分
过线
向律协
因数
而议
涉财
二百三十八
并作
第一百零七条
补救措施
案件材料
转达
重置
划档
自找
迁往
郊区
区位
成新
价构
成新价
或经
调换
安置费
非住宅
停产
停业
房且
自用
小组
建制
易地
建安
多层
每平方米
基价
土地利用
总体规划
要裁
工牌
41
at
################
orms
Ho
此点
不太可能
发期
系指
指公
但公
侨
内一
出生地
控制中心
第六十四
宣示
边远地区
涉及面
四类
二十日
以自伤
做主
中将
出资方
多会
百分之三十六
不予承认
远走他乡
找业
无所谓
街道办
力量
住建
庞大
极广
一两句话
讲清
昵称
言论自由
各州
如美
网信
简介
明确提出
民族团结
洪
有司
查询电话
跨地区
全国联网
还敢
一厢情愿
通谋
产品质量法
公权力
安全部门
经营场所
成绩单
正副
本到
详情
法治
步伐
看作
地段
无法比拟
总价
户型
容积率
越高则
占地面积
上盖
成本价
售价
办公房
名额
买房人
拒之门外
限贷
试想
交够
要交够
缴满
征
更高
商业地产
普宅
可续
149
恶劣表现
肉体
一贯
冻饿
体力劳动
凌辱
负面影响
尚属
速递
和睦
家庭环境
溺婴
六十条
三包
换货
消协
零配件
待修
故障
退清
同型号
修理者
按本
拆动
产品型号
毛线
会不限
有果
受权
别白
忙活
轰炸
胆子
打怕
像不像
返给
养卡
过桥
pp
#############
th
ki
de
出塞
暗哨
含沙射影
掂量
课栈
改正过来
领航员
言谡
肇迟
收债
划不来
八十回
四十回
没脸
借回来
耗费
5%
百分比
第三种
顶得住
不告
捡钱
无家可归
杀人偿命
人不死
帐不烂
躲藏
借货
受案
志同道合
出处
龄
使龙
不教
胡马度
阴山
百行
别害
下浮
第二阶段
酌减
数起
点钱
疑难案件
恶心
信用度
兔
还用说
不要紧
信用等级
#########
le
sCo
叠加
一两千
凉拌
华山
牧卖
很烦
丢脸
没太大
爆个
拼搏
背账
做人
再也
到司
时需
工商登记
譬如
花名册
出入
饭卡
工不
没本事
鸡巴
黑社会
还会告
别碰
你心
不纯
吃点
114
0395
77
首页
sa
##########
ip
wh
ea
写入
哪要
👀
信贷业务
别怕
有借有还
盯上
不太
无误
成熟
发起
达云
飞贷
活该
欠揍
想得美
丰衣足食
生二孩
发卡行
完越
计算错误
打爆
抗不抗
人品
远高于
取得联系
首部
正文
落款
订约
先空
有形资产
无涉
甲乙双方
所载
法不溯
地说
省市
各省市
有贷
几百元
90m2
评估价
个税
m2
1.36
144m2
元二
税单
5.6
元五
元八
世
280
紧急状况
充足
招商银行
一卡通
0.05635
卸载
第二部
无残留
文件夹
Do
gs
Al
rs
Ap
So
ks
ks2012
ry
to
ox
第三部
注册表
C#
组册表
第四部
重启
收录
家诗
311
以杜
诗
数多
隐诗
重新犯罪
-----
筹
政法委
第七十
第六十九条
非法利润
二百二十五
五倍
二百三十一
二十一条
成品油
许下
幕上
看边
扶持
忍受着
充满
上前
营私舞弊
另行安排
经过培训
裁减人员
经向
破产法
重整
严重困难
转产
技术革新
经营方式
滚蛋
严重危害
从严
抓紧时间
走人
大方向
愿望
算成
明晰
联络
会长
找找看
做得好
里诉
上诉书
人所诉
此致
____
__
日生
______
随同
含托
养费
应于
位于
归方
方于
日向
列明
默默
_____________
___
__________________
_____
_____________________________
____________________________
原告人
_______
日附
_________________
______________
__________
特此
竞标
打字
店去
包揽
拍桌子
建管局
资方
可视
远近
探
伴随
留底
戒掉
坐火车
复吸
动者
200%
皆
150%
20.92
167.4
加点
动法
总行
稳稳
二百一十
太离普
关网
一哈
不高
万就行
尼玛
利滚利
超出范围
中国人民银行
同档次
跑不了
善主
呵呵
两回事
35.99
想太多
商谈
沾染
还条
还行
就别
分利
不低
多算
🈶
太黑
一半多
会拉
武力
普片
搭理
粥
切勿
贝米
达功
众豪
巧设
8568
兄
Dei
会断
资本主义
官匪
3598
间隔时间
暴力性
后余刑
格
重处
利息率
高达
搞不好
脱身
确凿证据
纪检
玩死
复杂性
非专业
计时
高点
上级部门
不力
改善
学要
兼顾
公有
代管
宗教团体
经租
核发
此要
居住面积
换算
各区
拆装
农业
人口数
六倍
公顷
民主
劳动纪律
生产秩序
操作规程
规程
废品
财经纪律
上缴利润
滥发
挥霍
资财
损公肥私
在经济上
贪污盗窃
走私贩私
严重错误
经治不愈
患上
未冶愈
抑郁
本是
同林鸟
大难临头
发面
共度
早日
六十九条
蕉
胚胎
啬
酉
５
２
通说
守法
法益
益
斗争
逾越
鸿沟
积累
一语
字面
过于
粗糙
微不足道
些许
角币
偷吃
一碗
小面
逃走
迅速
施加
就擒
口实
急迫
攻击性
败露
等法
迫切
相婚者
继而
复生
局面
陷害
失实
哄闹
谩骂
明辨
误信
{
}
举动
对法益
代表人
管理层
竞争对手
限度
不得已
周去
超单
产检
产检时
优生优育
无障碍
哈市
看地
一裁
两审
裁
裁决书
搜索引擎
改编
应在劳
记入
⑶
⑷
⑸
厂牌
工卡
⑹
应列明
⑵
⑴
每份
委托方
9%
7%
1993
法定标准
片面
并列
以致
逻辑
种属
增减
具体条件
先看
考察
悔改
检举
发明创造
舍己救人
抗御
突出表现
重大贡献
牢底
犯了错
少受
别想
服务器
若干意见
兜底
财产性
通意
生养
死葬
相互间
自幼
看护
前订
赶不上
物价上涨
尚需
中及
主观原因
亟须
增进
团结
区别情况
慎重对待
确信
时机
必将
轻视
亟待
妇女儿童
情况异常
积极探索
时机成熟
解析
之女
于法
二款
领过
个人收入
转归
wuhan
有误
帮不了
信用证
双罚制
第一百五十四条
2007
二十九条
采取相应
民诉
1937
革命
老红军
日到
1945
老八路
1949
非法行为
般
指其
栏内
岭
不超
出不来
担保金
可没收
到案
两款
另案处理
另一人
变重
走一遍
看不懂
但论
一百二十五
随传随到
兑换
安全部
公安厅
如数
退还给
报县
以长
心真大
其到
他收
存根
有待于
三十万元
治安状况
一百零三
以时
当日
提请逮捕
可知
起算
文中
h
r
言行
不良行为
划不清
祝你好运
第一行
犯错误
交待
出所
前因后果
悔过
签上
听候
类人
柴
细致
1995
事实证明
暴力行为
于法无据
侦结
问话
托司
局对
重要依据
试点工作
规和
悔过自新
弃恶从善
守
在案
除检
引用
一百九十八
一时半会
个案
.....
被控
三性
评断
一罪
多罪
公开审判
盲人
未遂犯
胁从犯
教唆犯
过当
域外
已受
真诚
灾害
疫情
加减法
起因
认罪态度
力图
感想
反响
参考资料
关对
以多
按多
数为
私分
改革
预算外
管理体制
收支
两条线
乡收
县管
体制
专款专用
由县
xxx
生于
xxxx
zzz
之母
1xx4
aaa
民初
连其
正值
仅靠
加之
告特
贵院
秉公
xzxxx
另算
向贵
实际困难
千分之
你姐
极
日早
国因
主治
生为
其妻
时为
外科
国住
国向
波和王
国要
写长
写重
该科
同时代
生刘
室王
国将
报告单
包膜
后王
国遭
钝性
波以
6508
峰于
日周
以证
同王
波持
钢管
王据
或系
国在
二王
国系
致该
国以
日报
受聘
为明
傅
想方设
定点
做文章
授意
疗卡
到何
疗卡后
长冯
59.5
勾当
相继
2008
挡
身为
揭发
95.86
还成
取名
吵闹
201
反过来说
地读
一百二十条
记明
以免
财会
公函
很怪
生完
退一步
实际收入
上一年
士
生打
争执不下
生向
近年来
偏高
因子
择校费
考分
赞助费
明显改善
诉上
单从
261
年幼
平等权利
被遗弃者
183
无着
卑鄙
一惯
玩弄女性
从重处理
作一
几项
应给
几时
应至
情刑
向养
妻一
应由双
应由人
职务工资
所处
如农
平均水平
承包户
企业主
教育法
指尚
学历教育
因尚
应经
可由法
程序处理
经济负担
改选
总而言之
一概而论
借高
受限制
人民调解
极为
履约
假设
稍微
转出
之初
Ps
三十六条
未声明
延付
寄存
科学技术
预料
不良后果
输血
因患方
垂危
体质
补救
不难看出
仅指
预见到
不介意
用具
配置
普及型
应交
物损
若有
私信
报经
三百五十
百分之五
悬
不二
###############
元及
处借
诉请
按件
函件
钻
空子
有备无患
挂号信
阻断
大笔一挥
结款
积极主动
凑效
精力有限
所学
排忧解难
函等
试过
主动权
影响力
社会舆论
忌惮
舆论压力
刚入行
缺乏经验
网律
领回
所扣
空
挂科
选手
贯彻落实
销售收入
增值税
兴办
个人独资
减征
劳动所得
减半
第十个
同初
完全一致
马到成功
活动场所
难得糊涂
找大状
大师级
装修业
会员单位
户测
鞠爻
角诧
携超
毛个
消委会
容忍
分旦
超毛
抓拍
清零
罚款单
当回事
扔掉
报账
执法人员
鼎埂尺
忌
侔
涣
踌惟
穿隶
省非
税收收入
人为因素
城管局
依法执法
追问
交不交
元去
追答
这一说
内开
开票
报着
侥幸
先开
完持
票根
税务所
换取
启信宝
网络广告
别忘了
打赏
十种
第七十九
且经
供销
汇算
清缴
利润总额
小规模
免税
琵琶行
并序
白居易
初起
医护人员
吸取教训
科主任
科内
自行解决
及早
院内
讨论会
组织科
由医
主持人
纪律
准时出席
交与
患方及
时均
医学会
鉴定会
专职
干事
整改措施
元起
246
捏造
贬损
侧面
◆
夜间
尾灯
闪光灯
或溜车
同向
超宽
并行
骑压
中心线
正面
字形
超速行驶
交通标志
交通安全
所起
作用力
由后
133
从宽
交通运输
竞驶
校车
额定
乘员
载客
化学品
有前
七十七
第五章
从宽处理
均是由
领有
对夫
弄虚作假
编者
下落
算了吧
新鲜感
体位
口说无凭
事隔多年
自吃
苦果
会得
点滴
某一
被上诉人
第号
指明
撤销原判
论证
实体法
一代
彩色
合影
浅色
背景色
喜庆
对比色
要好看
重色
颜色
太深
领口
圆领
V
美丽
清薄
好看
夏天
短袖
配对
衫
特色
力求
创新
登对
纯色
点缀
加一点
领结
胸针
喜好
淡妆
化个
上镜
色系
妆容
面容
整洁
END
元加
工的劳
节省
工去
工较
行不通
找仲
从劳
找法
定书
网页
明码标价
人力资源部
财务部
家徒四壁
见过
之力
东山再起
第二笔
第三笔
压根
受累
这门
善茬
贴身
身影
还款额
次且
还者
反馈
金融界
领军者
致力于
负担得起
高品质
低利率
风控
体系
按天
无招
袋
月利率
x2%
x1
讼
投递
录下
助贷
嫌弃
网关
拼命
良民
有话好说
放给
大部份
猖狂
贷就会
心塞
jhh
死不了
起死回生
没关系
家无宁日
会害
组个
南下
一路顺风
低息
高息
借款者
能下
玩意
坚挺
啃
高才
自然资源
保护环境
性收费
补偿性
院令
357
上年
计征
劳民伤财
托管
追索
承担义务
生存权
发达
吃香的喝辣的
上下调整
办点
先去
二寸
选个
精神面貌
就会用
男生女生
照相馆
喜气洋洋
鲜艳
情侣装
配
深色
正装
拿不定
忙中出错
从容
重拍
微笑
最美
露
浓妆
头要
靠拢
隔个
似得
修掉
内修
第十二届
全国人大常委会
第十八次
审议
孕育
内网
没证
几婚
不合算
所问
指向性
留用
分行业
以有
壮
甜头
超限
能典
https
www
zhihu
com
qu
知乎
非商业
担
暂住
高危
谈心
有色眼镜
犯罪率
本地人
他行
踏错
这么些
行得
好怕
稍安
勿躁
大过年
扛
身体健康
三十六
学术
拟制
学说
不因
多方面
三十三
三十七
六十四
上级法院
第一百五十二条
偷逃
2012.12
门卫
仓库
保管员
传达室
强度
时段
轮换
5.5%
原值
现值
按上
税额
房屋交易
80.00
工资劳动
常态
近日
鄞
据介绍
生是
生从
故工
科向
险法
各用
险费
害时
险后
生在
应由工
导司
多元化
除此之外
制性
就业者
提了
醒
搞清
放进
这批
品性
罪均
古代
刑用
旅行
后处理
尤应
高度重视
个人利益
列出
善后工作
洞察
蛛丝马迹
求职者
原文
审看
补齐
所盖
下属单位
吃哑巴亏
汉字
附加条件
时如有
设在
局都会
几起
宇宙
尘埃
河流
水滴
给法
一联以
迟交
前引
伸缩
余地
化整为零
灾祸
指因
水灾
节选
救助站
员中
引导
滋扰
居委会
劝返
危重病
特困
街头
无力解决
食宿
供养
度日
捕鱼
纪律处分
节选自
381
实施办法
283
实施细则
做小三是
沿用
并据
大前提
三项
前应
初期
X光
托书
及轻
颅脑
填写表格
旧伤
定人
定人应
即用
人旧
回迁
地块
估价
有据
可循
价是
时点
建筑材料
价格水平
全新
均价
指同
普通住宅
平均价格
汇总
测定
适宜
估算
北方
某省
二本
师范院校
法学专业
两届
学长
丧父
家母
裁缝
学中
不学无术
毫无希望
灰溜溜
二线
省会
迫于
生计
打杂
回想起来
险些
五毛
低薪
背黑锅
退路
万念俱灰
重新做人
复习
330
来过
半工半读
幸好
分过
查分
抱头痛哭
立竿见影
出路
脉
脸皮薄
仿佛
海难
荒岛
在律
悟
爱干
财务室
小丫头
瞧不起
懒得
前多
冬天
一个半
负起
颗粒无收
碰碰运气
名校
人事部门
干不长
第一份
姐对
百感交集
自学
灰
边学边
海归
----
几件
灰常
总算
核保部
核保
钻研
热爱
分支机构
外聘
一顿
补回
出头
买半
长进
几百件
渐渐
周全
身价
跳槽
跳
资的
隶属于
人事行政
没错
房奴
口粮
肚攒
看错
低潮期
外加
别无选择
批量
独当一面
感悟
三百多
走入
正轨
成就感
晋升
两三百
---
房企
愣头青
企
企在
涨到
幸运
如愿
结交
结了婚
俏
商户
寒酸
带薪休假
万智牌
比赛
代步
逛街
呼风唤雨
信念
构建
舍弃
遥不可及
目标
抓得
略微
水深
两口子
凑合着
亏欠
家家
有本
难念
念
校正
每家每户
交通法规
更新
网银
浏览器
工行
网址
网上银行
界面
代收
缴费卡
以工
大病
整好
挂钩
0.2%
全由
1.6%
通过鉴定
12%
饿死
大体
2N
应多
总计
十四
率约
83%
边缘
试探
研究成果
连网
新型农村
已到
一致同意
事务时
正当行为
名人
退伙
第九十六条
权衡
抓获归案
条走
鸦
片一
海洛
基苯
丙胺
小于
一杯
低度
两瓶
半斤
瓶
信函
娱乐场所
群众性
组织者
由华律
编为
六项
五项
劳动就业
实报实销
假肢
矫形器
假眼
轮椅
分类目录
第六十六
04
第六十八条
被保证人
07
徒劳
End
可离
櫈
热
坦诚
读研
宣扬
拆开
纪念
六种
如淄
隋宫
隐
担保法
残废者
丧葬
院早
文印费
通讯费
受援
院可
判由非
其合
即能
贸易
会仲
贸仲
决书中
年版
方因
一则
前置条件
媒体报道
社会各界
广泛
华社
广西
华胜
薛是
从南
传出
发已
正由
珍是
众
对马
悬念
调戏妇女
插进去
无非
调戏
下水
逃课
不善
非常复杂
地市级
至亲好友
牟利
众多
老规矩
局内
打劳
因劳
一锤
免以
估量
做不了
问得
先赞
广告法
民办教育
促进法
较真
街面上
培训班
弯弯绕
打广告
换个
造反
作乱
网警
别留
网课
开课
10w
中上
教材
本书
对行测
申论
练习
国考
行测
一下周
立足于
自杀者
自我
根基
动摇
畅通无阻
法外
论以
书痴
剧照
几顿
基准价
每例
4300
精神状态
每枚
轻判
孩童
时距
个人消费
更动
线缆
国籍
点燃
行进
改变方向
好办
号发
口语
称作
常说
省略句
你和律
诸如
公费
外送
颁布
劳动人事
高等学校
供需见面
双向选择
高校
相比之下
具体步骤
凭原
契证
″
各所
职工代表
领款
主办
七十条
存入
案是
解保
扒窃
有期
刑诉法
专业性
商有
洽谈
需要的话
刑诉
20323
中专文化
日经
同日
送本
男女关系
断绝关系
约见
邀约
劝解
误以为
并于
家五楼
楼梯口
拖入
拉扯
手拿起
茶几
两刀
夺下
持所夺
数刀
后脑
因警
自杀未遂
鉴定室
锐器
颈内
失血
上述事实
羁押于
随案移送
册
地图
搜下
二手市场
牢饭
指模
两百
_________
病故
四套
兄弟二人
拉拢
家族
嫁出
泼出
石家
分掉
分文
咒骂
年里
不仅如此
总计有
病重
整日
伺候
第和条
重男轻女
族权
粗略
三百左右
打印稿
吃饱
撑
不劳
费心
上下
看涉
五百万
贴点
千左右
名头
标底
见钱眼开
雇拥
7k7k
赤炎
百分之八
测算
℅
来定
百分之七
略有不同
10W
0%
75%
核定
护不护
GB
T1
专家组
定费
物价局
考量
时到
彩照
未派
进食
翻身
穿衣
320
条本
十六个
百分之七十
四十个
85%
在内
信访办
百般
照像
雇
门卡
开户行
领料
小心谨慎
狗急跳墙
推诿
全国性
网络媒体
论坛
发贴
控诉书
一二百
凄惨
更佳
取到
取予
牢狱之灾
那有
仅作
去市
被告席
2025
往南
讨工钱
秋日
吴公
台上
寺
远眺
卿
哪一年
88
🐍
败类
拿入
铰大
上访
考勤记录
结欠
尽情
蹂躏
哈哈哈
百日
遥控器
书名
左胜著
出版社
入库
该书
暂缺
图书
内容简介
电子商务
近十年
热点问题
趋势
纵深
停留
更多地
投向
专题研究
近年
版权保护
电子货币
顺应
深入
航运业
蓬勃发展
新一轮
便是
汁
算机
海运
纸面
转变
正是
滞后
不争
世纪末
运转
轨道
示范
窥见一斑
电子化
第六章
第七章
第八章
EDI
海商
视角
简而言之
归根结底
流通性
rg
rrul
彰显
表征
电磁
可分性
另辟蹊径
柳制
流通
对电
控制权
中立
既司
独一无二
承运人
认单
认人
值得一提的是
att
rnm
nt
图书目录
导论
概述
演变
公约
飞速发展
XM
####--
核心技术
加密技术
第四节
形式主义
基本思路
际立
内立
有效性
76
功能主义
UN
RAL
独一
第六节
106
一一
111
121
两层
辨析
131
135
139
141
143
转换机制
147
历史沿革
152
154
156
律上
162
164
FACT
措旅
IN
ERMS
166
跟单
U
交单
附则
UCP
167
同式
aD
cs
CMI
173
182
重塑
211
212
214
216
217
221
222
227
228
229
剖析
235
239
252
256
259
263
264
概况
267
268
269
274
278
285
295
原理
297
307
运行
示例
3lO
317
319
322
新型
彼此间
323
324
326
331
334
339
346
348
351
352
参考文献
364
后记
376
378
页
甲基苯丙胺
武装
掩护
二百克
该款
冰毒
可处
动词
不得好死
347
是习
坑壁
唧唧
旅个
游
流水线
操作工
时长
公共设施
抢修
休假日
少发
仲裁法
但劳
决劳
自劳
经劳
该劳
决为
终局
决书自
沈阳
各月
主观性
组妹
差劲
干个
目的性
工具性
两大
客体化
法律化
局部
某一外
一整套
恣意
握手言和
示范作用
基本要素
经济收益
物力
负值
损耗
正直
相互作用
有序
某种程度
司法权
矫治
分工
扮演着
小至
衣食住行
大至
物质财富
人类
息息相关
立法者
个别
趋近
经由
处为
局机关
应由本
工作部门
报本
分管
对本
可向法
火坑
怎归
几分钟
同理
这若

交付给
同住
收件
送交
留置送达
指受
拒收
基层组织
回证
上记明
受托
并用
人住
地离
附有
寄回
受送
监所
劳动改造
交受
张贴
登报
公诸于众
用前
88.89
人原
特殊要求
按月付
按年付
特指
罪证
贿买
二罪
百零
中才
为保
因新
环境污染
搁置
悬挂
倒塌
饲养
因用
由用
负举
依本
他司
充分说明
明其

众所周知
自然规律
定理
已知
无异
复制件
复制品
据系
所在国
经中
国驻
该国
使领馆
外文书
译本
逐
页数
有损
条除
单位名称
迟于
第二十
诉前保全
等方
员及
绘制
现场图
方位
摘录
完整性
断章取义
条经
日举
据后
第四十
二十五条
审举
差旅
庭上
对书
条质
围绕
关联性
明力
逐个
作伪
据时
言
指有
年迈体弱
遥远
视听
传输技术
感知
表达方式
推断
评论性
旁听
发问
二名
逻辑推理
禁止性
疑点
节录
与物
据佐
以合
对同
举出
公文书
传来
密切关系
品德
专业技能
第八十
rr
轮台
歌
奉送
师西征
岑参
留点
赶车
放带
新假
十五夜
赠张
国定假日
一分为二
依法办事
内以
再选
表决
终身制
预备期
推后
党委
哎
后路
切割
方针
才干
契合
房地产热
热情
美林
花旗
高盛
震撼
鳄
小利
奉劝
趁早
打消
提升
幸福感
没离
强冤
弱
第一审
快慢
安交
笔试
考试合格
累积
分值
人违
满分
信息反馈
知书
档案室
20mg
100mL
80mg
....
便付
权回原
不见得
一入
试试看
婚介
不扣
看做
调岗后
国务院
再婚者
489
按劳
第二十三条
同类产品
___________
技术秘密
订定
来函
会议纪要
客户资料
统计数据
报表
科研成果
音频
计算机软件
安全措施
传授
保密制度
透露
专有
如同
严重者
受中
依此
###########################
______________________________
协力
厂商
机密信息
掲
予
秘密性
仅供
后约订
所称
商业信息
藉由
洽商
营销
产品开发
构想
系以
附着
媒介
软硬件
研发
财务数据
为本
命令
惟
上开
保护措施
因本
供作
亦不得
机密性
嗣后
准用
无庸
前项
予其
负其
区隔
re
之较
高标准
以利
光罩
电路
布局
重制
影印
应依
本及
切结
书予
叙明
正确性
或合
并明
印刷错误
缺漏
径行
系属
先定
惯常
诈欺
虚伪
犯行
而经
故如
情事
而拟
透过
诉前
实时
预供
释明
准为
倘
所为
增删
非经
拘束
之继受
生效日
依约
因甲
除应
所生
应本
时即
壹式
贰
执乙份
仲载
所述
信息性
实用性
指不为
联锁
非专利
成果
工程设计
工艺流程
技术指标
数据库
试验
样品
样机
模具
操作手册
文挡
函电
占据
特定场合
订货会
E
被动
放任
受益
控股
参股
提供商
级别管辖
图表
笔记
磁带
磁盘
光盘
单个
诱使
竞业禁止
置于
自备
复制到
F
参观
财务部门
行政职务
善良
人之责
采取任何
其于
资源管理
销售费用
财务报表
预决算
财务制度
战略规划
定岗
定编
异动
数据分析
对策
情报
决策
产品价格
供求
分销
分布
客户名单
行销
关健
在业
120%
额中
抵扣
非为
绝密
保密法
揩
缔约
先决条件
人及
经其
间歇性
纯获
指向
任意性
冠以
词语
犹如
孰
重大意义
自始
操守
权利能力
后以
得出结论
当该
横加干涉
1981
81
复涵
恢复原状
性氏
检察人员
审判程序
按天算
完婚
依法办理
同等待遇
百分之七十五
孕假
允假
不可理喻
枪毙
贩运
十八年
好汉
早婚
多育
脱毒
心瘾
戒后
Ⅰ
Ⅹ
每级
指数
%
4%
消费性
支出额
费及
人除
栏目
五至
本表
百分之四十
预判
十六年
实制
陪人费
三七开
两万左右
获赔
第七十七条
现对
精神损失
费在
一二百元
￥
二百万
.#%
两千万
二千万
两分
查询器
流行
注本
一块钱
耗
妇联
白花钱
特多
结婚的人
五六千
永留
血痕
黏膜
还得查
销除
普通人
扯不上
eoft
sp
祥谈
册账
再升
对外开放
以下几点
想查
盘查
调阅
秒
美尼尔
氏症
眩晕
癔病
震颤麻痹
神经系统
精神药品
戒除
犯罪案
同谋
暗地
就会判
分内
大体上
##-
略有
个人住房
知青
沪
O
赠书
未受
刑事处分
声像
电脑软件
节本
保管费
清点
通嘱
音带
音像
租用
保管箱
另计
每宗
估损
认领
发行
创立
股东大会
助学金
救济金
代拟
法律事务
开奖
抽号
非经营性
经营性
开标
决标
抽样
征缴
养路费
市内
赴
远郊
办证
送证费
每本
每千字
千字
外译
校核
对己
未经审查
单靠
谈不上
极度
病危
指立嘱
述
生命安全
赠给
查问
空缺
聪明
上门服务
财政部
事业性
发改
1494
服务性
1.2%
会同
增予
公证法
有偿转让
面额
‰
担保书
影印件
公平正义
之责
身分
中华民族
遣责
改换
至法
私有化
自收自支
报省
实际性
完在
出轨行为
可操作性
起即
将要
戊
本处
现查明
戊于
美元
现存
丁称
截至
现甲
乙均
应由其
因丙
由甲
益额
去作
所住
时该
强烈建议
全在
此项
完全同意
只受
谴责
合法收入
该房
财产法
柳
种种
自居
判其
天向法
操盘
化名
赔偿制度
姘居
如法
全在夫
方得
他方因
不花
终审判决
固定价格
辩诉
hh
因私
报价
去律
刑是
混为一谈
扩大化
人质
有悖
本意
绑架者
恰恰
改恶从善
确切
地价
地价款
拍卖成交
福利性
调拨
该套
借方
房财
因该
得逞
被害者
赎金
惨遭杀害
甫
民主权利
一章
甚为
猖獗
绑票
新中
绝迹
近些年来
惩治
单立
堵嘴
蒙眼
麻袋
境地
第十七
管教
劫持
杀伤
勒令
以钱
赎人
广义
局限于
政治性
漫画
安危
忧虑
劫取
所有者
守护者
完全符合
赃款赃物
其所输
举重
明轻
所输
回本应
勒
罪仅
综
莫急
系人
随意性
古老
金字塔
骗术
变异
诱饵
参加者
日国
现阶段
国情
由工
帮会
不明真相
随心所欲
明令禁止
进程
花轿
头一回
行为规范
论文网
xzbu
vi
htm
衣着
镜头
回放
不料
威严
伸手
拦住
拖鞋
汉是
倔
看表
一急
当下
非但
懊悔不已
尊严
神圣
更是
训诫
不许
之二
嗜好
不久前
彻底
席上
坐定
醉醺醺
地到
之三
�
推上
堵车
多分钟
难为情
坦然
卯
没想到
气喘吁吁
见门
锁上
义正词严
硬着头皮
敲
训斥
一通
检讨
真有
之四
爷
生性
耿直
心直口快
知情人
爷去
当魏
慷慨陈词
按捺不住
亲历者
发言
偏离
坐在
旁听席
举手
枉法
逐出
以向
之五
录音笔
实况转播
摄影
走动
鼓掌
喧哗
审判活动
器材
之六
赖债
万般无奈
一纸
伯在
闷声不响
这一去
叫苦不迭
干挠
之七
两口
裂痕
义愤填膺
破口
忘恩负义
越位
原告席
不致于
缺一不可
付诸
反革命
女孩儿
中华人民
性暴力
小偷小摸
受灾
甚微
主管机关
应同
有所区别
获赃
家律
悲观
兜里
掏出
感到痛苦
血缘
中老年人
十二届
人大常委会
谈不拢
详细描述
赞
无中生有
诬告者
手段恶劣
第六款
拟将
解救
乱写
乱画
权威性
记号
第九十七条
条至
硬币
两面
书面报告
不论是
申请者
最短
一百四十九
基本农田
集体利益
低效
开发成本
推进
科学合理
逐步完善
杂乱无章
整体规划
尺度
巨大损失
治镇
村镇
不利因素
镇村
而成
危房
个私
集聚
不堪设想
赢利
搭乱建
一颗颗
毒瘤
村容村貌
先建
乱建
技术规范
和谐社会
主题
背道而驰
103
煽惑
挑动
图像
鼓吹
众人
多种多样
试题答案
洗井
袭警案
重重
苦恼
大方
相互信任
顾虑
外挂
卡通
公仔
拦停
进行批评
苛扣
行政部
转机
不道德
档
额是
越长
额越
越高
实际操作
老少边穷
额高得
额时
见分
进元
假定
2468.41
2469
到角
2468.50
上浮
中专
每人每年
有线电视
专用线
初装费
安装费
煤气管
集资费
修配
所得额
销售额
残联
卫生院
免收
挂号费
床位费
取药
博物馆
文化馆
商业性
文体活动
杂费
高级中学
成人教育
大中专
奖学金
优先照顾
共识
年期
焦点
发表意见
现金结算
工资制
话糙
理不糙
2013.01
正场
开肯
涉案人
住校
平卧
一侧
分泌物
舌后
坠
阻塞
气道
皮囊
氧气
加压
吸氧
呼吸机
血氧
饱和度
示
氧分压
65mmHg
氧
流量
10L
每分钟
固定器
门齿
刻度
24cm
吸痰
抑制
查体
沿
瘢痕
色素
沉着
新旧
新鲜
拮抗
纳洛酮
升压
多巴胺
羟二氢
吗啡
酮
衍生物
属纯
受体
拮抗剂
内源性
阿片
样物
阿片类
内啡肽
呼吸衰竭
抑制作用
频率
低氧
疗效
副反应
使用方便
心电
对症
疗法
电解质
酸碱
平衡
保持足够
尿量
保暖
瞳孔
紫绀
血气
交谈
陌生感
转嫁到
性格特点
细心
接纳
和蔼
疑虑
骤停
争分夺秒
抢救工作
胸外
呼吸道
通畅
高浓度
循环
脑细胞
敏锐
判断力
熟练掌握
操作能力
早日康复
开未
那片
不太大
有吸
du
一考
考票
妹
由兄
全赔
赔出
会客
迁居
犯新罪
新犯
坐出
和解书
排期
支队
分化
转医
问诊
特异
取向
抽象
水准
发展史
证件号码
遵照执行
于本
按年
你生
长大成人
民事诉状
片区
纠风办
交警支队
相对来说
二十余
万字
共犯论处
二百八十
利用计算机
第一百八十三条
未曾
委派
非国有
公务活动
交公
捐助
专项基金
集体企业
法制建设
党政机关
工作效率
信任危机
隆动
依次
细分
代偿
智能
临床
瘫
肌力
虽未
95%
麻醉药
永久性
生少
336
便民
实事求是
科学态度
配套
二等
四等
五等
主页
领号
妞
医学专家
例次
如新
会诊
病程
启封
335
药及
后勤
界线
值得
先找
得到许可
下方
认真学习
暂行办法
逻辑思维
普通话
交齐
随机
抽取
合议
伤残者
还分
多种类型
对照
外国法
负责制
合议制
组成员
逻辑性
详尽
说服力
报告书
最受
诟病
中立性
运动员
裁判员
游戏规则
从根本上
最高级别
病患
没看
原由
事态严重
有证
多方
全文
通字
军
打击犯罪
遵照
全案
重大责任
故案
第一百三十四条
一百万元
全生
施
市场经济
案三
主权利
案四
案五
防治
三十条
甲类
供应
饮用水
病原体
污水
污物
病原
携带者
控制措施
鼠疫
霍乱
乙类
非典型
炭疽
致病性
禽流感
布
菌种
毒种
三百三十一
保藏
丙类
流
暴发
疫案
疫
黄热病
非法组织
血案
卖血
乙型肝炎
丙型肝炎
螺旋体
微生物
血液制品
试剂
献血者
血浆
超量
全血
蛋白
测
受血者
造血
采供血
血站
脐带血
干细胞
库
血库
单采
抗体
表面抗原
投料
前未用
复
批准文号
注射器
呈
阳性
员进
冒名顶替
不合格者
用血
三十五
试验性
病毒性
医案
第三百三十六条
劣药
医被
医的
医师资格
接生员
试
节育手术
节育
复通
摘取
节育器
选择性
动植物
十七条
进出境
疫法
进境
二类
寄生虫病
名录
中所列
疫病
传入
对农
牧
渔业
疫性
有害生物
生态环境
说来听听
随时随地
210O
2100
2260
自选
篇文章
邮政编码
113.4
4832
点许
背痛
于神
急诊科
急症
双脚
继之
失去知觉
运动
脊髓炎
待排
摄胸段
T4
低密度
仅予
脱水
许神
内科
硬膜
高密度
诊为
许行
胸段
磁共振
口头报告
待查
行颈
增强
扫描
印象
硬膜外
性病变
入科后
恶化
神经外科
脑病
造影
脊
确诊
硬脊
手术室
行椎板
断送
出国深造
前途
急诊
压迫
可望
血液循环
软化
特别强调
受压
白质
不瘫
宝贵
推卸
年青人
短时
简直
不可思议
明日
敏感性
分辨率
MRI
扫完
中一
方向性
没扫
瘫后
黄金时间
日晨
需针
分夺
或行
探查
错误百出
主扫
扫到
矢位
轴位
重做
已能
内行
阅片
全瘫
风险性
日晚
造影术
此病
一分一秒
漠然视之
方把
脑外科
脊柱
脑脊髓
动静脉
为医
专科
雄厚
诊治
一次次
特向法
讨回公道
五十万左右
BCD
共产主义
不可避免
无从
除斥
预定
故又称
学理
尚无
由德
赛
尔于
1903
依其至
见解
人依
法对
权均
权都
物上
家采
共同点
创设
特别法
104
192
若千
典权
出典
回赎
107
不复存在
代征
年财
财预
523
由财
统一安排
扣缴
退库
计划单列市
院有
由税
结余
扣减
年代
⑥
部驻
百分之二百
一百六十六
际法
占先
发现者
以排
占领者
占领
无主
礁
滩
反言
教科书
世界地图
领导人
对南
主权
时际法
域
早于
洋法
史实
滑稽
先生
公平性
现如今
盛行
望其项背
有主
蚕食
瓜分
爱好和平
领土完整
毋庸讳言
未像
因马
横跨
大西洋
廷
拔刀
相见
诚然
头同
缄默
共同开发
礼仪之邦
乐于助人
受助
健忘
有枪
炮
回归
英联邦
五十年
内政
而香
沿袭
基本法
不齐
ns
tals
本证
反证
ma
smal
pi
如属
须持
责任区
派出所长
户籍管理
审批同意
衡量标准
饱满
上课
旺盛
少睡
睡足
昏昏沉沉
排查
外部环境
安稳
九至
织
织网
离岸
社团
山寨
机动
轮椅车
本科毕业
专科毕业
英语
综合课
联考
命题
民法学
刑法学
各为
宪法学
法制史
书目
专业学位
考试指南
招生
社科院
外资企业
丙而
经营企业法
日本
意大利
勘探
而致
流离失所
沿街乞讨
屡经
陷一
调研
中较
宽严
相济
并举
暴力手段
卑劣
受虐
杀夫
不堪
放宽
对合犯
合犯
对合
犯时
各国
无不
特留份
法定性
并存
辞典
通称
含本数
常指
猜想
守规矩
年节
纪念日
洛因
品是
精制
粗制
纯
称重
居多
货币资金
愈益
中所起
口益
发放贷款
流动资金
固定资产
商品流通
卫生事业
发僳
与此同时
金融业务
日益
指编
错觉
屡有
引资
几十
案犯
财团
华人
优惠条件
存人
出口
短期内
产比
跟行
几百万元
兑付
以伪
一百余
自行决定
依附于
概而言之
毫无道理
朴素
严肃性
侧重点
侧重于
偏重
更易
民众
更能
地方性
变通
安置人员
保险费用
二种
分有
责任田
极易
2009
塔
本想
充分认识
后悔不已
迎接
警在
行有
很忙
抽出
大里
不厌其烦
侵蚀
灵魂
法制观念
淡薄
我悔
洗心
命面
龌龊
心头
悬有
之剑
三思而行
切莫
一时冲动
大错
速
载有
牌证
第十一届
第二十次
议
以以
第十九次
有以
涂划
践踏
302
事儿
罪本罪
血样
交通民警
查中
信息化
大力
需由
那句话
移民局
就会认
知识讲座
听后感
一张白纸
白纸
着色
色彩斑斓
满是
绚丽
灰暗
有的是
张纸
添满
色彩
早早
飘零
无形
虚若
无物
无声
无影
邪恶
念头
闪过
悄悄地
靠近
大网
身后
你触
底线
法制教育
演讲
生动
两万多个
这儿
感叹
祖
看在眼里
那中
强则
惊讶
越来越低
住读
时时刻刻
自觉性
松懈
好奇心
换来
更让人
心寒
杀人放火
打打杀杀
一不留神
沉入
泥潭
网游
犯点
俗话说得好
偷针
大时
偷金
养成
腐蚀
情不自禁
地犯
痛改前非
根深蒂固
会越
变越
可塑性
明辨是非
自控力
一步步
不轨
一记
钟
花样
年华
诗样
度过
本该
冷酷无情
决不会
走得
辉煌灿烂
知法
要持
之而行
学好
学员
教材费
理科
辅导材料
学时
培训期
拒赔
前题
投标
事半功倍
非常容易
困局
行医者
人送
被捕
执行逮捕
下为
军官
军衔
增资
免职
公费医疗
作战
随军
旅
移防
工作调动
随调
五十岁
所调
牺牲
知识经济
遇事
导读
俗话说
懈怠
不好意思
关爱
满时
经济往来
由夫
保质期
前头
仅能
升职
其应
明艮
得服
完刑
详细分析
县前
地平线
第三百一十二条
电力设备
交通设施
广播电视
军事设施
防汛
优抚
救济款
上游
除有碍
处所
发表声明
从加
约旦河
岸
迪
名叫
冷
近几个月
豁免
检的
手枪
突击
步枪
另一名
经销商
发言人
非常重视
当局
执法机关
提查
天至
起诉科
该院
接卷
可补
补侦
满算要
I
1O
案末
内会
剧毒
毁弃
渊源
判例
法是
第一位
衡平法
编纂
统的
单行法
包罗万象
公法
而英
为法
理清
纠问式
▲
演绎
重心
纠问
陪审团
提示法
有助于
在历史上
二十世纪
缩小
民法典
苏联
系让
对手
活络
矫枉过正
巧舌如簧
讼棍
钻牛角尖
学究
呈现出
建构
理性主义
理性
演示
真理
无可置疑
推演
方法论
重构
彻底改变
进化论
思想家
社会制度
精心设计
逐步
货币制度
非人类
创造物
进化
已学得
普遍存在
人类文明
不成文
顺应时代
出新
委任
短语
抽象思维
直观
方未
最具
弗
重述
明示
人受
法上
关键所在
从大
法看
1804
一脉相承
授与
第十三章
受法
比较突出
第十五章
飞跃
关系法
之债
第十节
体例
经典
具体化
一房
二卖
先买
从亚
发源
实际效果
实用价值
后世
深远
先例
启迪
溯源
拉丁化
显
奴隶
总称
灭亡
公元
中叶
奴隶制
全面继承
当今世界
资产阶级
借鉴
近代
措词
立论
言简意赅
精深
人权宣言
神圣不可
独立宣言
重物
固有
追求幸福
拿破仑
编是
人法
物法
这一编
债法
扩张
公元前
地中海
此后
历程
征服
统治
奴役
渗入
融合
文化交流
丝绸之路
拉丁文
基督教
繁盛
辉煌
意
优越感
份子
之机
墨索里尼
战后
狂热
战斗
标榜
扮演
工农
救世主
庄严
文艺
光荣
恐怖活动
社会党
全世界
不容忽视
传奇性
不可或缺
甚至于
保监局
营销员
建立健全
违纪行为
严肃处理
展业
保险业务
保险行业
不断完善
人员名单
个人保险
主导
适度
为辅
相一致
财政
按日
第一家
第一张
第二张
保监会
车船税
第二家
😓
其所能
先予
谎称
支出费用
分保
再保险
分出
及原
受益权
条因
依赖于
这部分
不透
旨在
保险市场
关键词
引言
隐瞒事实
保险费率
承受者
由此可知
失衡
隐秘
应指
虽有
火灾保险
构造
存货
汽车保险
海上保险
货物保险
舱面
遗传病
安全系数
安全性
混放
寿险
消防队员
小学教师
时未
投保单
所列
制即
未予
采证
狭
或法
程序实施
有法必依
执法必严
违法必究
立法机关
捞
保险代理
in
二十三条
分入
保险经纪
通晓
偿付能力
招揽
故其
很长
起源于
世界性
业务素质
资格考试
防火
防损
风险管理
防灾
以较
拟订
技术性
中介人
内分入
恰订
如为
业已
内所作
如受
始末
浅论
近因
初探
解读
亮剑
试论
亮点
几许
病愈
之约
Ph
ex
移动电话
交互式
三百六十
旅馆业
娱乐业
出租汽车
业等
诶
瑞康
初步查明
指该
三人及
定到
走弯路
担责任
病症
呈请
填制
祝福
擦边
少去
妙
花钱买
档案资料
考学
盘问
行政性
省厅
对系统
至香
入境处
获许
及受
养人
而无须
入息
不间断
交易日
犯前
父辈
征召
陆家
在国
敏感时期
领人
办港
通行证
俺
中帮
特意
太好
out
快乐
气血
两虚
肝气
指三人
一百二十八
无依无靠
苏州市
自强
总社
乐助
理念
社会工作
辅导
尿样
美沙酮
就学
例上
专章
程序法
后位
联邦
条未
推断出
50w
蛋
中等
长和本
诉第
177
长对本
对下
导出
未受理
重大案件
案号
前条
代码证
电子文本
对法
213
其因
列其
偷看
交其
不招
中亦有
价位
少要
起步价
百分点
推款
打底
13%
按标
地额
一扣
事请
市场调节
承受能力
专做
选择地
刑辩
面对面
借以
刑事法律
接谈
每位
本律师
律师网
皇
铁
屯
浑
地有
辽宁省
跨度
瀚思律
差远了
居家
争讼
诉争
区律
郭
数来
会收
有贵
多去
律所问
或本
科学实验
遭致
因战
突发性
兵车行
611
处女
退告
天上掉
说说看
省事
少收
工作难度
多收
协和
指导性
养着
就够
象征
动力
拯救
找寻
家园
之家
投人
违犯
年事已高
季
方方
无规
一刀切
支助
但继
因继
在精神上
愉悦
高层次
y
差距
过大
想生
留居
起状
西区
女林
之子林
详见
由林
闽
离字
010
但林
辉于
重担
年岁
已高
宽裕
现正
父爱
母爱
关怀
不忍心
祖孙
相依为命
艰难度日
现婚生
心身
对林
速决
会早
随之而来
拒做
太多
该证据
假若
划款
常为
银行利率
扁
要来
中国共产党
党章
党
号召
遵纪守法
限止
大耳窿
放数
放债
毋须
立下
原始社会
末期
奴隶社会
残酷
尤为
驴打滚
翻转
越滚
越大
占优势
生产方式
社会化
赤字
密切联系
剥削
小生产者
生产力
发展缓慢
优化
资源配置
流通费用
及司
日重
策
专线电话
粗鲁
汉子
赶快
A1
牵引车
A3
B1
B2
文明
应急
内到
审验
内记
但会
没笔
说错
把柄
抠门
惩戒
业务培训
到律协
律协
号国
领导小组
〇
四月
十三日
本办
具体实施
报国
委和
菲
会视
老头子
赞成
赘言
解释一下
盲聋哑
尊敬
私闯其
在所难免
人之常情
年轻气盛
冷漠
固然
杰劝
解决矛盾
人起
但王
P78
洗车
玩牌
使然
勒索钱财
和事佬
自始至终
用错
不关
完王
偶然性
责问
不予理睬
或事
中王
修理工
两位
阻拦
所求
已由王
出任
师范
并不大
每家
钊
不深
其办
法律意识
发家致富
为生
偶犯
惯犯
其有
比起
负隅顽抗
充分体现
诱因
片面追求
盲目
不严
足见
熏心
源头
刑律
就范
山东
案中
刚才
有序化
中伤
从这一点
社会群体
慌乱
因李
加王
听话
斗狠
抖威
争霸
劣迹
高中毕业
染织厂
况
维护者
公共资源
时众
太重
几款
笼统
293
发条
耍威风
取乐
素不相识
强悍
无所顾忌
填补
空虚
争强好胜
抖
威风
注定
下想
一时性
多述
带过
卷次
踢打
倒数第
用拳
倒数
行说
几脚
总上
玻璃片
锐气
藐视
法纪
变态心理
逞强好胜
事出有因
但仅
不具
民愤
敌视
有失
偏颇
准绳
无畏
大成
实不清
华润
其转
旺
转托
矿方
煤炭
潞
率提
每吨
锋代
统一性
一致性
11.5
我发
煤劳
旺以
拱手
关与
实上
锋转
分至
分在
冻
烤
关从
跋涉
采性
旺钱
公诉方
能源开发
调入
为空
局外
编排
煤都
卢
电厂
电煤
局请
煤质
日证
敏
按计划
分月
提报
部大
局由
调度
再下
矿物局
均衡
煤业
确保重点
各局
座谈会
纪要
上下级
员有
归罪
项转
于王
襄垣县
控孔
伟一
业余时间
冤假错案
降格
留有余地
本质特征
锋为
顺利完成
日清
元以
实与
我局
截取
对证
因杨
并不等于
成此
说行
最初
无职
控方
此为
常理
是业
排发
局中
锋利
无效劳动
特赦令
特赦
再予
诽谤案
257
260
罪责
供认不讳
案发后
地向
诚恳
伏法
有目共睹
最高检
结果显示
中原
主客观
盗窃者
基本特征
平和
时说
系因
关键在于
焦
7.2
而据
真伪
二位
亲眼看到
足以认定
南营
门派
所报
过案
货运
17.5
向天
从天
催要
拨通
免提
中问
后均
占为己有
持异议
日间
空头
中齐
从齐
借得
借该
筹措
规劝
逃后
中均
该卡
免息
日为
如数归还
焦头烂额
筋疲力尽
六人
包扎
茶楼
吃完饭
车牌号
M
车体
香槟色
车号
河口
包里
追上
利器
套手
三环
利刃
生给
骗领
款息
日连本
加利
分对
恭喜
而论
下监
短刑
高些
会高些
风采
首要任务
想不到
颇
归纳起来
下功夫
不辞辛劳
偏僻
感动
少杀
慎杀
驳斥
畸轻
检察员
199
哗然
窃笑
分所
和稀泥
保住
走私案件
走私案
本院认为
二十七
指日可待
精准
受贿案
乐观
辩词
商讨
神剑
樊
台下
数百
深表同情
益是
使命
从主
集资款
百融
纪
一个打
其想
微薄
资及
掌控
宝光科
时所作
潘
宝光股
验向
三位
宝光
登记注册
有托
几位
秀
密
代其
面见
前景
并称
转让金
辰
每股
2.6
对宝光
投进去
及百融
讲课
公司股票
排郑
公司简介
来源于
书本
照本宣科
宣传册
投影
金辰
国际金融报
金辰科
卷金辰
宗卷
副总
二部
三部
推介
脱不了
4.3
万股
5.925
受让
44.9
对股
何罪
裁量
从属
员均
听命于
总裁兼
受命
极小
从个
2.3
支付现金
未得
及社
数次
受其
4.9
数均
贯彻实施
团级
因所
横穿
时省
混凝土
因果
沙尘
冰雹
雪
雾
结冰
气象条件
倡导
广东省
牵强
横过
勘查
子虚乌有
人民陪审员
江西
三人行
琦
10.3
配给
平整土地
土地平整
各家
雇请
犯意
平整
各建
各担
不相干
客观性
大幅
稳固
24.6
高公
见市
绘
高公刑
侦字
茶园
甚远
更何况
挖地
宗
鉴材
排他性
绘图
地形
丘陵
平地
长处
茂盛
杂草
板结
沙化
盐渍化
水土
流失
土壤肥力
呈现
根本性
342
用途林
稀缺
五亩
相驳
三宗
相加
第二块
金水
钻子
多以
理睬
根挖
历经
敬请
处有底
各作
慧
颍
本庭
国不
之辩
朱
手球
打后
出气
其向
连未
放学
后门
国与
同租
清怕
说情
公用电话
问候
国回
住宿地
砍刀
这此
未成熟
这起案
庆兴
理之辩
三者
单单
思
带刀
磨刀
买刀
卖刀
干些
国本
刀会
小点
几名
国带
国对
第三点
广为流传
无此
必无此
虑
国拿刀
条之辩
策划者
指挥者
以极
以急
换话
故此
退一步说
国时
该份
供诉
靠着
努力学习
国已
展现
志向
促步
审判权
官来
感化
华昊
参见
且系
正视
反省
行为表现
义气
之勇
尚小
杀伤力
真心
深感
自责
误入歧途
迷途知返
7.8
1450
高法
四百元
x20%
此基础
能力差
吸取
严加管教
宽大处理
综述
因是
有首
深深
刻骨铭心
从轻处理
相结合
慎重考虑
哇
宣读
娇弱
需在
下设
民政部
同香
情用
五笔
另一家
解押
停办
归并
房证
一百个
经济秩序
轻则
重则
三十倍
亲笔签名
带入
证由人
人持
目睹
妈呀
这太
徒
对罪
由分
监区
区长
办公会
狱政
分监区
设分
评审
监狱长
建议书
0.6
高到
46%
看不出来
^
甲基
XXX
本提
眼科
被迫辞职
陪伴
未依
二百四十五
第第
275
背定
判实刑
老帐
宣叛
别问
捞饭
看伤
三至
浠
时属
盼
没头没尾
刚性
不确定性
持续时间
罪致
枪判
内使
自由行动
罪则
图财
划清
超时限
报捕
未先
客观因素
错拘
错捕
关着
收容审查
禁令
改用
大道
逮浦
贞操
羞耻
夺去
入浴
私路
地役权
矿坑
走马
集会
结社
游行
示威
一百零六
表演
016
##.
统
015
社会保障部
另据
提供线索
过失杀人
打砸抢
以身试法
肆意
社会风尚
温床
招引
赌头
嗜
赌棍
消遣
返岗
不太懂
不妨
交缴
#-
增收
151
251
加名
名难
引来
一例
四分之一
逝者
cu
up
kh
依法查处
偷笑
退有
消灾
RMB
罪未
收归
电击
屛
邰
聚一聚
交情
境界
知己
朋
双月
阴
物以类聚
战友
互相帮助
互相支持
老友
邻友
棋友
木有
从头再来
扭到
拍个
片子
抢险救灾
原在
因公负伤
军人证
天季
62.5
季月
20.83
日二
计薪
天注
剔除
这么回事
群内
找人代
入群
聊聊
补扣
冲抵
补差
POS
边刷边
q
充入
这题
再判
立马
没头没脑
提个
丢三落四
可由人
作答
社会性
反过来
安眠药
想离
离不了
纯洁性
带离
is
or
挣过
审候
能超
刑中
行较
其锁
捆
从人
越贵
千一
加提成
条及
使者
实施者
赦免
额较
法援
县区
元得
先得
钱加
定出
安全事件
移
救济费
小病
你持
从应
严令禁止
文艺工作者
职业培训
职业技能
环保部
有扣
理当
三名
财政部门
劳动保障部
民办非
个体经营
有义
群众组织
一人处
高毒
体力
劳动强度
多一事不如少一事
障其
演艺事业
百四十六
第九十八条
威吓
条以
凭空捏造
大字报
小字报
图画
报刊
无损于
误认为
恐怖主义
万岁
大破
回三
聚
19.6%
低层
看多大
咋个
5.294%
63.53%
来教
会住
算高里
66.67%
黑明单
毛起
办张
过借
同当
四十八
天息
不归路
遇到困难
朋友家
之见
pa
te
al
ei
不明不白
一毛五
害人不浅
先动
补正
暂时中止
ft22
en
2931
html
冀
社字
期工
大肠
断后
截去
先向
行规
百分之十五
擦边球
常去
不子
做劳
劳者
相匹配
管理性
职能部门
行政命令
其是
八修
概能
列同
十至
末造
刑列
所迫
习
101
到此一游
八九级
一指
远侧
指间
对半分
第五十八回
兴
雪恨
割须弃袍
三十九
-#
98.7
97.4
一个亿
有钱人
一瓶
拉菲
没醉
哪来
237
对性
廹
性欲
会到
生殖器
中为
翻盘
看上去
控辨
博弈
诉辨
供认
区间
表达能力
强弱
构罪
找来
仔细阅读
虽因
提意
从合
手头上
万钱
可信度
怀有
千里迢迢
赶赴
催眠
异丙嗪
注射液
十支
针液
圆形
木质
杆
面杖
灰色
吉利
粤型
作案工具
控制点
拽
击打
喊叫
麻醉针
随身带
出逃
汇钱
二三
下外
门外
绑缚
喝茶
下棋
相称
实因
窘困
后及
歪曲
及安
有别于
贪利
四口
幼子
按克来
跟据
不定
索债
占取
绑架人质
巨额财产
摄入
体内
毒副
消化系统
呼吸系统
心血管
免疫系统
急慢性
败血症
心内膜炎
心律失常
血栓性
静脉炎
动脉炎
支气管炎
肺气肿
皮肤病
毒性
爱滋病
剜
剃髓
请君夜
吸
相思
膏
躯体
萎靡
形销骨立
人不象
鬼不象
吸进
粉末
吐出来
祸及
沦落
耗尽
变卖家产
倾家荡产
六亲不认
烟瘾
一来
人似
狼
卖儿
认娘
永无宁日
家破人亡
孪生兄弟
获毒资
越轨
辑毒
药物滥用
痼疾
蔓延
沉重
包袱
作罢
大要案
Pa
ve
见于
长至
九十天
职业女性
院常
孕产妇
申请事项
并愿
请贵
肉包子
我办
赔不起
笔记本电脑
送还
声泪俱下
深切
忏悔
之意
于北
消费水平
房中
文化素质
一技之长
送递
收发
余件
一念之差
心存侥幸
困苦
无助
追悔莫及
上锁
空无一人
孤苦伶仃
自李
终日
担惊受怕
犬
活性
到医
故对
客观现实
市博友
淌
泪水
幡然悔悟
一再表示
踏实
一声
抱歉
起刑
处一至
申查
国家安全部
1.15
2.1
2.2
到此结束
会令
就诉
确以
此即
事实婚
熊掌
恢复期
坻
聪辩
文韬
所要
婚是
早知
买肉
别结
会合
然是
好意思
和平解决
够呛
三金要
爱心
哪方受
别要
点数
买点
能养
主导地位
上作
例示
科学性
条所
方在
积怨
及时处理
以防不测
正确处理
道德教育
错误思想
长远
安定团结
树立
人生观
名存实亡
抚慰
音讯
该公
现实意义
十分复杂
分析方法
分析法
相互了解
起着
消除矛盾
集点
分清是非
明确责任
现状及
三看
透视
发展前途
预测
无望
妥善安置
1989
参考价值
参阅
速算
0.7
遣返回国
该罪
卡脖子
按倒
恫吓
恐惧心理
非暴力
从属关系
用酒
情夫
孤立无援
会道门
邪教组织
客观条件
不顾一切
剧烈
胆颤心惊
哀求
瞻前顾后
地以
通观
精心
好坏
生活作风
抠
猥亵行为
痴呆症
HIV
时不分
二三个
义务性
因向
改过来
捂
脖
行奸
病妇
剧院
人来人往
奸尸
灭口
先拍
无外乎
能看懂
拜拜
应像
必然选择
先持
申明
申请报告
二十四条
可供参考
白纸黑字
华律
浏览
对原
极少
安乐死
断定
其限
以杀
人处
付诸实施
现实性
归属于
严重威胁
阶段性
密不可分
有机
后盾
动作
指用
昏睡
筹码
撕票
显同点
罪以
紧迫性
紧迫感
不切实际
万到
主刑
交不起
少交
该犯
二十周岁
读后
升格
婚型
过床
多不交
下滑
堂
阴茎
零九个
二十几年
枪决
敢收
把关
比不退
审判庭
假释犯
算少
减四此
第三十六回
玄
用计袭
元直
辨别是非
生长发育
排队
排到
修饰词
辖权
所地
时居
非军
对军
文职
驻地
出市
定点医院
机打
全费
转诊
院对
管辖异议
专属
出示证件
校阅
院在
函告
巡回
即人
除法
擅自处理
罚则
延缓
而生
先诉
从属性
1.9%
卧槽
变态
因对
正确认识
千方百计
募集
院设
收函后
函复
院自
孤儿院
未婚者
缉拿
户人
省为
这两项
减员
凡属
本区
举报者
将视
分门别类
向区
应告
较轻达
党政
俩方
个律
估值
只出
中来
监察院
刑在
十四年
高压线
2122
杂谈
池塘
当卢
鱼竿
竖立
穿过
上方
KV
同月
长子
次子
高压
供电
供电局
架设
6.2
距
对岸
离地
电线杆
间距
检察官
大相径庭
千伏
两类
一因
一果
力中
相抵
而轻
斟酌
比重
应比
始合立
负无
同视
纵使
困境
至十
产值
未得房
房方
确能
证后
一庭
敬老爱幼
领悟
非得
组建
农林牧渔业
以一
你方
礼貌
待人
督察
警察法
秉公执法
公道
模范
督查
伤分
险情
孤儿寡母
养都养
接济
只管
很难说
事实根据
成因
或仅
122
赶赴现场
制图
丈量
系列
到席
呈送
放车
要全
回转
可控
张三欠
人不向
第七十六条
专门性
第七十八条
专门知识
冷淡
漠不关心
敷衍
懒于
‍
免疫
消化
内分泌
心脑血管
会乱
采光
权受
团结互助
公平合理
截水
排水
通风
混合
具费
刑处
毫无办法
限售期
总能
卖出去
真挚
放下
穷尽
###-####
##-###
###-
84.4
###.#
-##
8343
知假
允
法无
肢体冲突
讲道理
天经
绝不允许
无限量
限量
每一件
因人
迥异
元计
一面
之令
媒妁之言
撮合
基础薄弱
暴躁
恶言恶语
另居
不归家
自此以后
牛郎织女
互相照顾
苦
无人知晓
委屈
独力
过问
归家
令人
沾花惹草
毫无
因原
从小到大
现月
上万元
你院
医学观察
延至
服从分配
反担保
等值
档案法
六十年
爆炸性
毒害性
腐蚀性
受刑人
激励
现分述
科研
成绩突出
事迹
相通
发自内心
将功补过
千差万别
机遇
泯灭
良知
关键时刻
出人意料
挺身而出
舍生忘死
获知
外有
学有专长
奋不顾身
紧要关头
容纳
行刑
性对
威慑
侧重
消减
威慑力
完全必要
刑种
正比例
不由
打不死
安家
用枪
严防
究其原因
屡屡
使枪
支流
落人
走火
担负
海关
缉私
军工
守护
知网
时作
委托收款
九十九条
九十五条
井处
案发时
目击者
无前科
添附
养老险
已买过
健康险
几档
商业保险公司
停交
自由职业者
寿命
之差
1.4
0.2
年江
外购
能务
遗属
层出不穷
孤独
依偎
身旁
诸多不便
晚年
寂寞
但愿
情意
缠绵
相伴
尽如人意
变种
家境贫寒
丰厚
独居
诱导
小三后
甘心情愿
逼于
世俗
体面地
无意
蒙骗
独身
病态
缠身
神智
欠佳
老年性痴呆
得手
健全
难题
中起
猪
队友
往右
雇工
天是
春节假期
向检
但检
第一百七十条
记录在案
附卷
复学
免矛
狡猾
贪赃
攻守同盟
外商
索贿受贿
九十七
军龄
转业
门及
三险
连继
接收单位
内出
天不等
调整机制
68y
人理
二十个
一千五百元
自谋职业
无业人员
几十元
二十六条
连青
月均
百分之十三
起初
准用性
油污
nn
免冠照
铁打的营盘流水的兵
羁绊
魅力
岁月
沉寂
停隙
先向劳
设劳
鉴委
zh
ao
ba
fr
qrl
严格遵守
区法院
内在联系
求职
被劳
保险条例
伤职
各有不同
刻字
承制
附加税
城建税
0.56%
年且
免交
0.05%
元内
而三人
会面
权从
亲权
派生
出行
狠心
交管局
本上
顺记
拟处
款物
处罚权
提及
社平
承继
借调
由原
按人
社部令
待岗
放长假
时工
之日算
上线
共需
难说
十余年
执结
嘱赠
临终前
.........
埋藏
大院
太少
登记在册
baike
baidu
view
拇趾
一趾
或断
难评
转变成
铁路局
客运段
车组
列车长
乘警
上缴
抵达
终点站
交下
停靠站
列车员
开往
地缘
辽阔
各趟
交并线
实地考察
时分
积极进取
尚可
力会
病员
病理解剖
对区
医科大学
可向区
起算点
民通
条规
起算日
元记
在此之前
承任
驾驶者
城市规划
日收
两大类
另一类
动拆迁
矛盾加剧
制造者
设置障碍
所诉
一百三十八
四十二条
办到
房为
办不到
城市道路
建设项目
所建
好好学习
五院
四系
打基础
心仪
大学毕业
好运
读个
座落
售房
要求者
出房
工本
被法
续行
流拍
误读
满日
各摊
徇私舞弊
缓报
特大事故
想都别想
辞职信
颌骨
残损
性功能
之日止
数刑
三十五年
不庭
开征
费全免
11.5%
发回
对经
初始状态
另组
分属
各共
大家庭
车费
差错
无凭无据
只归夫
上人
新陈代谢
有机体
赖以
谋财
作案人
抢劫杀人
谋财害命
复仇
私仇
情欲
感情纠葛
奸情
恋爱婚姻
性变态
第四种
推卸责任
减轻负担
荒无人烟
第五种
封建迷信
求寿
得道升天
第六种
逞凶
称霸
第七种
行为主体
上须
错综复杂
义愤
失恋
杀人者
代码
卫生防疫
所用
非法定
不用说
入伍
士官
服现役
荣获
二等功
战时
三等功
被评
精神障碍
收集整理
创造条件
分离出来
分配比例
幼儿期
体贴
l998
生息
案发前
国债
非法活动
税点
144
交个
1.8%
电脑系统
计税
递件
比方
中介方
交楼
要首
大城市
填表
税局
审察
不须
无错
一夫一妻制
其实不然
介人
隐蔽
不在此列
打闹
肉体上
申报材料
看清楚
写为
消亡
分室
已达
音信
举不出
罪处
此房
七至
总的说来
00%
心理学
百分百
信任感
一点儿
人太
显得
自卑
繁重
新交法
因送
因因
可笑
通令
在逃犯
本企
推举
由企
其成
专门机构
本行
立案查处
紧缩
软卧
轮船
舱位
星级
扩建
写字楼
度假
消费行为
无贷
加进
剩以
带足
证本
人和加
房无贷
乱砍乱伐
旁证
移居
消防栓
门户
器物
抓握
宽松
1992
费字
249
部计
需向法
扑救
燃料
灭火剂
装备
核
便民服务
会计师
验资
115
决水
烧毁
上加发
递减
适时
应带
记账
定期存款
利息税
城镇人口
至满
孙辈
私人生活
侵扰
私生活
决定权
列出来
理解万岁
入下
服务项目
院外会
诊费
加急
附加费
优质优价
自请
特需
健美
功能性
矫型
增胖
增高
可偿还
保健
及医
正电子
发射
断层扫描
PET
电子束
准分子
激光
治疗仪
眼镜
义齿
义眼
义肢
助听器
性器具
医用
肾脏
瓣膜
骨髓移植
近视眼
矫形术
气功
音乐疗法
磁疗
不育
孕
补牙
牙周病
牙龈炎
牙病
镶
洗牙
镶牙
光固化
牙列
正畸
色斑
签劳
等劳
应自
按仲
决向
组庭人
请客送礼
与争
肃静
文明礼貌
庭内
摄像
劝告
被诉人
庭可
决即
员应
久拖不决
翻悔
有户囗本
两愿
著作权人
揭示
或非
基本准则
尤为重要
结护订
篙
寡蕻
干戈
吮恭经婚
条列
开处
卖田
因田
该村
价且
网聊
个保
汕
派出机构
内保
稳健
归中
就定
前向
保全申请
特此证明
档案局
三寸
原貌
老化
即该
处理权
某方
太细
躁狂
低下
淋病
甲型肝炎
麻风病
组织法
村务公开
财务收支
工作场地
机床
部件
转而
私事
刑庭
应受
对得起
仍要
找卖
车人要
条无
及劳
房加名
带好
三证
预检
地籍图
初始密码
诺成性
指前
患过
强刺激
遗传
起居
绝不能
385
谋利
要经
人则
若此
外皮
带不带
风俗
收去
举例
偿债
办事效率
优质服务
擅自改变
监督制度
处理完毕
篇幅
现是
久远
告进
岂
天下大乱
时隔
一胎
最末
机动车行驶
证等
院给
愿不愿意
做通
判不离
单后
给定
定下
数值
省上
相提并论
极低
录制
窃听器
完此车
车管
费周折
点儿
厚
抬头不见低头见
吃一堑长一智
需出
赖皮
寄送
缺庭
保全费
撕破脸
拉下脸来
人情
庇护
管理机构
事实陈述
查访
依托
缓收
减收
辅助材料
戒酒
直接证明
接收者
无论如何
储存卡
很能
十分困难
写过
密闭
社保费
职工基本
养老保险费
归集
先转
宅会
即公
即应
结婚仪式
取方
公认
关妻
省法
生儿育女
起止日期
文本格式
鉴证
如原
自治
益物权
承包期
病休
品名
质地
驾驶执照
涵义
相对而言
这层
绝缘
偏重于
以非
结晶
形制
造型
千姿百态
历史悠久
灿烂
极其丰富
表演艺术
戏曲
1959
剧种
共约
余种
民间艺术
丰富多彩
剪纸
陇
蔚
礼仪
四季
节庆
信奉
多神
仪
诸神
神祗
传说
艺术表演
民俗
传统工艺
确定性
出发点
幢
多来
多一份
便告
界满
收下
劳部发
309
除劳
请长
按规
低温
原委
下一代
较近
人学
人卷
或三人
写字
仍属
人以
扣回
要离
同地
军官证
参诉
出了门
站岗放哨
策划人
受审
二十元
重新学习
边上
驾龄
依对
折衷
自应
人所为
额为
自应于
稍大
写法
文种
第二行
顶格处
往下
如用
空两格处
空格
前署
经手人
是代
写作
应用文
准确无误
出差错
正上方
字要
空两格
顶格
靠右边
只署
生疏
娃名
独占
网球拍
一副
新闻报道
此类情况
有妻
有夫
这属
牢房
贪图享乐
作祟
木罪
森
证所
国民经济
生态平衡
补种
数十倍
为首
植被
木不听
珍稀
木未
株数
更大些
病历本
庭会
预收
日内交
日内会
辩别
条则
决定性
需盖
路费
等级证书
上牌
会换
牌子
外迁
转籍
诚意
订购
意外事件
办过
婚烟法
心智
发育阶段
向本
一夫一妻
婚姻制度
车籍
行车证
婚未
加锁
标有
来访者
反向
技术手段
拆卸
理不
级法
利诱
多种手段
条作
诀窍
有待
环境保护
服务台
指已
外币
工业
而仅
混入
易接近
虽不以
库存商品
化为
己物
即变
自有
标价
为己
应视
财会人员
某笔
如河
领导者
外商独资
382
股份制
妄图
残疾儿童
登记制
经浙
奍
全家福
两寸
作送养
四十
婚育
怀上
别以为
可有可无
降临到
初育
化验单
适于
减价
113
表决权
欠税款
欠发
定残
调解人
即行
限定性
死于
监察部
脱产
中所
两档
力不大
仍达
即少判
领不
对前
后婚
再者说
劳社
部发
报名表
要式
日内出
延迟时间
问明
绝大多数
敌对
民主制
共和制
阶层
生物
最底层
庶
黎
普通百姓
外延
阶级
大程度
某一地方
人民法庭
脑中
合成
淀粉
前身
蛋白质
酶
分解成
水溶性
联结
沉积
神经细胞
键
狭小
夫和妻
从满
补订
19XX
##################
20XX
各持
嫖客
牵线搭桥
偷悦
应纳税额
畸重
各层次
刑外
双罚
按一罪
偷录
起出
寻医
无法控制
经医
以不离
病患者
就业机会
上及
人道主义
俗所
逍遥法外
该类
完事
不外乎
提法
台风
山洪
雷击
远程
迁户
涵盖
迁入地
立户
换领
光纸
黑白
大头
外省市
交验
毕业分配
如须
同市
互迁
2.16
住房补贴
第二层
妻非
条中作
之日满
社会分工
瞒报
第一点
应适当
准线
千瓦时
仪表
并告
第三阶段
某年某月
某日
价金
据悉
法拍房
尴尬
法律界
竞拍
第一手
留意
租约
拍房
搬离
腾空
法拍
房原
无人居住
拍卖公告
不详
物理
人分
出尔反尔
指人
加减
失灵
内报
厂店
可修理
个人资料
解释法
释
违法违纪
和县
电工
焊接
起重机械
登高
锅炉
水质
压力容器
制冷
爆破作业
瓦斯
尾矿
坝
或国
经国
贸
女满
所差
真品
批发
罹患
理赔金
移至
紧急停车
摆放
签名会
震慑
捍卫
条内
需给
度量
以省
高级法院
以江
若需
新欢
报上
认清
或定
当事方
责任者
吊扣
火灾事故
特出
港澳同胞
回乡证
非银行
登记单
由检
居委
递给
凡经
辨明
夺取
夺走
控制者
窃走
乘其不备
性仅
偷取
抢取
一要
二要
以未到
患病者
预付
以人为本
领车
缺口
如此一来
能动
车因
会派
检查员
退会
主合同
金为
经查明
主席令
不人道
激化
情分
另须
保护主义
车物
停驶
施救
标线
左边
舅车
七十
通情
审查员
专利局
得分
因分案
单一性
根本任务
退不退
没睡
那次
走诉
全薪
发薪
用劳
储蓄
林木
牲畜
家禽
文物
图书资料
教育权
休息权
被选举权
领导职务
建议权
果园
滩涂
牧场
草原
姓关
感性
方张
言有
再定
嫁祸
烈火
焚烧
朝夕相处
政治家
军事家
知名人士
恶贯满盈
难以忍受
处死
不义
即本
波动
激愤
嘱托
近期内
育一孩
育龄夫妇
由街
育龄妇女
持该
妇婴
赞助
兼管
育章
需盖村
盖县
或区计
委章
证五
工资福利
衍生
两厢情愿
某种意义
忘不了
人呐
事呐
猛如虎
行且
读音
本质区别
出卖方
可作
充作
故应
这三项
开采
颠覆
民主专政
政权
初步判断
仲裁庭
条特
劳动和社会保障部
恰好
从原
准迁证
管辖区
向常
边防
兵役
并户
寻回
从定
法定时限
实际意义
而少分
家务劳动
因残
项外
慰抚
一证
那栏
房地产权
两证
鱼死网破
抛掷
物事
如坠物
事主
责住
分不清楚
侧
高客
注物
这幢
最高层
直线
一叠
面值
拾起
围住
随身
窃以为
大利
除底
愚昧无知
搭讪
免灾
驱灾
避害
百货
回电
体健
貌端
服装费
其往
人间蒸发
资金短缺
银根
收紧
周转资金
低息贷款
上钩
优先选择
奖品
屡见不鲜
诈骗者
伪装成
数以百万计
粗心
超低
便会
以先
酬劳
黑客
冒名
诈财
户名
重开
及时性
凭单
归类
会计分录
会计凭证
会计科目
大伴
发挥作用
填列
复式
单式
内容摘要
张数
制单
汇总表
不附
时若
空行
栏
处至
数上
划线
啊啊啊
已作
适家
而公
法研字
七种
项次
增设
亲疏
禁业
谁告
没人用
公安交通
管理信息系统
日财
5.55%
需开
现场会
总的来说
指非
收工
打比方
蓄意
个体经济
粉尘
放射性物质
有害物质
指从
内经
转业军人
退伍军人
革命军人
付出代价
单纯性
线形
优劣
真笨
产由
竞价
施用
日系
决是
承租权
错案
攻击行为
打耳光
性器官
暴力事件
不幸遭遇
之辞
列写
取信于
亲眼所见
既立
立有
立过
服务质量
专业化
延伸
人性化
筹划
合同文书
活体
交通部门
到定
残前
爹
推动
保障法
套印
以地
共编
位数
持证人
钢印
造册
毛笔
钢笔
工整
阿拉伯
数码
交通管制
安全装置
机件
无性
看女
应向劳
354
481
送样
非金融
金融监管
市场准入
情况通报
尽到责任
看顾
极率
别弄
心去
轮
软点
１
３
倒霉
驾方
女有
不乏
拒退
查名
同音
字号
拆开来
人名币
平面设计
3D
园林设计
建筑设计
喷绘
雕刻
灯箱
户外
擎天柱
布及
∩
商用
需设
若不设
需报
没尽到
省高院
不构
只算
接续
证卡
奔波
填个
交新
学界
终了
下经
这婚
日民
调停
支付方
AA
共产
整套
监督机构
高层建筑
伤亡事故
殴斗
成伙结
帮地
搏斗
流氓团伙
几人
几十人
上百人
拿刀动
棒
势力范围
哥们
一伙人
煞气
压倒
而置
利害冲突
物质利益
欲念
在思想上
道德观念
荣辱
颠倒
第三十七回
司马
再荐
名士
三顾草庐
第三十八回
隆中
战长
孙氏
报仇
下三到
需长点
如非
车友们
传输
需持
正反两面
蓝底
红底
保卡
办卡起
大厦
身分证
按未
待人接物
时时
荣誉证书
缴税单
入卷
胜诉人
继受
既得
房改
程序流程
示意图
领表
交件
格外
人文
安静
真爱
谈一谈
坐下
那就诉
取决
向左走
向右走
致害
和定
物件
一有
二有
车马费
告不告
厂纪
厂规
首期
扩充
关键问题
澄清
侵财型
年国
婚俗
赠送
2000.9
重点保护
野生动物
濒危
野生
动植物种
国际贸易
附录
二中
驯养
繁殖
物种
附表
本款
特种车
各罪
固体废物
市场主体
45.6
定级
大部
另一手
三指
5.8
5.9
僵直
不属
党纪
三百万元
防疫
一百五十万元
无硬
都行
学员证
士兵证
退休证
同版
统称
行政法
不能自己
查获
脱逃
YES
该地
序位
参考法
企定
掌握情况
负责管理
余刑
已决犯
受人
删减
_____________________
____________
选着
暂定
每隔
时前
为元
_______________
►
罗列
知会
以日
虽好
制等
不利条件
聘任
试题
九十八
陪送
同股
上不受
自小
偷拿
旧证
换发
原证
机读
十一个月
穿越
污损
符合规范
减速
车未
转车
不系
练
时乱
插队
交织
双闪
该证
炒卖
一文
但尚
上列
第二处
指犯
过罪
这三类
需回
办税
派员
亡及
实打实
手心
上长
转农
因读
技工学校
在城镇
编有
改居
采石场
防治所
应拿着
或劳
一书
学生家长
积极性
看用
实际行动
指借
公家
地黄
部在
信托投资公司
外资
解法
互谅
暂无
敦促
如公
或裁
两审终审
保密性
对抗性
较难
令法
第一百九十一条
省去
不失为
高效
法人资格
经济担保
权法
第七十三
两不相干
后首诊
户藉
病残
一十
托运人
收货人
有把握
1978
款规
持鉴
院规
这指
互助
两险
先花光
外是
当期
计算出来
7.5%
所自
如未
问对
留空
时少
重裁
双反
随对
抄送
告原
或原
架空层
起付线
报得
合稍
交得
多一些
合可
需写
来京
明细单
平均值
第一页
发事
游玩
九元
再则
铜鼓
记着
警号
邀请者
主要职责
节水
停车场
理中
先算
金是
受制于人
金不退
违心
有下
一十五
金都
国道
紧急任务
交叉路口
不戴
缓慢
穿插
实践性
无题
飒飒
东风
细雨
277
工受
工自
工仅
再进
犯要
时供
一列
十到
满足条件
事中
下酒
余个
先离
大可待
十余种
可有
十位
整数
每半年
开户银行
加具
二手楼
城建
指经
受委托人
别请
折叠
别当真
代扣代缴
应由劳
白痴
先扣
前所生
H
准允
偏差
制式
戴眼镜
配带
边框
亮度
第二代
三对
夫以
生育权
安部
候守
其劳
人向劳
如劳
或协
症结
如某
科学知识
书店
类书
买来
找佰
世上
社会关系
受到破坏
上文
改正错误
已为
停保
填好
申报表
混人
入帐
监狱法
并持
高等
性经历
黄色笑话
色情
触摸
亲吻
乳房
阴部
等性
敏感部位
难堪
不单
同性
第五款
人如为
未指定
招待
公正处理
言下之意
加注
确不愿
既不愿
其属
系无
不愿代
下定
幸福快乐
半数以下
第九十五条
妨碍交通
启示
宽灯
婆
岳母
手拉手
共赴
侦查人员
另用
枪支罪
地税局
或开
特种工艺
初高
明及
履历表
凡需
来市
联及
否是
一千八百
募捐
持此
终究
未尝不可
开办
驻店
品相
申办人
拟办
或省
筹建
职称
个人简历
聘书
拟设
平面布置
图及
理法
城区
配有
GSP
核验
自查报告
合格证书
待业证
聘请书
陈列
平面
标明
页码
装订成册
啥事
自人
摘抄
163
长到
作新
时连
现将本
男女之间
壮况
本县
村组
水面
赡
扶
居民家庭
农副业
种植业
养殖业
手工业
生产性
自供
自给
奖券
有奖销售
承包田
耕种
娱乐活动
拥用
饰品
初审
民主评议
校验
榜
领取证
我县
幼儿
伤残人员
自救
话费
择校
入读
观赏性
配戴
手饰
年龄段
公益活动
虚
新购
家用
厂矿
抽查
低保金
银行存折
居室
商榷
资历
行家
亲力亲为
接洽
探走
还价
利润率
相差无几
有好有坏
施工进度
按图
尺寸
返工
用度
功课
木器
厨卫
地砖
吊顶
墙面
考查
提高质量
电气
泵
射钉枪
35%
完工后
一半左右
压到
中期
收口
多改
报价单
偷梁换柱
这两点
粗制滥造
埋下
伏笔
以次充好
保修
递送
收存
税金
急性病
诊疗费
注射费
输氧
检查费
摄片
期问
病床
附和
红细胞
悬液
浓缩
白细胞
洗涤
外院
合且
病案
情伤
极品
认子
亲缘
失散多年
认亲
抱案
致孕案
无名
付法
团聚
见习生
见习
互联网服务
该种
原权源
中护
人民共和国
分卷
实地
处长
缮证
十座
加州
co
ithr
Te
Jo
cy
CPA
统一发票
外业
调查表
分层
平面图
验收单
转报
请示
虚超
认真执行
换押
别名
反差
微小
用该
饿冻
夸张
目的旨在
罪种
排序
天不来
备
续费
琐碎
怕麻烦
亲自参加
不备
用交
役
治区
品等
禁品
表上
盖上
可诉讼
依新
未免
大有
愈演愈烈
之势
极难
指能
他权
未注册
上以
使之能
地域性
使甲
甲未
抢先
上似
可议之处
上该
并无不当
其本
网点
挂失手续
办妥
代理服务
失卡
补新卡
补卡时
申请单
领卡
领新卡
完补
补卡人
判断能力
现行犯
公信力
传统观念
束缚
未雨绸缪
免去
括
金等
假使
中若
普遍认为
永续
二日
刑法典
无法回答
嫉妒
挂带
车钩
违章人
信息管理系统
第六项
通过审查
事实真相
错告
别介意
国办发
公共道德
双全
输家
传统美德
184
人脸识别
预计
非正规
越短
外貌
口音
故经
机能
廉颇老矣
饭否
可心
迫
鲜见
打击面
公平交易
J8
淡
登上
时先
亲戚关系
极强
生化
病理学
解剖学
诊断学
伦理学
管理学
深厚
功底
扎实
全科
规范化
临床经验
复合型
想见
实验室
个体差异
更具
储备
找出
变数
口若悬河
夸夸其谈
迎合
急切
幌子
苦口良药
忠言逆耳利于行
瘸
全胜
讨个
抱怨
现实存在
谈论
恰恰相反
比较关心
问及
欧美国家
影视作品
唇枪舌剑
你来我往
不可开交
何等
故事情节
跌宕起伏
千里
并不知道
破灭
听从
听众
操心
不知所云
期望值
问到
努力争取
黑暗
活下去
生活道路
继续下去
周期长
前要
意气用事
说实话
清清楚楚
满口答应
气势
非凡
气氛
可谓
一再强调
持平
招呼
往外
不提
泥沼
深渊
奇怪
搞臭
吃了亏
解恨
形容
很难说服
立上案
不靠
罢了
摆正
夹杂着
熟
皮条客
不耻
大可不必
大谈
渴望
小动作
到加
居留证
吃喝嫖赌
聘期
免开尊口
看入
胺
第六十
经适
中偏
无房户
历来
屋外
优惠待遇
交付使用
幼年
等价交换
错误行为
奸污
分家析产
幼时
疼爱
砝码
姻亲
人财两空
一代人
青春期
其四
某套
记满
营区
遵从
下扣
纵观
框架
略显
操作性
微妙
靠得住
bb
报失
未找到
前来
大所
看剖分
二仟元
入口处
父姓
母姓
改姓更名
序列
驶离
听候处理
弃车
或弃
需到
一百八十七条
自行处理
宠物犬
狗后
逃离现场
碾轧
未拴系
牵引
条没人
流浪狗
逐条
搞好
河北省
上海市公安局
山东省公安厅
四川省
教坏
😂
宽展
张三
签李
全称
代号
币种
看不清楚
有利有弊
顺理成章
弊
还本
还息
加印
手摸
所判
档案馆
查考
期限表
面向
中低收入
保障性
保障体系
承租者
支持性
广泛性
次部
常务会议
违法活动
闲置
侦听
二百五十
计算机网络
寄递
行踪
技术设备
游戏类
现成
餐饭
出动
当请
出人命
舆论
落网
受骗者
切底
纵向
调控
经营收入
社会交往
专家库
假释期间
本类
被央
___________________________________
甄别
音信全无
谈起
试是
认同度
投行
高等专科
技术职称
报名条件
试合
以前年度
试因
凡中
恪守
学科
门类
大学专科
大学本科
以上学历
学位
综合测试
试设
免试
副教授
副研究员
专长
试互免
试时
企业财务
CP
CF
EW
兰及
评聘
难买
1571
百六
应写
全名
起止
今有
元整
语句
同名同姓
麻烦事
八将
那毒
文华
律小编
第十五次
分组
恰逢
国际禁毒日
会场
常委会
热烈
恶性事故
显现
反应时间
21%
中枢神经
幻觉
亢奋
削弱
埋
隐患
万多名
推测
223.3
万名
隐性
余人次
2.4
呼声
高涨
客运车辆
断开
逐年
欠补
慢速
车距
先过
行仁
关系不大
管级
干警
随信
寄发
伯父母
姨
惧怕
方而
荡然无存
社会心理学
驱使
其受
元素
前置程序
纠缠不清
住房面积
套数
再免
买入
三套
与判
林鼓
试着
必竟
婴
施诈
分阶段
产前
每多生
更轻
预先判断
已然
于未然
之虞
暗娼
违者
不管怎样
快件
原建
增殖
证到
县合
管办
住院手续
住院费用
合管
讨价还价
四百六十七
六十八条
立安
立案监督
地籍
料
一宗
对该
计委
产投
该宗地
惩处
1512
2647
提速
全国人大
禁用
呦
竞争力
配租
招租
男满
户满
行政区域
抹杀
谈及
最强
一国
集合体
集合
至多
算人
一员
国居
曾用名
位升
成份
生地
凡居
同户
前未产
讼诉
大厂
看断
大堂
铁饭碗
国企改革
灌输
忙碌
候选
武装警察
民用
证编号
局替
抵缴
由住
不缴
少缴
专户
经住
明细帐
日内持
不流
应随
如母方
品行不端
乱搞
两性关系
严肃查处
人一人
内所受
登记簿
备件
具结书
档册
费后
报社
见报
勘丈
入册
审查核准
吊销其
送市
稽核
高级职称
初级职称
组织部门
调令
官网
官方网站
击
页面
点开
计划表
到区
分中心
自助
发送至
桌面
按钮
及时发现
该交
托关系
看好
小惩大诫
内欠
却赖
拒不履
备忘录
可上
sh
court
gov
太大太大
制作方法
公开性
秘方
宽泛
新颖性
创造性
多向法
没生
前先
白底
张到
发的证
接处警
群体性
情调
派警
业务主管
克制
心理医生
以市
自治县
属地化
军籍
代带
即刻
洞
既得利益者
倒霉蛋
日满
宫梦弼
改编自
原著
篇章
再落
准入条件
迁进
闭庭
加成
便饭
目光
众号
分许
席间
开来
起亚
喝了酒
致常
经晋
检出
乙醇
229mg
院经
判后
明理
官说
牙子
情味
原位
正逢
新春佳节
欢聚一堂
弦
绷紧
别当
竞驾
采取有效
再批
公证结婚
愿承
身证
人作
离境
应附
家车
椐
寄往
装档
人体器官
吴论
恶性案件
上立
滋味
人穷
mo
hi
100.00
外销
证过
还免
合称
交换意见
化解矛盾
诉论
消防车
救险
由持
更高准
自动挡
原准
时不受
就经
噪声污染
环保部门
来管
低点
或市
定律
累进
2.51
1.52
可观
免掉
数百元
大大的
懂事
一所
是现
细侯
青青
河边
草
失早
年少
白发
不向
贵人
愧
浮
落得
加纳
二套
制证
车型
大中型
客货车
后部
经县
外市
财政拨款
C1
不记
扣满
十二分
担保责任
将主
有物
补充性
求偿
对主
较弱
别来
招惹
妥
负故
或二孩
户政科
生婴儿
还会收
需用
管教所
236
###.
灾
情由
县财
张榜公布
救助款
或个
全县
管理权限
优亲
厚友
失盗
---------
-------------
------------------------
--------------------------------
----------------
-----------
---------------
--------
急刹
急转
操控
熟练
车太近
反位
勤勉
开立
育后
专管员
见页
中国银行
活期
借记卡
独
此证且
此证
白搭
师及
要车
因车
可拨打
插入
显示器
先进
硬件
键盘输入
选取
责成
提留
不同之处
移转
诺成
故系
互负
临时性
让渡
改良
看退
送梓州
正规渠道
弄个
高仿
仿
含港
派驻
城镇职工
名表
适格
劳务输出
成帮
瞿
现年
后于
元作
55.46
考入
汇至
银行帐号
先经
应时
互谅互让
叁份
越输
孽
锤
国土资源
国土
人可到
卡面
制卡后
办案人
片及
借阅
鉴定者
无弊
各异
局告
拾取
自动售货机
金属片
售货机
元为
信义
体物
2l0
补录
国务院办公厅
全国人民代表大会常务委员会
外检
见原
成新十
省外
执勤点
问询
该市
手开
辩称
下手
身体虚弱
信守
具体位置
号楼
单元房
层
阁楼
储藏室
计价
佰拾
万仟佰
拾元
时由该
宽带网
内交
第种
如本
实测
多退少补
传真号码
自甲
签于
静候
利而
人若
利则
从债
利人
虽时
新户
户籍警
单页
房即
一新
恰巧
销掉
再合到
随婚
以户
立为
共立
第五届
日起施
一般说来
用不着
十七岁
与时俱进
烟草
富有
美感
外表
六面体
视图
else
inta
论断
保障制度
下岗人员
定补款
下岗职工
男历
对居
报区
由区
其负
推之
单周
双周
母有
老有所养
一金即
指由劳
后劳
决前
你加
或称
税收政策
个人所得税法
收入额
应纳
好章
进城
戒所开
参加考试
时新
高风险
不补均
看护人
入保
政策措施
相配套
撤柜
觉得很有
积聚
准确性
宏观决策
死因
填报
四份
四联
当年度
续缴
续保
立足点
男童
羞耻心
多指
均认
异姓
很明
不悔改
确有其事
提高效率
市计
即准
儿出
即出
时开
早产
或计
围产
福利费
因计
埋术
绝
结付
到计
重新分配
下家
县外
后文
证会
用到
两步
所在区
写婚
婚迁
处会
因刑
般人
究
八千元
衣
时装
会员中心
主文
付息
缓缴
因购买
小型汽车
低速
载货
鞋带
看钱
实心
建筑节能
部和农
人像
二代证
取像
过渡性
指数化
月数
运管所
邻里关系
水利
涉法
涉诉
遗留问题
自力救济
公力
吃闲饭
强留
迁不去
吃香
很严
新址
二十三年
不能取消
哪条
该收
从大至
小为国
认真贯彻
各项任务
避孕
优育
殖
观
每户
育龄
避孕药
环查
外环
术前
随访
慰问
优待证
育证
流动人口
依时
前以
毕生
或能
购买价
值为
大洋
保管人
加以分析
中仅
或主责
下仅致
查缉
欠妥
畏罪
体检标准
廉洁
性及
三百八十四
二百五十万
履职
关键作用
案件线索
第九章
亿余元
控股集团
物资供应
副总经理
医鉴
重到
全残
失能
影像学
生理功能
日鉴
临床医学
固
和司
对鉴
老牌
亡者
四分之三
提名
粮油
被褥
零用钱
随车携带
光明
.#%+
备注栏
原同
理时须
需补
期外
研招
改派
近几年
感遇
孤鸿
海上
牢记
终端机
持有者
挂号处
双卡
营业厅
银行信用
取好
罪状
窃得
更应
仅扣
还甫
弗颠煌
郯
奠铜订
扩
并线
前车明
很近
突袭
警示牌
多车
第一辆
完就行
分着
天向
四十条
办非
务院
常驻
外事
未成年工
剩余价值
听之任之
良心
为七至
别牛
洗手不干
比较慢
证应
毕业证书
活不了
太烈害
告状
做饭吃
退审
审过
不保
滥用权力
欺凌
压抑
受欢迎
注意力
性意识
违抗
乃至
顺从
社会习俗
指想
一半一半
聘任制
人事关系
可大可小
毁
理论依据
弊病
148
借款方
个例
捐钱
专设
医师法
急危
紧急措施
大增
阻
先卖
套型
从金
马甲
含意
指夫
同胞兄弟
姊妹
此言差矣
当成
强加于
持证
介绍所
里会
专管
股行
子以
特权
各政党
故宣
按此
有排
确知
亲爱
以因
病种
妇科
外科医生
放射源
神经科
针灸科
针灸
理疗科
理疗
骨科医生
划上
均担
加处
可加处
贴条
摄录
物在
质量标准
防盗窗
结个
鸡儿
中过
车况
上谈
车行
如原车
无大
随车
购到
路票
车船
使用税
年票
认真仔细
模糊不清
透
优胜
会高
陪人
另加
可经
分散
小街
荒郊
自由往来
拦挡
此多
激起
蛮不讲理
指强
制造事端
泄愤
戓
公诉书
打印文件
首位
状子
如写
写时
如系
何地
先写
后写
分述
边写
夹叙夹议
另起
致送
右下方
明代
律为
有理有据
通讯联系
可向劳
有劳
无资格
为重
征询
一成不变
前瞻性
归结点
起诉权
权而
审级
是续
院所
独任制
陪审员
审是
般为
决和
5.10
障碍者
145.10
无照
合在一起
来办
管理处
已上
准入
户持
阻挠
5.1
创口
20.0
50.0
cm2
24.0
颅底
脑挫
裂
外伤性
脑膜
脑梗死
排便
排尿功能
8.0
10.0
帽状腱
脑神经
神经功能
因人而异
贵些
何必
好了吗
送医
狮子
买下来
却成
即均
指检
142
中止犯罪
报刊杂志
赈灾
颁布实施
扣证
更重
驾作
比非
要重
第在
审明
口水仗
供词
补好
肉刑
逼取
刑讯
对本罪
吊打
如冻
逼供
诱供
指供
符合事实
生男
生女
均会
势必会
有求于
389
原国
国营企业
请婚
料理
丧事
对非
休婚
479
遇有国
以上者
年者
以天
δ
仅限
庭将
符合标准
不含
指节
挛缩
侧方
ou
em
庭后
重置费用
货物运输
停运
替代性
不究
指由
指依
股息
红利
邮费
孽息
确未
替补
加以解决
说服教育
订有仲
后先
不敢恭维
几句话
扬眉吐气
档案袋
淡忘
论罪
别无他法
如到
细细
使暴
全然
交易方式
内下
其风
或生
没以
充分条件
驾标
体重
全盘考虑
峰值
半衰期
饮用
套入
ml
162.8
衰减
81.42
六小时
40.71
20.36
10.2
且生
105
4.17
4.67
特区
要花费
千把
石膏
工时费
主动性
硬盘
木马
关乎
后主
调转
109
视乎
⑺
⑻
国家一级
即处
简洁明了
模棱两可
附带条件
用名
撕过
裁剪
下部
撕去
废纸
低报
153
传上来
花大钱
离校
到校
个贷
管理系统
交售
委贷
及委贷
上账
后次
持经
量罚
迫害
太坏
小明
人可代
权源
虽依
惩罚性
明人
摒弃
绝对值
设计变更
型式
朝向
道路设施
查勘
核损
重来
选定
不认账
要立
抵定
单证
九于
拟三挡
三档
以离
项至
项中
送至医
虽经
伤重
救护
或医
随房
营罪
易法
平等互利
缔约方
互惠
最惠
免领
紧俏
雪茄烟
烟丝
烤烟
卷烟纸
滤嘴
烟用
丝束
外汇
工艺品
珠宝
药材
家为
而作
无之则
不法分子
甚或
应运而生
泛滥
营者
烟草专卖局
准运证
烟草行业
家主
保险业
划出
电信业
原意
不商
由主
拉紧
手制动
关闭电源
灯
位灯
标志牌
路肩
翻脸不认人
标划
确保安全
麻醉药品
载运
病源
体等
项所列
纵然
高枕无忧
补制
力较
还期
条码
跟社
处三至
外来人员
携同
署
工场
劳改
代表权
理论意义
体说
奠定
表见
条表见
新创
清算组
理事
执行机构
决策机构
源于
人合性
中小企业
资合性
苛求
盘剥
揭开
面纱
一百五十二
股东权益
严苛
征管法
其不缴
内会出
选民
民事裁定
售货
时多收
概括性
更为严重
社会风气
精神文明
指多人
窝点
串联
组合成
咖啡厅
歌舞厅
物色
伪装
参谋
因而是
数种
招集
收留
老鸨
窝主
牟取暴利
招揽生意
推销产品
兜揽
玩弄
腐朽
糜烂
为公
间经
所定
书中
中需
首批
千分之一
再加
剃须刀
衣物
复员费
原夫
创作
稿酬
奖牌
体育赛事
体育竞赛
优异成绩
受益者
纷繁复杂
自愿地
参预
保持一致
处理事务
贫富差距
不尽人意
3.25
拒贷
成再
终批
维度
收入水平
多付
商贷长
资往
打钱
联名卡
二选
池
充裕
获批
续上
上调
钻空子
暂定为
每人每天
包干
从司
等司
受继
但系
传送
谨防
缩水
两书
杂物间
附属物
经建
五家
谈定
对交楼
入住率
查核
设计方案
及付
研读
已拟
应多加
二老
有句
一般见识
说句
祝你们
卡是
统一规划
面向社会
集成电路
IC
凭卡
特殊人群
卡后
或处
只处
天再罚
碍
离退休金
和划
离休金
倾向性
［
］
245
够罪
求同存异
锁定
没对
正犯
五星红旗
国旗法
玷污
公检
骚拢
绕道
择
抬高自己
谋求
本名
提肛
憋死
憋
小三是
｡
◕
‿
算不了
数方
信守诺言
而劳
法和劳
奖惩
管理者
被管理者
中则
任免
工资制度
自行安排
物质条件
当其
贯穿
按劳分配
规律性
商品价格
即时清结
批次
规律
内才
相互配合
礼品
不多见
反目
如出一辙
默示
步入
暗含
能人
当有
市值
楼龄
楼价
附图
限行
人伦
情于
说不过去
明确要求
贵族学校
上策
乐器
音量
事是
葬费
第六次
窝赃
五辆
每一项
艺术品
古董
名贵
花卉
需满
不成比例
广告费
末满
这波
很度娘
努力完成
各管
贷过
险会
每小
追溯到
分界线
评残后
可悲
同情心
早过
坊间
91.95
11.49
17.24
再长
厌恶
累加
谈何容易
性极强
驱逐出境
小人
性状
检材
非生物
权衡利弊
后合
下文
随让
心目
大姑娘
名符其实
不近人情
黑势力
除恶
打际
或区
指中
内均
及第
最易
利息收入
摸底
提货单
性是
434
那点
比钱告
已关
没审
官家
十五次
折合
天理何在
年天
处置权
收益权
满期
原样
民事或
相恋
就判
交规
官兵
暂予
犯罚
最刑
序
若该
继承者
定性处理
而驶
偏听偏信
４
不看
哪果
请持
快速路
快车道
专用道
变线
如该
扒头
高速行驶
双证
判前
先验
综观
院及
中小学
师资格
另行规定
有县
二岁
审人
人不愿
要处
马后炮
长期性
交通局
伤罪
处刑
其准
新盖
交尾
大证
办小证
现房
他项权证
注记
有此
解付
幕后
如达
环境噪声
居民区
分贝
居民小区
时至
住宅楼
噪声控制
科研单位
扬声器
音响器材
卫生条件
防护用品
防暑降温
气温
℃
温度
湖北省
劳鉴委
更久
每升
第二类
建成
先想
近亲
主人翁
劳动竞赛
劳动模范
义务劳动
逐步提高
第一类
中违
粤
已不愿
勉强
根本利益
其违
须得军
但军
⑧
落实政策
⑨
办下
####-
-#-
调离
文凭
警衔
XJ
胸徽
臂章
一碗水
端平
失踪者
接报
迅速开展
向公
少年儿童
胭
百个
无往不利
经受
收悉
内写
水分
高价
平价
此价
有利可图
为数不少
交易者
强且
颇为
前及
水压
给购
产有
公用事业
屋共
屋在
二则
三则
抬高
应担
圆整
重名
人不写
纸上
反面
上端
捺
不成问题
正当性
一百二十七
留党察看
控制性
迫在眉睫
除受
市政工程
配购
如黄
两岸
世博
低价位
比较而言
摇号
若以
凡有
除犯
坍塌
无可厚非
翻盖
无从谈起
宝贵财富
土地法
归村
可自建
判由
过多地
旧城
侦查监督
197
应待
完好
如初
男妇
民族乡
宣传教育
会进
作案嫌疑
操作失误
持久性
再度
激发
收归国有
交叉感染
因其尚
护人
或少分
物归
很受
化性
公路桥
隧道
分罚
私用
包车
微型
急弯
窄
窄桥
冰雪
泥泞
陡坡
遇雾
能见度
傍
下坡
易发
指仅
要物
尚须
诺诚
一诺
即成
第三类
犯本
各有利弊
年龄阶段
搞错
再同
沮丧
安抚
饱受
那本
先补
减交
难以为继
管理站
上级领导
反腐倡廉
实名制
第一套
成数
六步
面签
房地局
单量
交易量
排号
长于
第六步
银策
交存
或盖
商业登记
规为
繁荣经济
规的
MSN
BBS
请会
IP地址
分析判断
www.12
党的路线
方针政策
接电
接访
开展调查
罪加一等
4.1
贫乏
严加
摆在
重要职责
农树
居于
自留
展于
对土
全面规划
严格管理
开垦
开发利用
后备
撂荒
作物
沿海
沿湖
围垦
粮
棉
油
水土保持
低产
蔬菜
农业科研
教学实验
改作
紧急通知
排灌
土壤
水土流失
荒废
节约使用
荒
劣
家土
少批
他用
筑路
采石
采矿
采土
采河
倾倒
公项
指凡
经乡
独资
罪论
用会
地证
地者
地权
地来
相辅相成
中介代理
地理位置
批件
分宗
分宗须
到局
院未作
或判
村居
通讯地址
特为
请予
标局
授衔
防害
轻处
按前
人拒
法远
居民收入
二十倍
含劳
会规
罪当
联带
围堵
定做
条定
价来
看劳
援用
视作
除要
多式
多样
涌现
这样一来
二来
归入
既途
如断
如使
失常
可同
卡债
处要
现代人
看得
一心一意
七八十岁
一堆
儿孙
绝对化
下后
下前
日且
执法不严
通病
宣场
丑化
权当
玩笑
你种
其及
村规民约
不加区分
无形中
整体利益
平衡点
自治权
议定
镇办
退养
分获
始于
灭于
岗位补贴
口头语
仍会
是销
微机
消的
降职
收听
播映
沟通交流
三位一体
理不出
头绪
公说公有理
婆说婆有理
制订
挺难
地多
有始
居房
村内
空闲地
3.6
所举
正如
擅自决定
中常
生发
需时
时所负
归夫
猖
较常
已不以
相互依存
久债
〖
〗
质检
点为
劳人局
于理
226
变价
量化
可为
自益权
共益权
新股
决策权
而设
益性
物质基础
资本性
既该
半数
合作社
专项资金
划入
营业所
储蓄所
以扣
搪塞
监察机关
生活必需
紧密相联
拒不向
索款
物而
遗弃物
商标局
显著性
禁注
如仅
时仅
商标设计
稿
排列
检索
®
TM
予以注册
形同虚设
两卖
已售
ak
现售
按套
中附
目
大宗
挨边
物管
可供
服务水平
核名
设立登记
户一
财务会计
大大减少
高科技
创新型
资金不足
缴足
大大提高

未非
小类
推论
执行力
七小类
令即
起动
830
肌
影不
同席
会少
期租
船长
海上运输
地随
趁人之危
原发
当赔
遗骨
象征意义
垂直
庭院经济
多样化
基本功能
寝居
食寝
净污
一明
两暗
进深
储藏
北向
卧
堂屋
空气
自然通风
禽畜
适应性
空间组织
灵活性
可分
可合
拆改
层高
宜在
3.0
层层
高可
庭院
院落
凉台
棚架
蔬果
畜禽
须人畜
栅圈
风向
出入口
农机具
储藏间
主房
依本节
语无伦次
单体
略高于
收购方
先以
信电
形迹可疑
捕获
所知
暗中
成本增加
财代罚
不应得
他方为
卅
扣分标准
向院
人外
以放代
议属
企业化
议案
市属
不分彼此
收得
制在
结为
受此
非依
信息内容
微博上
要入
九新
起征点
薪金
数如
137
其余部分
保险金额
权及
宽度
净空
4.0
转弯半径
架空
障碍物
5m
坡度
本外币
添上
亮时
亮起
停车线
若后
开动
向前行驶
兼有
惠及
心甘情愿
跟你走
互联网安全
加密
算力
资金投入
矿场
万台
矿机
维护费
频频
爆发
看中
匿名性
不义之财
采出
矿产品
保护性
矿种
矿产资源
矿区
矿山企业
四十三
共生
伴生
地质矿产
矿管局
字词
外商投资
房储
假像
自决
劝导
静态
地则
剪接
紧密
连贯性
杂音
媒质
放出
放音
录放音
唱片
单声道
立体声
传声器
拾音
放大
放大器
重放
双声
听音
双声道
着落
老残
以万为
储蓄卡
还款法
不等息
先息
后本
值得一提
故原
原购
变费
贴现
各项规定
立项
项目名称
花园
使用率
附在
负荷
水暖
质量保证
整体而言
即仅
嫁祸于人
寻讯
非故意
条件者
风湿性
冠状动脉
粥样
硬化性
心肌病
心包炎
肺源性
多发性
多源
性期
收缩
心房
纤颤
二度
房室
供血
合并症
高血压病
Ⅲ
空洞
咯血
疗程
不愈者
支气管
感染者
性疾病
渗出性
胸膜炎
脓胸
血气胸
弥漫性
间质
纤维化
肝硬变
门静脉
心源性
血吸虫
肾小球
肾盂肾炎
肾结核
肾小
动脉硬化
器质
语言障碍
脑栓塞
脑炎
续集
脑膜炎
周围神经
运动神经元
神经炎
肾病
胶原
系统性
皮肌炎
结节性
内分泌腺
脑垂体
肢端
尿崩
柯兴氏
醛固酮
嗜铬细胞
亢进
机能减退
甲状旁腺
白血病
障碍性
继发性
囊虫
肺吸虫
分枝
睾
吸虫病
丝虫病
血吸虫病
遗有
消化器官
肾上腺
骨盆
经治后
骨关节
尿路感染
语言不清
双下肢
腕关节
强直
畸型
提物
持重
指掌
处离断
全失
指肩
膝
髋
奇形
丧失者
肌体
后遗
良
腺瘤
纵膈
推移
胃痿
尿痿
双目失明
两眼
一米
内耳
下颌
病经
咀嚼
石棉
肺病
放射线
工农业
毒物
艾滋病毒
阳性者
主责及
同责
复合性
责无旁贷
应因
保障系统
bbb
条来
条应
归其
京价
419
2.531
1.542
855
468
#####.
荣军
复检
退役军人
抽检
皮肉
孰料
之徒
银子
仍受
询证
令有
方便快捷
局限性
一试
影剧院
巡视
通过考核
老大难
四点
亲眼
产生分歧
简洁
语义
分不清
白伤
单项
款额
普通群众
X24%
此债
以过
走仲
带来不利
于劳
重罚
积极争取
声望
名望
泼人
以墨
涂人
剪头发
有辱
刻薄
嘲笑
当众出丑
书刊
续存
筹款
亲朋
而判
投机
信服
十名
以拒
276
名劳
失学
得劳
查档案
簿
计划外
人常
周年
或户
个人承包
国劳
公安分局
科会
一联
工长
胸卡
印有
寄出
车方
专线
私设
转接
电信业务
港澳台
资费
外汇交易
万美元
外贸代理
骗购
期刊
盒
私搭乱
计量
装置
窃电
电力设施
状况良好
生活节奏
这段
该员
制衣厂
故欧
br
赊销
法复
需方
收货
无款
可付
供方
司法部门
以用
未为
启
以劳
条劳
第十七章
其先
在协
书依
改制
讼争
先保
盗接
通信线路
码号
传话
有骨裂
年利律
贷方
时所处
切入点
那未
三投
凡未
中等专业
地公
返籍
转学
肄业
委组
我市
摘自
写起
状向
详情请
教练员
表示歉意
运管局
子夜
慰藉
是民
已离
依存
休后
该离
中而为
缺度
马拉松式
拉锯战
幸福生活
回答者
写真
绰号
以仲
非经劳
刑来
罪数
刑均
犯一罪
起意
侵财类
孤立
检察工作
社会学
成功实践
保障人权
落到实处
裁法
发明
专利技术
交底
全套
严谨性
损书
灭
以其为
如上所述
人欲
严加防范
方称
以骗
多此一举
工按
吃紧
工即
申诉书
工被
食品卫生
掺入
掺有
掺人
食用
成品
营养价值
不良反应
兑制
酱油
石灰
掺进
牛奶
有害物
防腐剂
食源性
符合卫生
掺
疾患
会泽
假酒
购进
甲醇
散装白酒
此酒
需原
驰名
广为
某类
经销
该商
促销
宣传媒体
广告投放
产量
销售量
利税
其商
向商
中如
备齐
发布公告
财税
政法
培训中心
相互交织
难以解决
发卡人
215
同种
会自
将协
有争
中含
被动局面
乙要
即分
即使如此
港湾
事庭
但本
不列
以个
到军
未上市
独资企业
国个
负个
为个
小老婆
髙
彷
提共
木目片
报检
共十
已送
下级
十七个
十九个
未决犯
国卫疾
控发
收拘
八点半
撤职
国家工商
９
８
０
中共
难以获得
物尽其用
假案
那关
手雷
火箭
左上角
小兵
几刀
捡起
找准
这关
一滴
血未伤
修改器
bug
立体交叉
车辆通行
撤并
说得过去
施划
泊位
改建
公共建筑
商业街
居住区
配建
增建
相对性
人仅
看乐视
白条
文体
方负
程总包
未报
报建
诊
列支
所患
流行病学
公共事务
最狠
层级
计酬
返利
而分
只负
必要措施
发展商
全数
后患
骑行
＂
收楼
质量检验
商品住宅
横行霸道
小组长
但村
自我管理
自我教育
虚位
以村
可不是
故特向
望准
下均
无论谁
内判
由村
入实
来噶哈来
多大点
分一至
已收
预收费
途经
给行
这道
凡因
经现
原冠
夫姓
称氏
僧
尼由
法名
俗名
强行进入
一贯性
我行
每百
年全
31.3
万起
飙车
证及
考务
逐人
台账
签注
逃脱责任
间谍罪
轰击
一百零五
倾斜
共同体
有所改善
三四次
条公
举人
压制
唯
互相间
个人主义
没带证
队取
周围环境
同无
呆傻
农历
坦白罪行
原始性
暴
班上
人世
当属
明显增加
格式文件
详实
技术转让
特许
薄利多销
项下
生产能力
鲜明
多角度
充实
简练
论点
决算
中订
条为
二百零六
人自
拍卖价
金中
算入
接连
既省
省力
简化
市场机制
金融资产
国有银行
不良贷款
206
发生额
如甲以
商品经济
优越性
省时
融通
日益频繁
经济交往
人须
第几代
第八节
生存者
守节
若干年
巩固
辩护权
申斥
盾
四大行
数字签名
交易所
证券类
从重从快
一交够
后放车
供地
国土资源部
打包
想当然
司法制度
百利
预防性
发往
繁荣
无限公司
中外文
据点
辨清
有广
未决
划人
别有用心
破门而入
安放
各有胜负
难是
束之高阁
组织名义
中所受
委办
土管
签字笔
初诊
复员军人
意见栏
所填
有土
双面
须加盖
址
不分户
加签
品所含
他种
按假
未经检验
朔
储户
办公用品
人品问题
吊销执照
地级
务作
不齿
务是
所赋
兄姐
特定条件
此列
领受
大妻
亦告
年老体弱
或多病
如前所述
置身于
务均
如老
计较
操持家务
言明
养其
相力
加害于
刺伤
转嫁
本由
街口
山沟
野兽
出没
人迹罕至
荒野
判犯
之会
还来
开单子
有责
车全
不管是谁
审视
母乳
哺养
作好
出份
由居
初级
领馆
定居者
如无在
可持经
返悔
中漏
称谓
未超
人开
只持
尘肺病
重新安排
按新
存根联
低劣
照管
冷落
力不能及
一页
上除
有省
保本
数码照片
收齐
交表
可集
领卡后
占有权
而原
对分
标准价
超强度
易燃
活大
指自
保看
盲
哑人
各劳
本会
2551
5102
必经阶段
发不发
强击
基佬
好孩子
不生
居住用地
因大
所内
属婚
附交
所间
并法
过低
有余
阴道内
奸入
弹药罪
看准
碍于情面
顾着
情份
他记
触动
装作
恍然大悟
两清
认帐
单时
下发文件
人手一册
传达
因履
锁链
环环相扣
循序渐进
分明
时间性
概指
一律平等
名级
表法
主席团
闭会
该级
人人平等
民意
敢于
保护权
法即
家计
户为
每一
恩格尔系数
摄取量
1.87
0.604
393
540
办不成
一亏
长一智
你告
揍
丫
这话
开玩笑
欺软怕硬
找得
回单
中定作
这即
物为
新办
另办
原地
体要
需多人
评残时
项为
指得
伙同他人
指两人
行业标准
附带性
超羁押
意指
批推
呈报
须报
自报
394
项及
应退
利息支出
七类
税案
稽查
底稿
调查过程
戡验
家则
改底
单走
本栏
必由
劳仲委
室及
各派
请吃
以权谋私
受礼
吃请
决等
查查
不到之处
人入
未于
血源
传承
脱离关系
天涯海角
毌
工间
晋级
调解员
章后
第九十七回
讨魏
上表
诈献书
老幼
不单是
不光
难以达到
规费
年租金
空房
1.12%
0.75%
0.37%
勘测
竖向
标高
完损
砌墙
外调
依法逮捕
以共
再领
贷款风险
已备
期过
未修改
执行权
互利
使法
制下
虽由
概要
招录
条非
用书
日起算
第一百八十四条
状连
书连
中双当
暂测
增写
认准
产再
可道
必不可缺
戏言
不相适应
届止
有太大
挨得
证据法
调卷
十一届
拟调
全月应
数实
四金
起征
种族
家庭出身
居住期限
查点
开列
邮电
检交
应即
邮电部门
网络服务
无人认领
高检
若错
改不改
不实之处
复杂化
喜悦
另备
愚见
补来
缴款单
知情者
回报率
诱惑力
见效快
以高
大张旗鼓
大规模
新闻媒体
造舆论
履
有应
应由法
票证
应向
实有
房屋内
腾出
增加一倍
计付
刑点
政协会议
提案
部下
营养品
规的规
应认
才合
已确
由司
三大类
章子
可后
因在
台同
全省
参数
涉讼
竭尽
构本罪
单列
错误处理
院中
失业者
促其
储蓄存款
变买
法学界
涉猎
连带关系
各找
各妈
罪不受
残障
人和性
生活必需品
重于
进口药
关入
国家主权
专政
中西
调查报告
保卫
可由医
按应
刑可
闭
载者
深化
近来
争抢
投下
缓和
含本
国家计划
预案
企业亏损
审计报告
无形资产
情况表
其上
无担保
事人
可贷
征集
尽职
因央
例证
摆事实
聚神
会神
不中
气晕
向下
有条理
顺着
私人关系
+##
+#
313
人损
离不开
深思熟虑
拟就
先补证
涉赌
参赌者
恶习不改
l0
l00
为常业
解协
日中
495
记过处分
记过
应缴
应税
累进税
扣个
4955
问提
涨跌
无国籍
1980
虚弱
加多少
上加名
共同利益
担保物
举个
欠丙
欠丁
丁均
号令
劝离
可自
十户
有林地
疏
灌木林
苗圃
安依全
属下
险类
难以避免
分配程序
看严
极有
留足
所支
为断
中写
煤炭行业
基础知识
预兆
排除故障
互救
基本知识
监督权
抵制
指挥权
如北
几块钱
稳后
好首
诊病
日志
溪居
一百六十五
交通信号
出质
存款单
仓单
账款
照打
不误
监管部门
送温暖
思想汇报
禁止令
法无据
如取
弄懂
所写
﹑
部第
现予
办非企
本行政区域
价格指数
家协会
地区性
报劳
资在
资或
资等
德高望重
先放放
或动
指法
赌具
修定
矿藏
水流
山岭
海域
摊派
鉴察
指不经
专业训练
具有专长
计量单位
漏项
时问
每种
好恶
道德修养
一推了之
圆满解决
打探
容易接受
猜疑
无处不在
退检
框
发动机
太阳膜
热衷于
透光率
镜面
反光
装贴
喷涂
强光
氙气灯
灯不亮
改装
私装
氙气
大灯
一万年
讲求
元且
1230
首犯
调不决
条专
以保
除本
指一
已合
但外
并经
维也纳
外交部
外交官
衔者
辩认
陪侍
庆祝
戚友
包二奶
性为
断续
按该
中除
挖苦
经期
感情生活
互相关心
一未
三其
沦为
重新估价
残值
残次
变质
主席
权为
权有
完全性
超级市场
痛楚
痛觉
眉毛
体毛
趾甲
剃除
秀发
漂亮
修饰
外科手术
四百八十
再分
刑权
国际公约
较高级
控审
表达意见
过滤
187
一干元
省略
人赃俱获
起获
对起
外包装
物等
起赃
筛查
广泛应用
技侦
特情
手机信号
生产工艺
遗留物
口中
缝中
衣袋
血迹
皮屑
方位图
犯罪现场
骨骼
排泄物
胃存物
呕吐物
烟头
法医学
相吻合
理化
生物性
微量
痕检
足迹
压痕
痕
弹痕
齿痕
文检等
尸源
血型
危险品
相机
上衣
衬衣
裤子
斧头
铁管
砖块
绳索
血衣
鞋
帽
纽扣
项链
鞋袜
骨龄
数份
更多人
补贴费
驻该
产及
式样
监制
饮食习惯
室外
另附
纠葛
填具
背面
洗澡时
换洗
间断性
侨胞
有如
提起过
公愤
对确
格为
会为
原仲
十会
胸签
会餐
说走就走
现就北
亡
所能
全市
一人者
强者
妻管严
对簿公堂
亲密关系
全身心
生育期
上火
上心
老人家
国徽
数人
大庭广众
填充
有售
一目了然
十分明确
字里行间
持据
褪色
黑墨水
蓝黑墨水
水笔
若用
圆
墨水
受潮
水浸
制剂
借物
还物
小数点
计拾
捌
已见
骤然
巨变
大意
张三借
天壤之别
涂抹
瞬间
睦
谐
预防为主
相结
美德
等社
等服
家庭教育
给予帮助
令由人
内作
公某
赵人
亲爸
签有
争行
强行通过
逮捕权
分工负责
互相配合
互相制约
动力装置
驱动
乘用
轮式
畜力
空车
外形尺寸
数不等
⑼
⑽
投注
伤痕
带血
如刀
木棒
暴该
不止一次
承认错误
心软
家务事
象征性
抵押房
含使
卖低
无线电台
由社
社部发
重核
建档
建卡
二妹
三弟
房屋结构
硬伤
空气质量
顶层
漏雨
隔音
墙皮
起向
且北
市是
研讨会
宽限期
强制手段
掳为
截然不同
首看
人间
政策性
下套
苦于
眼睁睁
付之东流
难解
一一列举
看得见
实实在在
之策
突显
清白
争议性
圆场
打交道
公有住房
直管
自管
传统意义
其分
权义
乃系
而系
权之
力而
近似于
货币化
原所住
拥有者
有生之年
一回
Ψ
一性
或妻
后加
催办
督办
普能
否定性
和竞业
驾驶人员
正确看待
多种不同
片面强调
轻富
重贫
深层次
具体性
谓
指上
民商
应仅
补救性
酌情处理
奖金税
经营户
为据
承担者
负担过重
设一至
汽
硬座
三等
船
床位
候诊
营养食品
失时
残之日
为界
费因
平均寿命
运尸
骨灰盒
骨灰
大办
每加
一百九十六
第一百九十七条
国库券
如甲
打听
乙所为
债自
自此时起
优惠期
需由法
荒沟
荒丘
荒滩
以乡
航空器
侵宅入
阻挡
时拒
案未
为济
vx
罪如
硬上
弓
延缴
退休干部
检查报告
涌
购机
外盒
手机店
刷机
师为
中由夫
上处
栽定
并具
犯数
对数
即先
估堆
并科
以数
严格控制
过严
符合实际
与司
令中
第三十
寿
准备金
炊具
餐具
未公开
辅助工具
表彰
以中
令其
故不应
赌搏
妇方
⒈
归属权
指令性
异义
酒店式
公寓式
存量房
成套
正当权益
遥弘远于
不乱
准上
先容
错别字
标点符号
段落
闪人
近现代
美英
扩展
对於
承提
购入
进一步提高
增值额
下跌
高昂
回落
流动性
不像
发展趋势
外型
风格
风灾
预警
产业政策
经济繁荣
市场预测
性侵
表象
凭法
凭此
由民
义务教育法
因材施教
责骂
教学计划
教学设备
教学活动
师生
成效
贷学金
学金权
学业
贫困家庭
学业成绩
学位证书
认真负责
申诉权
失当
持有异议
一切权利
定假
保障部门
长张
育假
窗口期
缺陷率
各个单位
硬要
于全
发布会
网民
至亲
看会
准离
⑩
⑾
⑿
⒀
⒁
法网
人和外
等代
之方
情如
委之于
权宜
定后
エ
资是
员前
由女
______________________
_______________________
________________
________.
__________________________
津贴费
次责
手伤
率低
补付
疑
呈批
边界
该物
地内
无主物
漂流
失散
依无因
日尔曼
寺院
拾得
采罗
对拾
对立统一
酬
即拾
获酬
965
984
专条
971
拾得物
此数
付酬
有悖于
两人到
动局
内部人员
商帐
成本上升
冤家
姿态
百分之二点
百分之二
百分之一点
不担
赔个
大修理
计提
管理费用
或入
互易
国际货物
勘
包合
送选
专递
送速
邮政
投递员
收发室
迭
辩状
笔景
遥一
借此
湃
宜告判
挟
驳回上诉
适削
若下
冉审
允分
裘达
枉
后据
以作
对案
同上
家伙
即除
型医
伤疾
普通型
伤疾所
平稳
出诊
燃料费
过路费
软座
卧铺
活护
搜寻
方件
应进
后进
障卡
精疲力竭
几近
崩溃
遥遥无期
或香
决不能
草率行事
必定
始告
这三
郊县
赞皇
前所作
内应
存卷
尔后
即发
无新
毫无关系
可言
成其为
552
基石
对以
那样的话
病区
有无必要
撞入
光电效应
制成
记录下来
录像机
成像
逼真
背影
音响
再现
应证
指证
除低
典刑
依案
现金流量
流动比率
速动
有价
记名
票面
强立
普序
外交
四样
双边
四十六
认出
一并处理
般不以
大补
几千几万
行当
未缴
一告
拉剧式
若干份
几份
一体
成会
明证
老百信会
歧意
抄录
应盖
应应
繁体字
分比应
下条
欠者
借者
收者
有法
发货单
贵司
方与
货到付款
但须
各地风俗
家境
缉捕
在押犯
有定
损员
拿车
厂修
开到
厂会
让定
损员来
损单
碰头
现场办公
捣乱
l6
理事长
经双
耗力
若要
新春
处割
上均
xxxxx
头等大事
胜过
讲过
四大
喜事
缓解
15%
工人员
还建
及交
权威部门
工程预算
直接参与
就绪
或任
但常
若无大
审完
单反
传统习俗
有度
各段
过往
过往行人
尽快恢复
期数
大房证
进账单
性虐待
掴
拗扭
刀械
枪枝
字眼
声调
吼叫
尖酸
讽刺
大骂
逼问
忌妒
影片
拒用
保险套
受者
行政处罚法
一帮人
破鞋
精神恍惚
一帮
钉子户
不堪入耳
未足
模版
院为
另要
再持
尽量减少
享用
欠物
如定
翻箱倒柜
他罪
应择
科刑
倘若
后仅
犯择
徇私
医并
之子
时持
无卡
一夫多妻
一妻多夫
始得
纳妾
向建
省区
钢结构
计取
施工现场
构配件
或分
绝对权
检定
算出
最小值
缴额
购建
使用性能
安返
部定
损员以
定得
托修单
完车
盖交
每套
550
框架结构
16.8
砌体
15.6
注册费
每集
罕见
减值
发起人
逾
相同之处
空壳
为的是
销声匿迹
之处
绩优
有方
对绩
劣者
优者
清官难断
概然性
十之八九
待证
内持
一大堆
一腿
击毙
前前后后
做案
最多会
判个
代耕
价格政策
藕
竹园
滩地
苇
非耕地
邻近
移迁
第三十六
酒精中毒
原已
指债
同一性
寄宿
非学历
先减
对除
部属
有隶居
官兵一致
在校生
勤工助学
并限
分新
无事
六分
末款
法范畴
其陷
赎
亲临
武场
较量
魂魄
暗助
如虎添翼
云打
落马
恳求
传旨
云死于
枪下
上皮细胞
呈堂
证供
检举人
法院院长
已超
政法委员会
书状
图示
所收
金后
遗传疾病
先天
人口素质
长足
遗传基因
染色体
致病
繁衍
过近
通婚
家庭幸福
伦理道德
古今中外
何处
车架号
座椅
手排
自排
裸
车价
包牌价
如交车
保养
里程计
交车
销售方
如买
进口车
多级
购车人
五到
附注
诊继
重姻
如医
走婚
归咎于
可乘之机
有效途径
廉租
限价
市城
口及
上款
承载力
核定表
正反面
印在
四险
结息
对账
帐簿
缴款
重残
劳模
省部级
禁驾者
馈赠
巧顾
同乡
由来已久
送与
意见分歧
目的物
既不受
认其为
颁行
无章可循
未办
视其为
补授
地不作
人可依
条即
人未作
拥护
高等院校
考试成绩
应试
法官法
检察官法
职业资格
分数线
语言文字
律师资格
共担
报住
被监管人
248
247
254
伪劣商品
第七节
第十章
侦查权
价函
应请法
及法
奉行
分理处
以入
国家税务总局
让诉
有及
非上市
导刊
贴花
定率
计费法
标准分
率为
第二档
二点五
1001
点五
零点
5001
8001
解除管制
依所
培偿
报上去
孤寡
孤
敬老
特殊教育
济金
助是
会查
泛指
与性
作与性
露体
窥淫
词较
肛交
口交
非礼
理论界
广了
爱护公物
老弱病残
叛乱
暴乱
BMA
每学期
ATM
转是
例文
恰如
其份
纯属
X9
X14
X6
不归本
正确理解
即受
反贪局
第二手
传闻
陈述者
其实质
控辩
所见
推理
以二至
千株
万株
时所生
其尚
因病请假
以定
锁具
东南
排量
越野车
载重量
L
1.9
2.0
2.9
以宝来
1.8
手动
款为例
价为
最低价
≈
折旧率
约降
940
市旧
拓号
拆牌
拓号费
贴于
记录表
停到
取号
机取
980
过少
钱少
越快越好
自认倒霉
祝你成功
116
预付定金
乃
独创性
优良
覆盖面
服务收入
成正比
熟知
品在
年产量
市场占有率
排名
及外
识
误认
收互
不伤和气
太长
坐失
令是
令以
托运单
五分
安葬
后事
数计
如大
物价补贴
早熟
身材
谎报年龄
怕丢面子
说成
与方
推定出来
明知故犯
非法传销
织者
下线
滚动
由全
信以为真
强索
着重于
应征税
净额
额及
率表
中不需
问讯
房权
他税
拭子
一组
计算结果
因饮
饮
价格上涨
建立联系
人员素质
常有
伤得
最佳答案
个体劳动
货源
半真半假
之名行
营业部
灵活运用
要轻
多列
少列
承重墙
墙壁
或套
凡以
终都
之际
迫切需要
非权
独占权
弹性力
债是
即债
债因
权两
工商业
发明权
科技成果
相关联
根究
该养
辞世
共性
干元
较轻时
重时
二看
四看
五看
六看
物及
罚没款
共益
转业费
回乡
后无房
可据情
析出
分寸
均经
､
对口
找麻烦
嗜酒
极刑
险是
跨县
公通字
一方平安
综合性
主力军
充分发挥
人熟
地熟
依法打击
侦办
五类
杀人案
抢劫案
爆炸案
修律
裨
君主专制
1902
沈家本
芳为
大臣
1092
大清
1910
律例
删改
凌迟
枭首
戮
尸
刺字
酷刑
民律
病志
病志及
不太好
这五种
由轻到
或重
遇有
标准单位
玩玩
偏头痛
RAP
语速
梦想
四面楚歌
鳞
以父之名
漂移
半岛
铁盒
忍者
止战
殇
嘻
咬音
很准
节奏感
结构紧凑
地盘
动感地带
代言
曲
夜曲
清新
洋货
编曲
Trap
Ga
Di
说唱
City
Un
Ur
北漂
节奏
犀利
词曲创作
歌迷
Sp
Nu
Cyber
Bi
裂哥
定制
Th
一首
蓝调
歌曲
苏醒
凄
妻要
堵截
集中体现
正当权利
兵书
有云
胜败乃兵家常事
明明
当仲
委因
评析
委对
委经
决时
广义地说
手握
易爆
翻译成
会于
制售
接照
包修
包换
包退
货不对
稿费
一半分
起算到
科学试验
及宗地
界址
登记卡
地归户
组装
双发
相关性
不胜任
辨识
吃瓜
费为
透明度
可秀
言多必失
错误信息
企业信用
ICP
公布出来
履历
辨
收益率
假标
公安系统
匹配
供电所
上下游
流向
透明
能不离
范了
指名
专家学者
委是
其仲
某仲
娘舅
而法
时法
情义
园区
普遍现象
回新
路途遥远
速裁庭
只为
侦查局
为考
律考
院和人
基础设施
诱发犯罪
学术界
小金库
时侯
来出
各份
律有
笔误
as
############
ty
双向交通
叛国
如房
抽不出
来领
邮递
该省
逐级
翻修
积金
磁卡
财务科
有经
有代
控告权
项则
各值
1982
第五次
第七届
第八届全国人民代表大会
第九届
第十届
136
回时
经济特区
价值尺度
世权
独特
适应能力
命名
美术
现代科学
画像
个性特征
功绩
8098
那暂
停止下来
映证
不规矩
开拆
电信卡
公共信息
证亦要
冇
共谋
随声附和
赞同者
接受任务
热练
只起
未起
按所起
深浅
浅
应轻
亦然
从甲
两段
折算法
以浙
省为例
原地不动
掳
离原
人索
相挟
一重
验伤单
需尽到
切牙
呈交
他项
顶罪
时系
家财万贯
房叔
传言
张父
故和张
代名
该处
貂蝉
一应
价格合理
交易价格
为用
特例
户以
及办
向工
办照
训练场
指广
其健
价值量
变通处理
背对背
局认
收讫
时间表
有鉴
一鉴
再鉴
烂醉
警卫
原属
签约人
官渡之战
更省
免缴
严峻
妇产科
单亲家庭
需从
弃儿
招干
因怕
本行业
并全
两字
暂欠
清欠
要署
欠方
需署
减为
医治无效
年老多病
愤
女犯
近半年
保存期
做足
更判
从法
亚当
夏
越难
费而
行程
出发地
停留时间
游览
商品交换
方骗
体现者
可使
方对
故由
信得过
原共
范例
超过预算
低廉
层层加码
低开
超标
猫腻
少算
漏报
电位
浮出
可控因素
室内装饰
板材
苯
氨
漏掉
半包
夹板
胶粘剂
防水材料
污染物
通不过
墙砖
木地板
发霉
信誉度
猛
一幕
标出
可先用
粉笔
画出
石块
散落
受询
成本低
税则
满五
税为
建面
错误观念
前算起
满二满
时所要
大家伙
团结起来
需为
房屋信息
摘要
长年累月
金前
金给
别称
互守
专一
或性
锁住
摧毁
难以想象
因不忠
算起
据理
工可
3438
六是
提示性
订得
拟出
申述
之用
辅佐
交相
条所列
地国
缔约国
以河
预作
人中
本题
无多大
自可
无偿性
固定性
其内
显著特点
欠付
负为
一人时
匈牙利
某件
留质权
如日
嚒
无微不至
切合
不正
尽职尽责
切入
OK
甄
嬛
传胧
触诊
心肺
心电图
乳腺
HPV
性传播
查血
验尿
男科
遗精
上下文
只石
定购
之房
按实
填上
推敲
质保书
平等性
方并
判明
及公
有伤风化
从总体上
无可比拟
不稳定性
可变性
失真
时算起
日出
强烈要求
仅受
不为过
超高
反射
系对
截然
两事
严密
拘泥于
含糊不清
以责
负到
广西壮族自治区
其高
理好
情理之中
寒冷
没听说过
有溯
因性
紊乱
第十九回
邳城
曹操
鏖兵
白门楼
吕布
殒命
寄钱
姻
若离
已达成
到民
对离
之作
事不关己
视而不见
听而不闻
漠然
少有
割裂
执法水平
紧缺
小时候
库中
市井无赖
摔物
理亏
减速时
车前
假象
讹诈
备受
好事者
根源
多印
来龙去脉
追不回
各半
未准
未说明
不辞而别
优厚
逐项
商请
后交
组长
暗示
投票
政协
可派
前言
历次
狡辩
网络警察
非国
密级
失泄密
谋取私利
掌管
只限
国防建设
武装力量
外事活动
政党
以何
不如说
个数
酸楚
大度
可靠性
当其能
反动
标语
其五
应继
即同
颀序
頋
评残前
全力
丝毫
感官
少为
畏惧
地越
越少
越加
胆大妄为
平凡
愚昧
顶礼膜拜
智者
嗤之以鼻
各抒己见
当光
普照
停息
发抖
蓬勃
不可动摇
赞美
仁慈
伟大
腐化
贝
越小
不感兴趣
司法官员
有空
习惯于
利益者
崇尚
圣人
十大
惊天动地
壮举
殊荣
获得者
倾尽
生灵
献出
英勇
就义
诸如此类
见诸
报端
长存
屏幕
钦佩
谁又能
持久
结缘
伟人
耀眼
光环
柴米油盐
发愁
深思
担忧
分身乏术
奉献
心有余而力不足
力所能及
普遍性
沦丧
反观
不免
怪现象
善事
好心
图谋不轨
呆呆地
舍己
本应
异化
非主流
远古时代
异端邪说
悲剧
论题
教育史
无一例外
条框
学子
酷似
乌龟
壳
甩不掉
甩掉
之期
少之又少
有种
凄凉
难怪
地大物博
瞠目结舌
竟以
乞求
执法者
不知者
侥幸心理
课目
稚嫩
物理现象
摹本
正起
正本清源
捷径
引向
无可辩驳
捉摸不定
读懂
营运证
家财险
帐册
风险投资
留神
不犯
公历
本属
如欠
海关监管
九八
改办
表及
及留
兑
工艺技术
中去
同本诉
税是
总局
税收管理
国税发
报市
凡死于
政办
分管领导
转乡
天过
白领
丰裕
心计
不得而知
绝口不提
诡秘
不露声色
门牌号
查该
空关
落空
密切注意
不菲
百万元
获益
移花接木
套取
高明
即知
笨拙
殆尽
金蝉脱壳
高超
突破口
收获
摸查
柳暗花明
以逸待劳
记在
精明
矢口否认
泪流
收纳
借助于
另存
所剩
寥寥无几
六家
取会
口头上
案外
资金流
一万多块
最多花
还余有
剩有
十万多
二千块
论据
一大笔钱
吃光
喝光
股市
二大
证券公司
抛售
股市信息
细述
调虎离山
交火
一室
留守
大件
电器
预感
查钱
受约人
索偿
法制宣传
蓝印
公积
慌不择路
小便宜
听信
搞乱
当出
强加
愿件
同一时间
当是
这为
市场行情
时非
盼归
纷纷
上演
部和国
告别仪式
遗容
运尸费
冷藏
灵车
墓碑
墓穴
棺材
送葬
宴席
祖父
外祖父
祖母
外祖母
自该
其处
一百八十九
重量级
后发
活有
盲等
假造
下所立
四款
非此即彼
艾滋
完全相同
有同
有异
但异
相似之处
劫持者
被劫持
减免税
出件
当自伤
枪击
棒打
水烫
毒蛇
狼犬
残缺
体育运动
项日
应作
足球比赛
合理冲撞
推拉
撕扯
味觉
打致
指使人
表等
获奖
元因
专家论证
办案费
十六种
从路
驶
横道
桥梁
开关
轮不到
公有制
百年之后
村农民
由乡
草原法
渔业法
小城镇
草地
患较
驱赶
充分运用
回赠
按何
没多领
最多算
费事
费钱
白干
解毒剂
清凉
饮料
未列
发明奖
星火
自然科学
进步奖
合理化
大奖
讲课费
他劳
火星
拉取
有失公允
应由新
其入
职满
必输
五十六条
柄
双刃剑
第十一次
征求意见
审议稿
十六次
颁证
疏通
做错事
合情合理
以无房
重疾是
打个比方
看起来
来报
需加
发给您
打字机
因未到
中即
亦视
经公
才准
乡镇政府
1550
赃
元应
下月发
即然会
时数
卫生设施
扩建工程
提出批评
机构名称
购再
更下
时上
正后方
妇幼
战争状态
道德素质
悔罪自新
第二十三
第二十四
二者之间
33%
短期贷款
.##%
长期贷款
6.15%
6.4
6.55%
依原
惯窃
从广
违宪
严格来说
紧中
借难
人无信
不立
后除
令查
车牌号码
裁决权
从后
择优
须合
或数
僧魂
长清僧
中间价
看符
徽罪
撕光
绿帽
强拉
游街示众
吞食
泼洒
污秽
接吻
外宾
期刊杂志
期刊管理
停刊
停业整顿
单位地址
勤去
分界点
耗损
一为
同质
货币量
二为
精神异常
赖一
写人
地去
民营
推拿
刮痧
中医
律师助理
动向
无可替代
发现异常
成天
那难
最难
管好
流于形式
公事
不单单是
公式化
客套
大有裨益
禁忌
漫无目的
警官
仔细分析
无益
流于
兴奋
把守
又哭又闹
败漏
检察室
单枪匹马
外流
心怀叵测
防不胜防
倒打一耙
慎之又慎
传递
警戒线
雷区
人不知
除非己莫为
306
张网
以待
不可不
费尽心机
还作
之功
瞎忙活
其六
迎刃而解
作案时间
踩点
以贩养
远期
其七
捕捉
投信
极力
多刀
毒树之果
其八
发问者
紧张感
默契
作不实
十八世纪
限缩
得不偿失
赠送给
交割
链来
年度计划
证活
证工
内设
文电
会务
机要
安保
等工
人事科
直属单位
各乡镇
所工
律工
解教
服务者
专项经费
证员
督行
各司
培植
来信
来访
圆方会
调田
自治法
弃耕
长期化
固化
抛荒
弃种
短期行为
弃田后
本轮
其与现
全组
现有人口
先调
土地类型
供求关系
关和
团组织
协管
联防
关中
在代
个愿
姨问
他许
病魔
小小
抗战
老天
催人泪下
番话
病痛
事争
系公
深入研究
按捺
内同
上署
二百五
八类
退休费
填平
音速
钱房
两空
付款单
人至
打动
心怀
之情
铁窗
每每
不已
深知
害人害己
痛定思痛
洗心革面
造福
古语
树欲静而风不止
子欲养
而亲
不待
旷
或线
在线提交
下定决心
浙江省
字头
动车组
一等
去除
唉
涨点
啵
自书指
孤证
结论性
废弃物
哄抬物价
囤积居奇
经营额
意态
因果律
因系
命令性
时满
内自伤
经分
区带
对患
派员参加
列席
具保
主治医师
基础性
符号
因无因
劳动成果
文学
车有
体彩
不信任感
聚集
等行
允诺
编造谎言
大肆
登载
标牌
变改
婚车
雨天
泥水
溅
如婚车
处贴
百年好合
个性化
字母
积雪
陆生
裁令
裁如
班组
一两件
弄不好
伪劣
货值
如逾此
全人类
专利法
其本质
专利制度
从近
延展
欧共体
关贸总协定
圭
回合
敦
尔
1984
专利产品
调处
计算机程序
符号化
计算机硬件
智力活动
数学方法
著作权法
法等
数学
独享
二百三十五
过失伤害
各赔
互赔
即本车
方报
无损
由三责险
本车
拆东墙补西墙
中行
即骗
重会
时尚
和诉
制中
后任
然不
198
纵火
法所称
构思
自然力
工艺
测试方法
化学物质
不太高
器件
小发明
向设
地劳
旧法
时其
抢劫犯罪
义务兵
兵役制
归原
应专
中多
炫耀
不甘示弱
备有
那法
醉卧
沙场
君莫笑
古来
征战
以四
我省
前次
υ
χ
σ
赢家
担是
发案
时间跨度
追诉权
判得
体液
卫生巾
精斑
混合物
床单
被套
枕巾
枕套
纸巾
衣扣
棍棒
水杯
针管
针剂
酒瓶
酒杯
春药
麻醉剂
铁证
知助侠
重分
私下里
教学改革
科学研究
学术交流
学术团体
学术活动
寒暑假
教职工
那一刻
内请
俗语
医学界
一体化
于业
而医
类同
青霉素
条医
自信
可追溯
配图
奖罚
工程造价
内蒙古自治区
施工人员
使用寿命
地基基础
合作开发
建筑安装
续建
担风险
财务监督
对国
承建方
工程进度
是国
行政监督
当审
取费
材料价格
验收报告
发函
抛开
转包合同
院应
建工
非以
招标人
中标人
让利
358
往常
更为重要
地级市
丙方
致残率
模糊性
多样性
求证
应然
性上
仓优
激情犯罪
催生
登报声明
先有
向现
第七步
并开
第八步
何物
对误
二十四个
xs
lc
请书
关键字
框内
车内
款中
减损
工作文件
la
me
在短期内
答题
帐溥
可爱
智者千虑
必有一失
讲要
识辨
不帮报
第十四
社会转型
联动机制
施压
各界人士
法再
业执
签字仪式
邮政储蓄
兴业
上海浦东
恒丰
渤海
业银
查控
和工
复盖
部等
内查
纲要
闹市
大屏幕
楼门口
制度化
以公
立足
乘火车
星级宾馆
假公济私
批评权
囊括
松开
走散
哭诉
遮起
一串
连忙
紧紧
搂
怀中
照此办理
分法
内去
单日
性伙伴
除共
可动
体性
不使
物主
而取
和江
辈
制衡
罪此
外国籍
非指
按次
一知
⒉
⒊
⒋
⒌
一签
起满
如履薄冰
需经原
抵押金
如拒
代交
附法条
祝您
心想事成
八十七
罪来
热度
社标
母均
遵重
祖国
保卫祖国
侵略
神圣职责
光荣义务
苦读
凤仙
栖身
山洞
清苦
借镜
督其
用功
状元
一举成名
迎娶
过门
新居
迎来
贺往
一番
幸得
井井有条
上任
毫不
张扬
悄然而去
特定物
人不应
人所要
乃是
二手房屋
地方税务局
持新
到国
优惠价
主检法
倒腾
剪裁
合乎逻辑
特质
几段
摘记
复述
母带
拷贝
制式化
英雄
越狱
压扣
改由
从价
从租
余值
租赁费
原原本本
避实就虚
避重就轻
塞责
说离
相差太大
你现
惯用
虚设
骗出
倾销
逃之夭夭
大肆挥霍
现代化
教育部门
中单
人身事故
向致
另签
同案
文号
三十四
状后
三十八
轻罪重判
用非
生产经营者
食品安全
贮存
定期检查
召回
无害化
兽药
重金属
毒素
油脂
酸败
霉变
生虫
不洁
添加剂
小票
此照
比例表
潜伏期
占有物
一于
质物
资料齐全
或盟
大使馆
由建
印钞厂
专业银行
存贷款
隔夜
人行
4.35%
4.75%
4.90%
逢雪宿
如错
过敏性
切错
放射治疗
受超
照射
不限
英镑
万英镑
百万英镑
须交
厘印税
秘书
英文名
于情
二至
羁期
指拒
图样
图片尺寸
电子版
LOGO
商品名称
应占非
方月
求学
心虚
报财
国税函
1036
不征
电警棍
是持
器法
离身
涉危
动功
罪错
并移
火车站
零时
数项
贴息贷款
限时
元间
供该
睿
信官
起名
附送
并履
只须
其作
即须
滥有
陈贯
朱虹
外宣
相互连接
紧接
相连接
案其
期指
晚次
应案
似是而非
词句
行政村
核属
精神实质
指明方向
指导作用
文件精神
收益分配
人命关天
称述
择期
审即
最高处
不给力
校外活动
校舍
教学设施
内所
走读
寄宿制
园内
补习
其尽到
言传身教
潜移默化
保护意识
思想品德
地老天荒
及人
公权
会小些
总量
折款
善后处理
残存
无所不在
无时
完全避免
保险制度
毫无例外
或拟
对广
隋况
抽象性
很坏
以亲
但立
为父
至今已有
只生
女是
常情
风情
单指
面太窄
身之控
伦
思念
甚于
或限
从立
隐含
几代
单传
寄托
幼
园
万债
归父
归母
指医
会鉴
对首
技
或复
议决
丧失理智
切身
已扣
漏税
酿成
祸乱
激化矛盾
打压
抬升
续约
2014.05
显着性
为长
贴着
商标代理
人物肖像
物质量
一动不动
生产经营性
礼会
礼而
礼确
所赠
二十条
79.0
头次
说交
作到
上慰
巫术
医术
烧香
念经
看手相
愚弄
医学知识
多辆
侵袭
迫不得已
涤除
利法
利权
更不急
定纷
止争
划扣
古话
人一死
不放过
白忙
模凌
规并
高费
需凭
属镇
大丰市
使债
憎恨
可调
结和好
企业债券
法锁
对债
辈数
收劳
提至
全属
后乱
$
顾及
脸面
作怪
溺杀
产地
超值
词汇
宗教
产自该
误导性
可视性
标地额
恶害
通告
便用
手势
默许
知情不举
恐慌
驱鬼
面用
讨还
世代
旁系
血系
沿未
遗传性
重型
非讼
严格要求
成家立业
伯姑
经常出现
某甲
见状
领回去
决非
超负荷
暖
交替
家门
所渭
粗暴
刑九
赋于
少且
另因
房龄
购且
通过率
贷前
示人
证书及
到期日
庇护所
随犯
赔给
整容手术
对能
画面
对醉驾
税及
对裁
内终
骑缝章
后退
需一式
复印纸
邮编
寒食
年餐
饭钱
带些
日用品
由受
刮花
划痕
中拟
词条
附条
伺
先对
注册证
尼斯
第九版
一品
商广科
二十二个
除须
先租
城里人
乡下
这座
依附
及定
成到
劵
罪大恶极
拍出
出掉
太去
乱判
赢回来
事在人为
可贵
王道
极少数
雇主家
三薪
更不受
虚岁
关属
同源
而出
己身
异父
异母兄弟
姑与
甥女
堂兄弟
表兄弟
子孙后代
传染给
只用
尽过
集体所有制
有受
虽系
羊期
畏难
万分之一
七五
扣划
第要
处期
院权
仍具
良态
尽量少
被劫走
批不批
若到
电信技术
圆满
之虞时
完满
占有者
第七款
刑案
低保户
不容许
设想
安定
使本应
高家
民用航空
重的判
收不付
要式合同
寄至
外围
视界
0.08%
视野
迟钝
一两秒
60km
一秒钟
16.67
触觉
油门
方向盘
对光
心理变态
过高估计
力不从心
人易
肝留迷
困倦
打磕睡
招致
碍于面子
学问
死板
工商所
几十天
畏罪潜逃
非常少
高音
交友
没意思
现金支票
取现
证券交易
须于
使馆
做证
个者
侁
笭
事通
生产型
图章
选出
给工
局查
名之日
经工
店刻
中定
方给
常事
大有人在
外籍华人
侨民
驻华
籍者
未确定
替代物
法及
应自劳
幕前
幕后指挥
亲自动手
不论如何
出谋划策
罪拟
生理性
病理性
竞驶要
专用汽车
有轨电车
无轨电车
醉后
闹市区
有醉
到头来
事关重大
交错
条理
性格特征
六类
及同
关注度
提讯
拓宽
请前
弄清事实
有仲
而仲
数外
自由度
名仲
监督程序
会则
可向仲
所言
那劳
灰心
人际关系
义工
献血
就关
毒债
天即
经与本
餐后
亲友团
会替
认栽
告诉您
即续
断档
并轨
并续
tu
字符串
输出
变量
st
Human
指针
赋值
旧罪
两房
多套
减掉
转手
父女
可少
需缴
6.8
9.95
大房
9.75
史时
皮肤过敏
笔头
选一
爱是
两人要
汲取
爱会
患得患失
主宰
185
原一
181
因物
称物
壹万
至伍
狭义
某事
自愿互利
预期利益
亲临现场
人系
投诉无门
既受
互联
走后
顺便
交换价值
香刑
初字
双城
小学文化
真行
一世英名
努力奋斗
劣地
建窑
建坟
挖砂
荒漠化
治伤
治死
应属
改革开放
不断深入
所属单位
故人
若人
﹤
﹥
下人
会排
银行信贷
普通发票
IC卡
吊消
失足
确在
卡及
身份验证
银联
八大
原状
厘清
中作
想得
太美
😱
出国境
参军入伍
入伍通知
需持市
死亡证
重伤事故
￣
先亡
敏感度
总理
讨过
代劳
两件事
畅通
分量
大太多
多牛
百杰
思诚
胡来
太慢
要主
敬畏
不知所措
职责所在
帮扶
找政
开辟
爆料
总值
X3
危楼
百尺
托付
你老
芯片
非正式
所刻
0.3%
会少分
远远不如
二八
后半生
数百万元
杯水车薪
为取
内固
来规
市劳
中规
双赔
古等
却规
地规
吿
拒不上庭
宴会
酒宴
以暴制暴
人所作
单案
分险
公益金
利润分配
近侧
记事
栏应
384
未持
遣返
寄张
依此类推
暖气费
报停
控制系统
绝育
适用性
时代背景
百般阻挠
不明智
具体地说
侵出
管埋
挪作他用
事无巨细
流水帐
长篇大论
侃侃而谈
于事无补
耽误时间
常吵
高峰
菜市场
二百一十三
标罪
标管
品上
标在
无差别
标法
万件
被工
处断
轻工
无端
恩怨
物理检查
相关检查
濮
伤病残
五来
办对
出据
办于
婚配
不太远
发病率
遗传学
传递信息
生殖细胞
精子
卵子
子代
爷孙
叔侄
舅甥
表兄妹
堂兄妹
双亲
所出
各代
如伯
姑
甥
旅途
折半
双轨制
根本无法
互让
以解
燃眉之急
手快
多数倍
快则
慢则
育幼
内部矛盾
力式
反会
舆论监督
政绩
动作性
私愤
下流无耻
中一罪
即判
重罪轻判
恶劣性
中所处
开拓
只会记
操纵
鼓动
威逼利诱
成本核算
人头
直销
多层次
入门费
道具
入门
产品销售
新会员
倍率
彼罪
法网恢恢
庙
互通
留性
领走
署假
脱离实际
持股数
纯为
既判力
194
意欲
财产税
课税
暂减
税务网
模块
年应
之次
滞纳
催报
欠税
服务平台
专窗
质监站
园林
验完
赠偿
真验
真办
难搞
退则
胜败
高技术
新兴
说别
调和矛盾
领单
收领
送鉴
仪器设备
债有
血常规
尿常规
体格检查
生殖
时宜
欠收
人一
宜写
不泛
原向
huang
hai
尚欠
其现
携齐
凭该
详列
全民所有
取之于民
用之于民
兴旺发达
繁荣富强
偷漏税
积极关注
征管
喝药
危险源
旁人
生命财产
重特大
拼装
1003
1004
1007
1008
1009
1016
1603A
标地
不溯
该节
臧姑闹
鸡犬不宁
及至
丫鬟
祖田
打点
孝廉
附身
病中
二成
挖出
银两
田产
仲委
原囚
造意
盲目行动
较之
分类法
把门
分额
专属性
与此有关
居留权
留言
优才
博士
同等学历
优秀人才
专业人才
单程
证来
技术移民
於
650
品格
语文能力
粤语
高等教育
颁授
附以
信纳
RO
CI
BNO
属土
BDTC
有香
非永久性
后确
财经
移作
几倍
纯收人
x20
x5
所卖
所买
图件
前程
惹祸
X20
8w
应令
人且
了不得
1987
186
公赠
运输费
瑕
庇
虽能
家畜
可依其
售楼
买售

以犯
标本
私放
商检
绝非
犯中
开商
各司其职
般的
立案侦察
需看
招摇撞骗
军政
军民
xX
及台
某种理由
可由原
该外
币量
同一天
扩大范围
若经
并会
比方说
用尽
过境
领陆
领水
领空
非生产
非营利
教具
失掉
消费市场
最佳时机
威胁性
假想
瞄准
射击
较远
开枪
退去
挑拨
饲主
主观臆测
求饶
大喊
缓急
人法益
前到
会过
持卡
sz
jj
需先
咨询台
内办
经市
脑中风
开胸
器官移植
异体
移植手术
务证
顺手牵羊
扭锁
伪造文书
本不应
欲知
婚宴
菜品
互判
各打
大板
知错
方是
时漏
漏分
有条不紊
性本罪
网为
以权
分作
之苦
表是
计量站
副食品
各交
0.25%
贷款额
0.03%
粑
少休
计生委
骑车人
管理所
小事
在手
来得
信箱
过家家
还得持
暂免
警到
提人
100w
到律
明明白白
与律
向律
证收
案者
应向律
贪官污吏
尽义
聘
内四
属农
多种经营
种殖
或卡
从法条
显而易见
相比而言
较窄
回所交
用下家
中未作
苛刻
如上家
定中
为实
应看
开证
减缓
选票
票数
延续性
要取
去取
短消息
亲昵
情急之下
书据
经财
潦草
其依
由转
转由转
农田水利
花圃
桑园
经济林木
郁闭度
乔木林
竹林
迹地
成林
造林
宜林地
转用
度假村
庄稼
挖塘养
虾
投资规模
生活品质
增加值
仍归该
凝聚
较轻外
没多
太过分
伤愈
没投
苍蝇
叮
无缝
灭掉
小五
前赴后继
憧而来
弄回
伤不起
即本罪
先加
心急
续认
同进
下订
下周一
肯距
中该
创制
纸制
末位
淘汰制
架构
经济型
基本前提
职业规划
前未
或检
适龄儿童
国民教育
免费性
普及性
罢
其未
上受
本旨
诈害
以知
已足
款后
转得
定有
动车
去一趟
判轻
官职
大胆
公安民警
黄瓜
出押
聚焦
断案
清节
某口
dna
请以
a4
单面
成册
上交所
注意安全
易失
公部
证门
保存起来
数码相机
全屏
忏悔书
宿妓
约会
出双入对
拥抱
私家侦探
安全可靠
影音
难度很大
司法界
罚当
其罪
两罚制
单罚制
刑时
两罚
制是
出对
代行
对全
心在北
交流活动
其基
商社
应列
空闲
竹木
邻人
漆
好长
同为
费过
或默示
来临
既定
只作
房卡
县市
派遣证
持离
休证
随夫
验核
内资
副董事长
历时
舔
便于管理
公信
飞涨
过称
时应分
好此
之心
淋漓尽致
对子
与子
由子
从次
翻越
没写
印件
总帐
基准日
会计报表
清查
委估
盈利模式
简况
支柱
团体性
同罪
消费型
寿有
赞同
探究
功能属性
之计
界
弱化
传富
财保
财传
从业者
稳久
金类
本纪
着眼于
愈期
万分之二
收复
会大
对交
条上
条受
证券法
流通股
股如
无记名
以物
价外
变得复杂
企盼
投资收益
行列
话虽如此
上法
人力资本
终极目标
挟制
忍辱
屈从
如养
父以
因醉驾
如由
再作
一百六十
乘人
刑修
按旧
单罪
必然性
方须
但法
过时
副表
代理制
由旧
打票
不时之需
产所
耍流氓
看不惯
惹是生非
行中
怒火
挑起
事端
各器官
猥
裘
惊慌
务工地
4692.00
X12
00.00
员到
员因
原工
员本
电脑主机
由下而上
对市
伤残人
凭票
轻伤者
网络实名
关涉
汇报
不远处
一段距离
先去民
使原
望洋兴叹
交办
查办
汇缴
缴入
是司
国爱
形式多样
协迫
引者
用物
事人以
除因
经审
诉中
第十二章
作有
劳动卫生
斩立决
主城区
职校
水性
门栋
学生证
自修
学制
警务室
借住
膝关节
开门见山
没事找事
兴隆
赶在
直截了当
老兄
无本生
我费
口舌
逃过
老婆大人
mp3
进账
或头
碰巧
洗手间
老账
晚餐
回忆起
猛然
上个星期
三百块
不常
刚刚开始
早晨
走开
轻描淡写
别老是
咧
多半会
痛快
小钱
一拖二
蘑菇
孝心
讨账
笑脸
信誓旦旦
失约
不依不饶
一马
食言
倾听
天灾人祸
下学期
成问题
神情
力争
晓之以理
动之以情
有礼有节
真诚地
太紧
累积到
第八种
第九种
第十种
第十三
第十五
时故
第十六
赠于
第十八
第十九
要少
第二十二
物产
拖延战术
第二十五
传真件
第二十六
第二十七
善
第二十八
高估
第二十九
司法腐败
第三十二
第三十三
第三十四
第三十五
贻误战机
别花
管家
第一道
防线
查杀
○
后决
如向
至上
175
报镇
农与
现做
何事
受镇
逐户
河南省
济源市
入村
题解
年犯
盖楼
撞者
相违
新到
交上
自缴
再出
平均额
国家发展计划委员会
保征
若有作
判二到
权未作
竞买
落槌
克数
与会
每笔
城乡规划
挥霍一空
后刑
丢面子
属概念
种概念
属种
个罪
之别
择一
中个
贪赃枉法
一十九
期徒
业务流程
支款
私产
心肌梗死
肝硬化
风心
狭二闭
坏死性
自以为是
专心
要犯
警务
委由劳
由行
但仲
不经仲
或诉
中有仲
内法
从头
部署
关公
工作汇报
字纸
胡乱
一地纸
領導
因由
荔
我們
入此
為
難
不吐
寄于
什麼
讲文明
沒
問題
還有
難不過
招手
過
在車
罰款
沟分
讲话
這樣
請
問領
導们
聽
一點
謝謝
别家
其行
方及
住院病人
体温
医学影像
同意书
补记
注射用
尸解
合字
研制
总付
会处
致多人
几处
但同
刑后
文档
二到
低等
等次
所增
独任庭
按本节
偏轻
依第
但书除
法妞答
并令
从领
上证
一刻起
规模化
底子
点皮
白耗
加扩
前段
留原
这仅
强些
350
为单
保证期
购货
要事
便愤
售票
有何意义
商品质量
服务态度
往高
局在
项是
仍不于
有家
暴行
执法监督
脑力
硕士生
攻读
硕士学位
学习年限
访问学者
派出国
博士学位
出国前
劳社厅
察看
平反
精简
零三个
提炼
铅
汞
砒
磷
酸
兵工
时不应
按国发
年北
美誉度
货真价实
自我标榜
名牌
领先
大幅度
品牌形象
搭便车
坚实
从公
物让
可扣
凡入
守则
财务状况
建设局
简体字
表单
分栏
墨水盒
编写
EMS
平信
淀
088
收费处
代办处
邮
申请号
没人会
难尽
人意
藉此
条仅
终裁
时一人
公了
大事化小
小事化了
浪费时间
自戒
良性循环
调侃
交通拥堵
要公
北青萝
门去
予以安排
带产
再嫁
卖主
缴讫
封闭式
自曲
逃出
农村干部
奉命
看守者
主观武断
以势压人
居心不良
品且
害人者
吃大亏
严审
简便易行
难辨
释义
国际标准
189
191
理后
先列
或抗
宏观调控
行政事务
十几次
期从
起时
265
车检
为默示
依有
当以
两侧
堆放
物料
临街
窗外
吊挂
消防安全
热线电话
消防设施
停用
疏散
埋压
圈占
消火栓
防火间距
密集
逃生
救援
技术标准
消防产品
燃气设备
管路
敷设
明火
打字员
难讨
跑不掉
他造
口信
离法
以到
写劳
好意
搭车
侦探
反垄断法
销售市场
开发新
反垄断
转售
同业公会
排挤
滥
辞书
既得利益
经贸
提心吊胆
受罪
大声
喝令
靠墙
一句句
脱光
衣裤
全身检查
冷水
囚服
剃光头
监舍
坐板
盘腿
几十条
受罚
长用
鞋板
打屁股
好多天
吃不饱
退步
海阔天空
书号
描绘
诲淫
录像带
录音带
人体生理
科学著作
艺术作品
十四日
案宗
后生
舌
吸吮
鸡奸
狭隘
不亚于
要远
分辨
下身
必为
即前
帐目
避而不见
同监室
囚犯
中不起
巨九
存疑
电影院
摸脸
三思
张嘴
才予
防骗
经继
即要
对酒
全体成员
兼任
有得会
为夫
说分
该局
下家要
款式
由下家
证据学
极为重要
比值
沉降
允许值
砖石
银行业
签单
秘籍
搜房
终上
99%
提告者
移走
XP
JS
租与
并判
厌烦
管理系
博士生
导师
联名
增人
增地
引述
残者
承不承认
据调查
激增
分床
赶货
都律
今向
借民币
性清
强保
身在
困在
算临
工要
后付费
应比上
劳动厅
社厅
民不
告官
有告
自闭症
施加影响
经济基础
惹恼
买后
5.55
力是
驾离
拖放
尚构
市公
凑钱
是定
侨居
如驻
原经
现均系
现系
放屁
激励机制
安全局
质量检查
后后
最深
病好
黑个
狗日
多花钱
看重
花太多
出声
死前
一二三
个人感觉
在度
娘
即算
损费
责任重大
费可
取内
省直机关
湘
换姓
别提
从中渔利
圈套
赌者
黑话
暗语
预知
胜负
宪
家由立
由普
如宪
被动式
监督制
以英
议会
宪政
内阁
首创
麦迪逊
合宪性
使宪
但司
官要
立宪
会应
由宪
奥地利
总统
弹劾案
易受
熟练程度
登记薄
投怀送抱
节假
按周
完性
临劳
按关
完劳
双依
所税
行由劳
按家关
发劳
事依向劳
服向民院
华民共
发列劳
而持
page
亟待解决
穷
和约
问清
出现分歧
按款
胡说八道
搞对象
就告
较之于
因拒
人口众多
省条
负债表
安通
找检
如找
未留
中拨出
文化部
销售点
虚开
投书
越级
弱点
额话
----------
拉走
经得
换本
即下
利息费用
输欠
预购
基本点
定着
物时
几宗
两宗
物实
追下去
同村
公产
天津市
紫红色
硬纸
封皮
粉色
中页
房信
进驻
贪小便宜
自受
取走
属质
判有期
力后
向妇
因施
案多
条狗
审不判
纪检组
挖沙
需随
跨一
整年
到父
问其
国土局
少给些
人活
一世
毒草
俗而
金缕衣
佚名
可推断
其犯
房满
购满
房注记
可预见性
钱放好
显眼
捉贼捉赃
精明强干
写错字
转钱
单打
信息安全
获罪
扩张性
网络安全
中修
小修
棘手
平原
部去
正面交锋
构不
经原
要法
几期
价单
券
车位费
人同
思科
书自
日常支出
假不假
真离
能复
弄假成真
看借
打残
他杀
扱
术词
不捕
做此
不罚
牵涉到
序后
庭长
附本
甲地
运往
乙地
不声不响
办真事
诉后
171
交管
及出
休治
所花
国产
维护费用
船费
有医
病力
公孙大娘
弟子
舞剑
器行
承担费用
城保
供选择
性刺激
儿童心理
错乱
条个
条蛇
以养
懂爱
生死离别
人养
就养
没往
想养
得教
启发
如国
集团公司
人如国
说得通
审害
没栓
链子
喝一杯
切合实际
测酒
极少量
国际惯例
酒量
限值
标准值
昼间
疗养区
别墅区
城郊
严于
文教
混杂
工业区
干线
内河
航道
背景噪声
突发噪声
最大值
环境保护部
相似性
归组
联营企业
控投
工人运动
利益冲突
体型
百分之五点
平到
平是
过高为
为限来
镇人
因地
异
各不相同
无形性
网名
力比
更弱
单中
就此结束
一口咬定
日个
找死
不要命
及复
如此等等
教唆者
犯即
忌恨
打猎
借枪
对甲
无通谋
眼神
事必躬亲
亲自出马
寄信
收信人
妻一人
危重
数略
押送
强迫接受
重操旧业
屡
不爽
骗取信任
行骗者
招聘员工
幕后策划
露面
隐蔽性
司连
老手
闻风而逃
风声
不紧
合作项目
定心丸
尚且
犹豫不决
受骗上当
善于
虚张声势
投其所好
乱真
大肆宣传
包收
转让费
时以
配货
专找
管理机制
瞅准
热门
专拣
伪造证件
假扮
经验老到
熟客
先货
后款
试货
要货
设下
血本无归
冼
290
关注点
附法
浅见
价房
号文
人想
悬空
转户
多头
押物
法人地位
多寡
申审表
盘算
待审
会转
牢记在心
申贷
送审
多省
下会判
雇佣劳动
指国
直属机构
证交会
保函
业务量
用时
催单
催宝
两万多名
催客
换下
指示灯
所在位置
线前
分道线
第四类
第五类
网格线
未压车
网格
第六类
停后
挨批
互相理解
掺杂
宴请
或向政
限制型
三千多元
人拉入
用卡
学下
城乡建设
城建监察
挖掘
桥涵
防洪
堤坝
供气
供热
公共交通
规划区
地下水
节约用水
市容
环境卫生
园林绿化
城市绿化
城市绿地
花草
乱砍
两顿
若过
制有
海内存知己
天涯若比邻
重申
而须
历史记录
及拟
复转
报盘
吭哧
噻
心做
够不上
险处章
参统
跨年度
北京市
工表一
工表九
工表十
工表二
工表三
办新
不大清楚
留劳
此略
吃透
技术开发
至市
报知
偏袒
短信息
422
449
476
503
531
立个
双车
单是
息事宁人
比较满意
X7
X8
X4
泊车
带处
三角
挪动
递达
无住
或由成
金满
东自
介
司法厅
纹映
粗心大意
怀着
规整
迹痕
有涂
务实
或机
有手
补允
指一国
准驾
寒心
礼后
迎亲
嫁娶
民风
人应作
礼是
用过
心安
天地良心
航协
客票
购票
折扣
里程
机务
机组
空中
晚点
离站
成行
场外
元天
未全
违法者
象是
看扣
约架者
若约
架者
西安市
人面
桃花
春风
数少
无可奈何
费不受
如自
行署
等部
民一庭
研究组
的确如此
由省工
制来
瑞亨
下若
六次
一两次
房贷利率
容时
宽限
归还给
举例来说
让度
时空
内归
已纳
管理体系
系时
集锦
223
会均
办发
系后
532
效劳
未设
检查法
商业道德
退函
函到
就业指导
领新
部是
万帆
忍着
续证
与生俱来
空挂
会予
轻些
平等权
信仰自由
民兵组织
时刻
指将
人关
汉书
匈奴
传赞
每来
降汉
单于
辄
汉使
北齐书
循吏
华原
密有
屈骥足
富贵
不尔命
资治通鉴
元顺帝
至正
复遣
人往
清李
求援
三明
上饶
集中营
羣
定妥
分程
错失
改期
常设
时如
需作
中一人
否决权
总价值
承续
各得
多家
归未
商界
条都作
迁回去
一较
地要
车来车
一百五十
肩上
救援车
清障车
拖曳
伤员
通车
机械故障
转向
制动
已建
面貌
单项工程
土建
演义
描写
东汉
末年
西晋
初年
历史风云
群雄割据
混战
一统
晋朝
塑造
叱咤风云
英雄人物
蜒
错鉴
或应
串方
王水
因无
陷入困境
账面
业户
二等舱
残具
单及
易烂
诱买
书件
文件格式
准备就绪
按虚年
134
233
没多大
不劳而获
这多
少见
会计核算
眼观
思维过程
明察秋毫
洞察力
严密性
来充
依致
徒据刑
质保
条之规
单瘫
由惠
找律
4288
###.#-
农转城
#####.#
#%#
4.4
###.#--
Y
≤
≥
####.#
代入
pe
il
id
ht
挂念
先请
小手指头
接轨
指外
完全恢复
011
市上
07.5
两万多
题为
谷歌
强加于人
强人所难
t1
评不上
因即
006
伤亡者
到华律
双房
归属其
身份证法
变价款
必需品
润物细无声
书费
征购
水域
名胜古迹
根本法
第三十一回
仓亭
本初
荆
后作
光凭
仅次于
入监
教学质量
收管
钱花
两省
知单
本门
有朋
请朋
二对
一劳永逸
舟车劳顿
俱
简捷
足不出户
沟
限性
违章处罚
分时
寄来
阅看
三联
一联为
封面
二联
先不忙
充分准备
打预防针
缠
议论
黑案
一项项
质检站
五通
一平
电热
路通
楼前
楼后
杂物
煤气表
电表
三表
到户
清扫
水池
水盆
粪桶
垃圾道
窗明
地净
地漏
无堵塞
供水系统
用水
打井
取水
采些
水样
带回去
应想
设备齐全
搜求
怪
倒不如
快快
曾任
离任
以本诉
债债
义行
期能
受有
单务
关发系
奖均
债为
僵死
化相
课以
互通情况
充分利用
换车
ETC
退是
少退
征群
主要症状
不灵
握物
头重
头胀
头痛
复视
或视物
吞咽
发呛
颤抖
管和医
由政
制医
身体检查
ja
ui
asp
休检
旅游局
产调
违章操作
产法
抓好
加强监督
伤亡人数
调查组
函省
行文
部后
右道
本道
遇费
两件
简单机械
归根到底
折产
原产
工程师
及下
道工序
机构编制
关键部位
工序
旁站
自检
报验
签认
复工
收税
税房
申根
一二个
村庄
动工
芝麻
挺大
冠上
头衔
某份
伙补
人参
重姓
还告
资力
难以实现
价价
虽以
虽使
偿时
害及
而德
不害
其所为
看分
方已
新出
楼栋
保持良好
该栋楼
此间
0.42%
不战而败
x5%
一般地说
土地税
额未
x30
x40
x50
x15
x60
x35
上手
x2.5
精准度
没戏
有案不立
依纪
老同事
老战友
拿会
测图
工程量表
上审
讨论案件
会议室
清洁费
少住
没亏
抵冲
令才
这名
提走
认房
认贷
监区付
生命危险
可治
每犯
8.30
专档
就近入学
此假于
加时
1.0%
详解
参考价
征收率
土地增值
赎楼
0.003%
0.0025
0.002
2750
全征
无年
株连
作保
人格担保
信息时代
网络空间
方会
事上
迟到早退
委估者
经验丰富
估价师
踏勘
位置图
地租
规划图
环境景观
经济趋势
物价水平
试算
比较法
还原法
逼近
智慧
实物量
讲个
老父亲
好似
顽皮
弹珠
玻璃球
暂且
小个子
上楼来
玩具
玩吧
反倒
表示同情
上供
处事
嘻哈
不苟言笑
不打紧
兴许
赴约
婉转
群中
群邮
很漂亮
党外
原任
同工
空口无凭
万六
教给
对律
跟律
律管
该律
将功
抵过
一照
一码
加载
获取数据
年度报告
几方
检是
旅检
货检
空器
候机楼
隔离区
空运
飞行
检员
火眼
空防
行李物品
登机
检查者
铁路运输
改立
母子公司
菜场
越久越
毛用
确巳
离昏
配者
因案
其所借
4600
店有
生下
误判
潜意识
亲历
操作步骤
我归密
974
没罪
理于
套内
经检测
因房
耻笑
不思悔改
力大
络
接警
含糊
体能
随手
抄起
掐住
其外
人际沟通
65%
语言所
十分注意
言行举止
语调
江雪
移装
坑死
河里
话单
公会
局去
缴付
依期
订明
虽向
盈亏
明为
银行利息
退体
脱帽
一去
找大
一千五
孝养
轻率地
幼稚
好吃
奶
力气
栏中
房时
再育
拖动
拖离
军内
它分
视情
买主
职工宿舍
是非曲直
由非
项所称
再迁
到民证局
没达
十二月
两律
寻物
启事
拾得者
冲裁
缺憾
经侦
内死
买入价
成空
打招呼
办公厅
认证标志
名优
作引人
独有
工令
饭堂
公摊面积
泳池
查五证
上包
房地产商
看此
证和查
一两家
更难
看得出来
公摊
破绽
光照
用电
款太低
一表二书
既成事实
要贷
说取
有多轻
喵
需视
情而定
书系
由协警
因协警
表示感谢
接班人
骨干力量
得体
接替
一如既往
以尽到
退工单
除六
消防队
武警
消防大队
看所犯
险金
于现
方方面面
外传
人得
物是
降价
但此
自制
可向市
现金支付
变少
热土
发吧
作时
于施
但书
视频录像
后向妇
估
得诉
着装
佩带
警容
严整
举止端庄
配发
尸骨
母才
随团
分团
脱团
机票
拖运
圣
RM
超售
搭莲
菱
蘧
垦
莓孽
找下
条就行
住够
投有
迁空
点清
相目
各种渠道
刑级
这年头
横
夜长梦多
病亡
会出
天内出
免诉
续包
拨
逃到
政治避难
225
会负
导购员
解说
连锁
警醒
加盟商
所在区域
伙伴
加盟者
口吻
透对
在商言商
一清二楚
透伴
手礼
美食
尝尝
松散
对伴
盘亏
盘盈
装设
伴手
收银机
保险柜
钞票
点前
误打
销货
最烦
步行
好消息
种非
烦人
车尾
粘有
恼怒
女司机
灭火器
救星
守住
告示
可空
邮寄费
千真万确
无货
林业局
绿化
帝
版图
城邦
贵族
子弟
一点一点
择其
善者
自作自受
躲起来
立网
入学考试
初试
研招网
院打
统统
事干
😁
同吃同住
判一缓
没权
管不着
涂上
不一想
科有
手边
算工亡
白说
白写
寸照
张等
索讨
解缴
仍末
回算
一两千块
受惊吓
理无
烂尾
断供
受骗人
bc
肉包子打
有去无回
TSD
势头
更快
加息
帖息
央行
销卡
由人社
悄悄的
专一性
爱情专一
裁断
浸
猪笼
预算书
单笔
备过案
嚛
钢丝绳
劳保
如遭
应由原
即由原
中可列
可列
借私
贷先
完全免费
扶且
顺行
债不受
组合体
1655
太天真
流质
高级律师
帮不上
中鉴
或鉴
无故缺席
脑力劳动者
脑力劳动
理论工作者
作家
清闲
第三产业
口力
但口力
口才
临场发挥
双放
刑上
东游
温庭筠
减一减
进况
催问
右上角
拉到
丢人
中劳
定量
苦力
监察室
修理店
4604
月江
8670
元江
5W
元法
70W
35W
考虑不周
信仰
按额
贡款
供款
供额
所余
涂消
支行
按所定
重新处理
区社
限适
延用
性业
看灯
即劳
现时
谈法
红外摄像机
采集卡
申清
不清不楚
发帖子
补开
提防
PS
小本
文字游戏
绷
纠有
点心
吃一堑
馅饼
络刷单
全部都是
先收
找加
挑事
重有
记下
承包者
溜之大吉
工作进度
告之应
庞杂
建筑行业
头痛医头
脚痛医脚
态势
恐吓罪
协勤
存立
置信
单须
回店
数及
连锁店
备档
催帐
不经
掌息
时国
牌价
货单
交货单
运单
拓印
催眠术
心如止水
彩券
廖
院于
后非
弥合
家庭解体
破碎
错写
纠错
承包商
私利
政纪
改造思想
听课
课堂纪律
联系实际
争当
能动性
保质保量
超额完成
汗水
污垢
列清
主是
应付账款
应收款
应付款
一一对应
找上门来
进项
当要
起价
超定
元超
部则
元外
总家
能越
转移性
师弟
相位
禁止通行
门牌号码
拆字
婚姻大事
图谋
呢喃
秋瑟
aa
好奇
学学
玲
搞不清楚
更是如此
如依
种类物
可分物
着作权
指不以
行纪
花色
方言
容积
件数
字数
量度
劳动量
精确度
尾差
磅
超欠
耗损率
勿庸赘言
许许多多
设计费
装卸
报关
以天计
以月计
季节
以年计
运到
正因如此
起运
分批
托收
承付
汇兑
或少
先登
随任
平均数
即加
除于
车变
别信
引申为
大则
工服
身体素质
毒友
挑战性
结识
交朋友
持之以恒
溺爱
放任自流
发怒
毁物
正确对待
院指
不可磨灭
煎熬
长此以往
行为障碍
不良情绪
心理品质
反叛
懦弱
熏陶
胆小怕事
自尊心
古怪
孤僻
较易
社会安定
日趋
创造者
丢车
敢借
观察者
可代
其向法
叫个
用笔
想算
级距
45%
特许权
畸高
加征
五成
十成
路权
通行权
警报器
灯具
行驶路线
值班人员
那才
社会活动家
慈善家
工业生产
劳资关系
欲哭无泪
后悔莫及
花季少女
大千世界
逗留
到济
检查表
MR
医务科
各部委
户粮
迁转
害惨
无数
扯蛋
非遗传性
现行政策
小心翼翼
承当
酝酿
日未
左邻右舍
有私
层报
善终
隐忍
构架
透明化
另一回事
撞击
高而
豪车方
出名
归借
调遣
暧气
不管怎么
客观实在
印痕
轨迹
电子计算机
所悉
社会保险金
争个
天昏地暗
精神病学
有否
会议记录
中介组织
依规
租借
平来
合作经营
清结
自本
后继
授权代表
第三级
社区服务
偏远地区
退予
ju
写写
一条条
bi
业证
深造
事代
即县
步中
ban
存放处
户口卡
沉默
问责
独创
专利证书
应视次
自次
同求
要学
三星
机型
功能定位
绑定
GPS
五六个
录音机
授
前门
以小
三生
均达
汇到
调停人
改型
定期检验
营转
拖移
物作
指收
MMP
修订版
协解
只列
命运
得了吧
深交
人远点
离远点
不守信用
闲钱
述说
提钱
而版
记帐
所偷
假报
退税款
地坪
空鼓
渗水
不决
洗洗
烂命
看着办
几句
更惨
申冤
令人费解
干紧
一第
较贵
所多
不成才
巡逻
侦破案件
肯能
分取
发财
拆信
展
识时务
多功
时者
或周
套薪
塔法
入出境
好法
问好
寄到
庭先立
上案
口诉
如人
震塌
最常
详细信息
周详
舍
仁义
店家
会点
要命
有罚
国地税
再三
同感
挂勾
许可证书
再差
三五年
掐
私誉
男歌手
红豆
沸沸扬扬
多达
七名
舞蹈
歌舞
俱佳
聘为
十四五岁
演出
务实精神
管水处
掺和
遭强奸
耳环
劳办
附二
相衔接
人情案
捕诉
顺畅
条后
领息
领奖
转存
邮电费
填补空缺
如来
神掌
觉收
激
判自
院并定
阿院
光说
行所现
苦仇
深且
谋私
给院
部纠
言案
告定定
并院
判要
不良资产
罪可处
没组
拼不过
建好
求神拜佛
乙在
野外
稻草人
惩办
宽大
变易
可知性
通过考察
客观规律
危
言性
内部结构
凭直觉
性应
只应
形形色色
美人
gan
PGone
饺子
露露
爽爽
叫唤
咎由自取
看不看
所示
人选
接任
领导层
情绪低落
生涯规划
增幅
较少
辐射
二手烟
梳理
做下
三人以
或致
私采
根本保证
先查
入席
勘检
鼻青脸肿
记性
仆
当交
规定性
无聊
因以
后村
缴费通知
症是
症为
症由
彩
狠抓
各项政策
部要
镇里
通融
为供
工棚
象律
吃拉般
真象
要饭
例律
丧家
打狗看主
占管
由质
出质人
为质
第三人称
卖得
作质
或质权
质物交
抵后
留即
物已
先留
抵即
物向
先质
后质
物出质
先押
如先
以质
权无
弱于
炒作
从物
随主物
主物
股票价值
凝结
手表
缝纫机
二十一
印板
赠礼
装璜
按较
高者
律师业
概算
只怕
连字
不识
俺们
队里
主编
犯罪学
甘肃
人民出版社
426
回笼
一价清
章法
刑内
二亚
双氧
安非他明
mdma
苯丙胺
氯胺酮
安眠酮
氯氮卓
艾司
仑
泮
溴
既犯
车证
政治处
监察处
效能
挟持
而异
而体
法为
下以
催着
没排
出产
据理力争
堕胎
合照
即取
少许
收手
造能
华民共劳
进记定
VIP
点少排
半队
走候
记给
打要
选非
满意哦
工会法
停职
某物
只日
决有
决所
第二点
要向宁
向宁
点点滴滴
负相关
自觉自愿
孝敬父母
吸取经验
知识分子
社会阶层
先进分子
党的纲领
加人
起码要求
因迫索
292
从产前
十二周
计为
授乳
假产前
习惯性
其产前
假遇
市为
每班
喂养
单胎
三十分钟
八成
实发
说来
坏人
干死
只当
利用微
刑宽
查下
童鞋
寻找机会
再娶
劳动所
可告
先不说
光看
想判
乙有
嗰
决仅
决对
全无
＆
立体
利要
向国
同该
蓝黑
并落
托一至
慌
别买
面包
根厚
工字钢
汽修厂
拆下来
焊
防撞
钢梁
车底
加焊
自重
刹车片
卸
砂轮
上磨
磨断
手刹
攒足
出闯红
警报
科研工作
繳足
以其权
对权
细微差别
拇
两指
断平
调养
二十二年
ya
公共性
公共行政
倍偿
双眼
无光感
另眼
°
0.05
0.25
END2
别居
空口
运行机制
侦辩
侦控
辩方
监督制约
改错
重要途径
监督员
举措
捕前
再算
人民检察院
业务经理
院具
该经
当家人
悲痛
手足无措
各负
广等
启动资金
业务联系
中如有
含涉
2.7%
2.4%
2.1%
投资总额
中型企业
卸取
劳动生产率
每本证
交通设备
空中交通
这生
避碰
航海
渡口
航运
船只
横越
抢档
有碍
锚泊
停靠
起飞
航线
始发车
装货
终点
离去
卸完
落内
检修
冲洗
扳道员
巡道
机长
调度员
监理员
总会
步入正轨
创建
前途渺茫
但广
几十万元
网络红人
推手
装咯
完清时
实得
金行
流传
捕风捉影
适龄
乖
悲哀
讲故事
284
或侨
托书及
赁
前手
要据
成交额
价费
814
元取
0.15%
0.01%
下多
调低
车号牌
剥夺权利
不治之症
濒临
无痛苦
撤除
任其
救死扶伤
道义责任
痛不欲生
提前结束
国民
大义灭亲
论我国
家法
动辄
满不在乎
容认
或明
理是
私刑
十恶不赦
千古罪人
vo
ge
小三去
掺假
以假充真
世人
铐
脚镣
警绳
约束性
押解
名得
天审
失业工人
日历
二十四点
纪律作风
双主
人情世故
处方药
加算
时想
看犯
后法
蛋痛
习作
tt
正面教育
求得
律伴
集约化
伤级
两害
相全取
其轻
必选
vv
集训
摄制
译著
绘画
刻印
洗印
翻印
复写
复录
抄写
放映
主权国家
成文
领海
毗连区
更贵
突发状况
或港
后受
难获
总条
字等表
系其
向外
预扣
当头
于预
借入款
项负
atm
新收
抵充
亦生
斥讼
明上
测谎
占用费
活期存款
资金占用
叫法
4006
未成
连接点
船旗国
联合国
内部事务
地应
遵行
国内法
碰船
刑事管辖
正当程序
海盗行为
机组人员
海盗船
海盗
军舰
叛变
公敌
拿捕
本国
播送
收看
麻醉品
公海自由
第七十六回
大战
沔水
关云长
败走麦城
传播者
归侨
侨眷
怀疑对象
归新
或税
财税字
强龙不压地头蛇
字忍
不晚
今生
来世
渐次
股本
中小型
较为简单
性小
最错
找原
调档
根本大法
曾于
1954
1975
集中制
源泉
当家作主
各族
人宪
南人
谋利益
公民权利
民主集中制
出让方
业务人员
外语
采购价
剪刀差
赚取
外贸企业
俞
先核名
网登
取照
核章
醒酒
本源
托养
渡船
读物
服药
投资额
郎酒
一枚
放货
落位
成型
二批
价格比
压货
串货
性价比
三四
拓展
再动
发院
劳神
碰见
善罢甘休
每过
裁退
游子吟
德籍
最多前
像凯
盟
管理科
到北
注册机构
广科
十件
群组
官费
拼音
产品类别
农副产品
取暖
流量计
暖气片
季是
每平米
6.97
先急
理顺
自辞
断然拒绝
金只
典是
乌尔纳姆
蒋
健
检查站
边控
顺手
婚因
求己
快适
工房
花钱消灾
一课
会计法
会计工作
会计报告
做假账
本位币
任用
款所列
元扣
分去
实则
要查
抗议
为诺
党派
干部职工
等关
同要
应及
报事科
超两
按列
内原
限计
本原
21.5
四舍五入
职级
员指
工指
薪级
员计
再休
性津
其津
其休
员公
或公
员休
原能
采莲曲
荷
一色
乱入
池中
闻歌
始觉
改写
筛选
职中
该留
心眼
书立
紧凑
因买
十月十日
马成
律师团
文不对题
付现金
条之日
存取
零存整取
无离
回函
还车
你算下
想必
耗时间
KO
抵息
上常
诸种
原参
代理点
核减
师法
2755
多语种
助方能
醒目
经四
第八届
左键
没点
抢钱
匿名信
个头
请速
原长
学张
自建
595
普室
校内
场馆
垫资
协以
行动计划
协还
活动室
月国
钢要
大力开展
校内外
促进作用
强拆
普任
但天
无数次
肓
普馆
拆楼
没补
新校
拖到
协调会
滚到
调往
记国
类中
查询费
一表
占股
＊
375
1025
ax
征纳
财政收入
自交
555
545
如图
济宁
主贷
次贷
信贷政策
好主贷
人和次
贷人
数在
五十五
恐怖组织
8.1997
标准计
师会
作秀
装腔作势
细枝末节
业务知识
非常简单
过程中将
审中
037
中顾
就付
判破
数扣
档数
乘好
一档
全月交
#####-
税扣
3120
三五天
绝招
底下
口罩
睁一只眼
闭一只眼
IO
网监
抱太大
抛撒
时发
哭穷
ε
´
ο
｀
宣传科
公共关系
法制科
后勤保障
政工
画线
风纪
地市
繁锁
预备金
进不出
英语等级
考生
家长会
此对应
考场
交头接耳
答卷
开房间
恐吓威胁
无比
荒谬
脱离危险
回想
高调
低调
明枪易躲
暗箭难防
犯不着
周边环境
打起精神
保持联系
事件处理
身外之物
看不开
恶斗
随诊
假后
子集
假年
设计规范
起居室
贮藏室
实心砖
隔成
更多间
三章
五章
机智
受约束
参与方
禁止停车
载物
双双
砌块
砌筑
砂浆
拌制
接头
加剂
厕浴间
承检
监测数据
不良现象
部建建
试验室
石材
幕墙
玻璃幕墙
铝合金
窗
塑钢窗
监督站
试样
封样
试验报告
五点
用表
要手
橡套
YCW
EL
格采
吊
转筒
转盘
Sh
ableCO
LTD
护套
加抗
扭层
另行通知
l5
因显失
危困
正像
一棵树
长出
新枝
情境
摆过
征兵
人手
税交
算啦
异烟肼
怼
98%
没死
十片
抽搐
出些
药来
药量
最多塞
粒
烤肠
100mg
十公斤
致死量
死亡率
我试
200mg
惨叫
50mg
觉悟
深似海
暴富
踏踏实实
再赌
瞒不住
赌徒
家散
怨恨
截
鬓鬓
萎靡不振
魔
幻想
回本
无耻
笔记本
Fn
国家计委
境内外
计价格
停征
610
本约
利用自身
僵局
进行谈判
放完
如帮
招妓
偷听
176
体无完肤
开机
适配
卡刷包
导入
内存
根目录
待用
卡刷
电源
键不放
机前
先双
wipe
清空
缓存
出场
rd
ch
机包
ZIP
待刷机
或刷
机后
讨论一下
准备期
算到
1946
于南
内战
澎
增修
中称
计分
明定
五权分立
均权
明列
四部
权衡得失
决权
节省时间
该仲
非仲
庭所
排除法
就仲
指仲
将仲
税务系统
新设
许可权
担当
以股
账户卡
去不去
请原谅
冒犯
互相攻击
江南
拒缴
收效甚微
某路
某室
地板
天花板
厨房设备
合住
比较稳定
年付
按季付
按季
难到
飞去
点卡
意见反馈
以使
报导
可信赖
网上交易
中小城市
化分
经侦大队
所骗
如官
吹捧
Yz
Win7
it
键值
驻留
Sy
CLR
mana
heap
Ha
数据结构
In
Key
Value
has
ode
Item
否要
详址
好先
额三险
速扣
数以
元为例
X0.03
X0.1
数全
庞氏
后来者
钱发
期期
壹仟
尊重事实
对话
大同小异
必交
正想
得交够
转账支票
按所列
要死
别有
乱答
无言
八到
公司制
牺牲品
恶名
高管们
过目
所换
领准
轻便
善后
应买
内尽到
自担
看下
损失险
赔险
小麻烦
滚多远
不全是
竞标者
威利
略低于
为妙
从交
大起大落
哑巴吃黄连
假即

实惠
288
一交
细小
税目
抵用
折上
封杀
毫不犹豫
办公时间
九九年
更优
指导意义
统领
良俗
整部
普适性
编修
两章
章名
通顺
关系逻辑
成章
八项
最能体
时代特点
23APP
亲测
查询处理
专题
党纪国法
量权
主办方
管委会
家庭经营
正反
停机
里装
生活空间
走廊
不租
考察费
叁
抵付
壹
拾伍
按到
持二表及
院行
但江
适得其反
选则
尺码
改商
靠笼
常言说
锣鼓
听声
软筋
谈判者
显山露水
冷场
言多
警觉
谆谆
善诱
水份
原则立场
谋略
谈笑风声
作过
火候
琴弦
弹
曲子
知己知彼
不畏
权势
流通领域
并打印
盗版
书籍
原图
商品信息
文字说明
咧咧
该次
早先
乱了套
各行其是
相竞
没人会管
找人来
知根知底
2315
偷期
有收
产检假
天产
检假
天已
预产
假中
产检是
拉出去
出息
啪啪
而工
访友
遛弯
剑拔弩张
吵起来
名狗
埋葬
因狗
磕磕碰碰
省却
养犬证
遛狗
痛失
爱狗会
之失
咨询者
死狗
身孕
不死
卖钱
母狗
爱狗
诚心
气狗
上海市
被忽视
下一辈
上理
1143
信访部门
促裁
留印
售卖
房办
物管费
虽不大
不清会
首款
后付
责权
有据可依
办复
退换货
冤深
似海
方先
预赔
二段
详细资料
满天
开价
转出去
自上而下
执政
反腐败
减慢
下有对策
阳奉阴违
府行
流言
抽屉
随需
粗放型
必经之路
创造力
尊重人才
弩
冷血
份量
残次品
等外品
品而
正品
清仓价
甩卖
传播媒介
品作
邮购
文义
确非
标权
只以
审批权
戒严
绿化费
植树
民建
四荒
省农
与计
农村公路
自筹
负债率
授信额度
信审
比过
评分
自筹资金
该行
修宪
先决
希腊
拟修
投票表决
下届
如意
修改草案
堡
议员
或须
全民公决
元首
拉入
肌权
难以预料
方以
方即
注入
财务结构
经营风险
保留意见
交割日
结构合理
共管
整合
管理模式
市场营销
卓越
财务管理
有的放矢
顺利实现
非核心
生产成本
防患于未然
客户关系
营销整合
市场份额
供应链
项目风险
自成体系
创投
东方
更要
区域性
国资
低成本
集团化
跨行业
脉络
互补
一年生
水产
多年生
此限
订有
减当
本例
元距
元后
扣除额
#%-###
数附
#%###
#%####
食盐
一吨
消签
引爆
自书
可以信赖
所托非人
■
夫已
妻尚
二子一女
一启
广发
需办
卡人
外籍人士
就业证
白金卡
行易办
批核
即非
young
版分
办卡人
影票
转卡
版请
台籍
台胞证
推广员
或房
定期存单
若办
卡人能
批下
售楼处
当带
于次
先多后
合作意向
行对
营销部
拒发
养护
写字间
工都
端盘子
吵个
叼
干租
如工牌
泼红漆
锻炼
立字
为题
如出
认公
外未
成文宪法
效忠
忠于
办事员
生活待遇
国家专利
制亦称
即予
制对
文献资料
制比
利局
案进
这使
家实
顿
AIPA
日该
法案
1952
变革
加贴
移置
银行担保
季节性
鲜活
腐烂变质
水产品
巴黎
缀
商号
年司
出身
大专学生
律及
科研机构
理人
必学
民商法
汉语
港台
武侠
玄幻
黄易
寻秦记
半点
奉陪
指代
歌词
金计发
多缴
到安
多日
同同板
գ
ll0
448
重写
扇区
一键
di
里点
下图
Bo
处理器
操作系统
柱面
磁头
MBR
512
字节
分区表
分区
硬盘分区
不随
夹带
LINUX
LILO
主分
网洛
代人
以代人
想代人
仍拟
5.56%
特殊津贴
加市
低限为
高限为
活得
年时
480
1280
Pe
分次
2151%
2401%
四十三年
统账
金以
现行标准
平稳过渡
按月数
电力企业
和盟
上式
下表所列
留住
能活
不一成
台居
有带
补证
双人
由车方
该代持
款为
活配
发薪日
被子
点点
转折点
那朵
顾忌
留面子
酒有
加租
租任
忍忍
成力
后满
属意
限权
幼稚园
或限权
怕不怕
标准化
规模较
多大来
那套
全免
平为
得失
等一等
少掉
花式
MM
轻声细语
好言相劝
推送
颜面扫地
温和
爆出
接入
必然趋势
士须
投标人
评标
想先
国家公安部
补登
生物学
索赔权
守约
指省
专司
税收法律
不含税
-###
一金后
X10%
447
挖墙
打洞
凑齐
究缠
第一印象
骑到
头上
邪气
上身
sha
皇帝
下风
手贱
已触犯
通情达理
奴仆
君子
动口
无与伦比
杠杠
供用电
电容量
电价
分界
限电
断电
供用
热力
电业局
房改办
阵型
一切都在
厚道
震惊
数百个
新鲜血液
如年
如月
冲个
一二年
ん
е
wan
xcdc
103.233
186.145
kedc
变压器
容量
KVA
视在功率
负载
有功
功率
无功功率
矢量
电流
所带
电阻
KW
VA
有效值
乘积
乡邻
臭味
肥料
如市
国家信访局
不信
他敢
浙劳险
231
改发
办婚
迁就
经费紧张
权籍
窗及
屏蔽
第七个
数众多
萁
涨落
大得多
汤
买受
马虎
刑应
缴款通知
顾问处
戒护
时换门
其管辖
上不作
虚晃一枪
合营
招牌
确凿无疑
岂可
不年
审出
并记
此张
Xxxxx
恳准
证物
黄皮肤
门会
民航
门和港
其责
店外
向店
店内
呼
局二是
工匠
召集人
迷惑
由多人
偷工减料
天衣无缝
病友
输错
硫酸镁
碳酸氢钠
输注
肌麻痹
惨痛
如住
热电
市政管理
缓冲
缓冲期
货多
现款
封停
以所受
残余
意即
实缴
自不待言
文化娱乐
农具
副产品
商贩
正价
营业时间
天为
易腐
拆封
数字化
父女关系
未标明
一里
索赔人
殃及
问问看
独自一人
保命
非接触性
由派
案时
转劳
满足需要
独任
事违
底本
董大弹
寄语
弄房
时买
商住楼
开发周期
尚失
逼上
绝路
三费
其所负
事例
须经
依职
拘提
管收
虽用
实益
亦非
之平
得命
写立
俟
咨力
或命
查报
收执
发见
益处
即离
促
减轻法
未执
居高不下
文收
商业机会
归为己
宣判有罪
罢免
探头
人嘛
文臣
彧
戏
蒯
枣
郗
桓
韦
邴
娄
分三
先关
出省
谁言寸草
郁
与郁
概不负责
按月计
民主党派
行政编制
民主选举
徒手格斗
格斗
争斗
拳脚
制胜
例会
因何
那怕
区来
运营商
次到
划等号
办清
严重事故
泡水
底盘
变速器
赋得
暮
韦应物
归口
成为事实
说照
完表
立等可取
这欠
房商
如后
因家
有兵龄
一卡
卡要
盖有
印单
四张
该事
名章
再盖
另处
代养
大头钉
趁人
光采
各案
并不多
不战
屈人
之兵
余万
太大意
细说
财不
别找我
要行
乙说
明智之举
飓风
民生
利剑
直指
二庭
辗转
十余
拒接
吃闭门羹
佯装
敲开
信合
两起
入睡
宣讲
被司
持已
恃别
联系方法
如以
亮后
撞直
停气
车越
贬值率
业务收入
客货运输
燃油费
过路
过桥费
归零
疾控中心
由不得
两相
合法权
法所
海关法
劳改犯
加班津贴
退少
试一试
用用
很定
除夜
有怀
验明
宽带
下不返
预想
其日
串休
﹝
﹞
按低
点下
黑劳
央视
播
联动
应由共
此块
典当行
借原
车时
买回来
回着
盗回
身型
勃起
直径
枚
一耳
侧耳
鼻尖
鼻翼
鼻腔
产痕
8cm
活伤度
致颈前
体形
另一侧
肋
消化腺
消化吸收
盆部
6cm
闭锁
会阴部
外阴
掌
肩三大
足弓
双足十趾
踝
髋三大
此步
公共服务
WiFi
无线网
3G
4G
安全软件
木马程序
账号密码
来路不明
智能手机
系统文件
杀毒软件
网上支付
邮箱
诱惑性
网络工具
上留
隔开
自拍照
会续
广度
各块
六块
三块
地理环境
信息业
有区
公假
四百
窃为己
一金中
1360.00
1360
3140
209.00
报有
批准权
弃农
每亩
小聪明
腰包
土地价格
繁华
环境质量
几十倍
完完全全
密度
利用率
纯收益
愈长
愈
和行
仍持
需跨
面子
通电话
荒勾
说道
先欠
有了钱
可比性
套话
具情
XxX
便认
私密
没拿过
几支
小东西
事好
谣传
立契
定见
搬运
方章
财务处
信息部
外联部
首期款
由约
好方
销售价
单到
农税
Tips
信息网
并书沪伐高
薨
胳汰供
咯面
随人
医疗保障
成建制
转迁
人累
保安员
达三人
通风报信
分析案情
崇文门
指可得
曲解
常务委员会
财去
安乐
保重
不愁
人生在世
烦恼
无量
笔直
坎坎坷坷
伤春悲秋
12.2
1.21
车载
纯利
缉
刑事警察
反黑
反恐
凶杀
常设机构
专项斗争
总队
红丸
警种
科等
重案
选调
由刑
总指挥
上刑
持原
花名
及个
转呈
链家
下游
独家代理
节日期间
劳动节
1349
周边地区
赌注
赢取
jpg
wi
ws
查看器
右键
打开方式
勾选
选中
ee
ph
op
工矿
变量名
健壮
贴近
村级
多伐
大操大办
约定俗成
民告官
心不慌
心慌
回过
神来
持能
话加
内移
搜身
荣誉称号
查卦
代拆外
哈说
地税网
某天
堤围
问帮
会计公司
商圈
管理方
改好
闲职
撤掉
咱不哭
不闹
无惊
无险
营改
增后
代开
专票
普票
带征
税负
留个
住校生
校生
离家近
饭菜
学校食堂
加薪
被聘
技术含量
岗级
人事制度
圆圈
圈内
讲车
予付
难能
需走
凭证式
应向本
难辞其咎
一中
失职罪
折股
背信
内幕
期货市场
逃汇
二十六
二十九
灾情
有照
人王
领填
私车
交附
需领
底册
过期作废
纯新
崭新
划归
此举
缴后
缴完
说五险
买五险
选买
元交
最多交
28%
1060
会交
对半交
问五险
从本
优惠证
政策优惠
文后
会费
到纪
可向纪
察院
套餐
违反纪律
生产厂家
措施不力
私有制
经依
除此外
因合
能源建设
批假
指无
院原
奖惩条例
计划经济
旷一扣
除此
劳动合同制
滞
信守合同
按类型
三要素
三步
争诉
其以
早请
#%-
745
收购人
在工
流动资产
优先股
摊销
长期债务
财务顾问
241
242
不履
局会
指挥系统
拒不执
十四种
直面
情感冲动
一见钟情
保健法
木已成舟
生米煮成熟饭
骗来
都市
偏远
山区
臵
沉溺于
意味
十三种
mm
前上
会计年度
日上
附列
日记账
探矿权
采矿权
若原
判不判
保过
庄有
展览馆
强登
泰斗
实审
详述
白银
各款
实交
合同价
大选
开垦费
项里
含销
项税
增值率
数算
照交
若仅
〃
某部
转售他人
wei
xin
管局
时担
易贷
再向法
传染期
可退回
侦后
可尽
已尽
车远过
一百年
治定
拒后
找小贷
报片
哪开
关有
分主
主从关系
下注
按参
被称作
主债
Wh
🤔
上买个
杯
别干
天网
逃不掉
别为
这事判
老老实实
谈个
劳狱
之灾
七十八
杂诗
跳转
条和刑
现对刑
选判
功法
天多
五为
终合
秉持
布莱克
词典
歁
不怠
以函
电等
纯正
均系
范范
法在
年利

税前
郑重声明
我愿
日写
贪心
招聘制
爱要
几把
瞎扯
认识一下
未年
审为
其年
按章
当由
正卷
工作细则
如武
叙说
完全正确
中后
陪审
实质问题
及要
推开
改征
试点
以清
甲供
预征
罪属
但醉
驾酒
小觑
灵光
出假
拒人
注解
跌
保值
挑选出
活人
寻查
9255
文职人员
警官证
特立
此为证
查收
致颈
置入
发际
秃发
8cm2
1cm2
腰痛
固定术
压缩
前缘
二趾
跗骨
患肢
Ⅴ
眼支
眶
内陷
泪器
溢泪者
31dB
71dB
发声
畅
铬
鼻病
4cm
肺内
摘除术
膈
局性
剥脱
胰
卵巢
成形术
一家之主
肆无忌惮
茬
正月初一
清明节
端午节
端午
中秋节
权所
浓重
中载
物化
显现出来
受制于
令出
多门
ii
奢侈
豪华型
全性
矫形
二三百元
银联卡
1088
卖契
墙界表
经房
产管
弹劾
函后
阴性
故其为
故可
有别
管理型
要交印
书亦有
查册费
哈哈哈哈
融入
良言
处下
rn
胶卷
拍卖法
拍卖人
如未达
不杀
平民愤
关键环节
村办
并供
非常设
招股
增名
现要
财权
某张
废掉
叫价
落地
勘估
产权处
至该
一环
审贷
到查
拳出
几步
安居房
调前
一票
一股
资合
悲伤
找寻到
美好未来
由医保
付线
起付
一比
常由
变化无常
千万元
数亿元
数十亿元
冰
打折扣
脚印
查无实据
重点对象
管理效率
煞笔
元不构
大嘴巴
参差不齐
增加利润
师答
宁愿
花多
人高
应自该
到刻
章厂
税证
公司债
两合
控制关系
人事安排
受本
与义
亿五
领购
处报
特种行业
广告行业
广告业
日须
招入
平静
良好基础
会婚
栋
日购
详定
每星期
共元
由方
金元
费元
码外
感情用事
追悔
选区
订货
超计划
烟厂
销售总额
不能治愈
随外
内院
般判
重能
内仅
按下表
业绩考核
禁售
解禁
权日
税函
461
各次
本年度
施权价
价差
净收入
税发
482
902
所发
各层
相乘
第三层
29%
慨念
登记日
解锁
公司业绩
公开市场
实施方案
收盘价
施权
学具
疏漏
管理混乱
行为准则
异常情况
偶发性
你治
卧轨
问题解答
夏季


发芽
否立
刑第
化品
再次出现
AcFun
弹幕
视频网
再活
五百年
配以
大哭
微博下
猫扑
服务区
暂未
置评
粉们
AC
直在
别用
爱发
发儿
要冲
猴
爷们
宁可
凸显
二次元
爱好者
聚集地
投资方
奥飞
002292
软银
优酷
土豆
363
净亏损
1.13
71.37
1.46
权之争
站上
哔哩
动漫
稀少
澎湃
创办
利欧
静观其变
观众
作茧自缚
等待时间
整车
既要
概言
送监
补送
对尚
常人
硬行
偶而
受暴者
暴者
特殊照顾
刑释解教
门应
符
按国
所和民
办报
禀
晓融
巴巴
虚拟空间
似
称号
白富
一票人
遥想
做广告
嘴边
反复强调
唯恐
开过
神助
销量
喜爱
含金量
无吸引力
宣传点
更广
拾贝
rk
日新
品牌效应
意为
远非
拉动
蒙牛
品牌价值
形像
徝
争创
际化
竟争
走向世界
敲门砖
起而行
数亿
百亿
数千万元
认驰
IPO
广告效应
诸多方面
专有权
不断扩大
均予
范围广
仅仅只是
谨
父命
遗言
坞
亚裔
女星
长久以来
琼
巩
怡
艺人
撕到
出演
脸谱化
二番
三番
票房
中流砥柱
起用
一阵
认可度
非同一般
人种
夸大其词
失落
位列
天朝
四旦
名号
台面
2.7
整宗
2.10
整幢
核档
含共
获赠
港澳
3.7
3.9
3.10
3.11
3.12
3.13
门换
证卡到
建国
残废军人
床铺
未收
为产证
非沪籍
适时地
1.25%
失物招领
设地
并定
参拍
追高
应价
纠合
全球通
I8
б
5I44
59I
无风险
大公
账后
杀毒
其他软件
gh
t8.0
8.3
必装
瑞星
卡卡
流氓软件
插件
垃圾文件
临时文件
系统资源
变慢
Wi
优化大师
数据恢复
误删除
Ea
v6.04
汉化版
如违
育人
历史观
文化观
带动
率先
学雷
体制改革
均等化
廉政建设
386
物罪
来源不明
监管场所
时归
如除
审判制度
未填写
中文翻译
因未
成员名单
附页
45.10
大类
因债
映射
种条
向债
清债
清晰明确
借壹
快迅
理条
由债
仅存
作手脚
市志诚
同间
异字
Q
链断裂
参贷
卡户行
四家
太平洋卡
龙卡
牡
银监局
多写
少写
送件
无价
先天不足
休戚相关
调查者
屡错
屡犯
乐趣
与此无关
处办
从付
加已
发时
过发
协查
派交
贻误
适应症
功能主治
以仁
较广
恶性事件
存款额
天由
心证来
内部联系
函发
购购
瞒天过海
曾令
底版
无档
空置
软盘
省得
白跑
市为例
一遭
原封不动
底牌
好几百万
仍不愿
换票
主导作用
以泪洗面
难眠
吃不下
坚持下去
死心
摆渡
智斗
辛酸
甜蜜
保鲜
哭闹
埋怨
冷静下来
症结所在
腻味
惊喜
乏味
美满
调剂
玩乐
救命
无药
可救
以守为攻
地势
天时地利人和
选准
弃城
进攻
胜券在握
我象
恶人
二十岁
两人同
l52
抢过来
束手无策
延期付款
围追堵截
日理万机
291
畜牧业
渔业生产
该章
罚没
兼容
驻点
原受
或供
若房
市房
年办
可要
建宅
长放
卖地
主导者
抢购
推动力
相较
房不受
本乡
非本
停建
微乎其微
缺位
之规
来确
反贪
反渎
控告申诉
顽抗
身败名裂
东窗事发
蠢蠢欲动
勤于
揣摩
纪实
苦心
旦
付诸实践
外衣
肮脏
雅贿
漂白
神不知鬼不觉
将行
番
冰山
贤内助
好儿女
从旁协助
有恃无恐
胃口
不断更新
洗清
贿款
后算起
歇业
清算人
第二十一章
派人参加
造具
交他
运至
医学专业
第四十七
离所
要数
无休止
凭三证
无话不谈
否有
不可教
句式
较妥
其会
鲁说
悬在
斯之剑
慎戒
罪愧
祸首
家信
家书
带给
难逃
全卷
解密
供其
不一
驱逐
成名
阶下
之囚
透彻
摆正位置
近百
处决
辩
针锋相对
公正司法
端正
适可而止
争一言
短长
得理不饶
握手
充分肯定
所鉴
外化
周密
樱
新任
出席会议
qyj
saic
到工
去工
质监
衡平
拖沓
一人立
分自书
在编人员
拆分
姿料
下该
以平
贷人时
高较
各是
新潮
下点
为贵
诈取
多不多
大而无当
奇特
极富
获判
就会令
侵财
践行
互赌
四方面
风尚
工对
其当
工不应
工就
想扣
不原
人身依附
逐月
同微信
方将
山场
省辖市
师可
继办
次性
本户
门相
用章
会计处
华夏银行
华夏
农业银行
金穗卡
光大
民生银行
开取
如未建
总款
如主
什么游戏
好几百
扰邻
文化部门
顶一下
加盟费
倍增
不伤己
人脉
孵化器
弯路
分配利润
应冲减
687
今早
上补
前经
土地属性
指村
何谈
按说
公休日
207
欠货人
企业形象
内接
紧急状态
抢险车
证办
局办
即房
局来
第八次
为刑
研
本解
手机卡
技术支持
以本解
202
获脏
复字
明发
经研
1046
半价
发研字
入网
话业
总时长
武装部队
骗免
通行费
军人家庭
艰辛
择偶
敬而远之
制及
定语
blank
伴生物
欲求
据北
某区
14%
转轨
离婚者
尤以
组与
0.001
程度较高
购买权
异议人
主管机构
ACRA
商行
商业机构
新币
宣誓书
受任
审计师
需于
准证
连任
决议案
地盖
帐时
财务报告
表并
一连串
先由劳
生产关系
统治阶级
走非
项规
经鉴
于质
托靠
负担重
购药
配药
保险卡
需附
门特
留观
急病
经下
人答
经区
统招
买断
因购
或建
心可
用住
偿清
心为
印签
凭住
心将
其住
第三套
实体店
说个
伤及
朝人
用手
表皮
出乎
月度
只缴
缴杭
2722
一周年
换款
优优
太早
优优有
拉下马
连家
急出
这下
完蛋
公主
完成学业
真真
家道中落
避
吃吃喝喝
姐们儿
没少
花心思
追优优
家世
死忠
粉
优优发
走心
十年如一日
兔子
孤单时
撒网
局子
得意
失意
挥霍无度
比富
羞辱
祖宗
情景
堵死
没想
伸出
援手
拥簇
看不起
优优真
能救
水火之中
风吹
自落
策马
涯
喝尽
世态炎凉
🍵
信访局
遗洒
飘散
顺向
追撞
200X
判项
业经
现该
全中
白去
慢要
多大仇
直经损
除向
某君
耳边风
威力
夫人
多多少少
孝敬老人
三角债
帐结
杀鸡吓猴
累累
出于无奈
自由主义
再经
盐业
储运
二十吨
十吨
一百万美元
五千本
一千五百
万份
退币
退分
钢珠
电子游戏
赌博机
工资管理
﹪
下实
应补
经济体制
净剩
地上权
佃权
君权
父权
择婚
中尽
上文为
法邦
卖方市场
要慎
会馆
游泳池
绿地
有大
水泵
买房者
借此机会
筹到
糟糕
开盘
不翼而飞
托儿
兴旺
拟好
还空
空白处
万分之三
自知之明
养母
随带
未归
长高
资源法
地质
产等
其可供
采挖
砂
粘土
区采
防
圈定
水利工程
风景区
历史文物
全局性
战略性
井
采场
设计部门
四周
钨
锡
锑
离子型
稀土
越界
三令五申
床及
采主
综合利用
产不采
按合
采富
弃贫
采厚层
薄层
采易采
弃难采
采林
体弃
体而
回采
贫化
率高
回收率
补费后
月算起
人补费
月续
须受
养小三
应互负
此等
近于
工还
力极
脱失
²
髓
并伴
征者
指端
足掌
Ⅱ
度及
睑
或睑
闭合
全行
成形
睑下垂
盖及
睑球
转动
正常者
瞳孔放大
巩膜
穿通
26dB
56dB
前庭
闭眼
并足
站立
无症状
嗅觉
颞
面颊
部有
单侧
鼻孔
面瘫
闭式
引流术
增厚
减退
氟
无机化合物
滑囊
炎
减压
骨坏死
一度
牙酸蚀
热恋
年免
之王
未因
诈方
这中
只准
一业为主
兼营
他业
刻制
平衡表
年检费
一千万元
BT
核拨
第十一章
起施
一九八
二十六日
一九八二年
一九八五年
二十五日
信贷资金
前后矛盾
清淅
诉到
有鉴于此
防疫站
排污
审图
社刻章
食药监
申新
往年
注册手续
做大
门槛
看定
正所
●
☆
户籍誊本
旅行证
____________________________________________
自传
民到
保障部
自由职业
台商
及港
人上
经检
它项
新产
拉产调
婚证
极少数人
三罪
齐告
要强
歼
存储空间
软件开发
赔率
无收
十七日
留个心眼
看客
未可知
无能为力
至捷信
即定
二颗
检案
口唇
发音
涎腺
tieba
回绝
会向法
首审
职较
串出来
判觉
各市
条查
余数
年计
写山
虚数
他生
推荐表
减低
五险书
一金及
受劳
若高管
蓄谋
以期
补卡人持
新发
用本
可办
影象
律性
变动性
应变
性所
精神鼓励
先进集体
律未
恒定
公司债券
低业
股利
大笔
体衰
多病
单说
重获
同谋犯
严不
哪才行
方由
构成威胁
小说吧
用心险恶
反以
第一眼
屏蔽掉
围攻
周内
生不
每当
宣言
.................
切实加强
杈
景
故戴
受入
未定
使该
之危
该协
且劳
决用
拉皮条
选房
以子
当上
坐拥
坐享其成
之太易
拳拳
刻苦
心志
倚仗
在握
阐释
时亦多
说破
最多告
没人告
聊天工具
忠于职守
账册
重要文件
学龄儿童
学籍表
亿人
属本
芳
1939
1977
明是
胞兄
明同
妇愿
妇为
辉以
芳尽
辉应
街号
财政厅
抛物
掉落
危险物
法定人数
所限
两重
拍卖业
出资者
季度末
费等外
抚助
女须
女即
赡费
讼累
亲为
其无房
无自
收音机
书报
晚年生活
进才
暗
卡壳
过暗
过强
灯泡
该换则换
刹车油
皮是
过脏
含水量
过高会
偏软
磨耗
异响
准建证
建盖
户口册
泥石流
学杂费
唯一性
父债子
不偿
需该
巿
只原
在此之后
进法条
旺旺
认责
先补理
秋灾
现场直播
现场表演
录有
发行权
完整权
一了百了
受苦受累
慢慢来
省吃俭用
完钱债
沉迷
迷糊
上瘾
会离
得求
嘿嘿
难戒
解毒
还情
吃喝
能花
赌上
瘾
劝人
自求多福
好死不如
安然
静好
华年
行式
找寄样
视屏
如英
十一五
家级
公告牌
归结为
•
车拉
4S
只花
予许
报保
四到
需找
掉销
禁考
随打
随接
慢点
第九步
所向司
院根
十步
票居
带服
1787
美利坚合
1789
迄今
判点形
明信
无该
母兄弟
缺项
坦等
加做
译文
语种
份起
aT
看窝
总收
办公用房
人职
任命书
主办单位
局已
院和公
勤快
高端
账户就
较后
合肥市
服务指南
持由
单建
4.5%
8.5%
救助金
需男满
重叠
爬楼
堵路
厢房
压迫者
隶制
起义
领袖
毋宁死
豪言壮语
将相
有种乎
诘问
举起
均贫富
可歌可泣
纪欧
封建
专制制度
神权
天赋
断言
1776
政治纲领
生而平等
造物主
系得
被统治者
那末
年法
公民权
写进
生来
载入
神性
性中
引伸出
起过
思想解放
法化
披上
资本家
榨取
脂膏
无产阶级
民便
口号
或多或少
伪善
本性
精神财富
恩格斯
选集
273
十月革命
虚伪性
殖民
到帝
殖民地
霸权
纪初
短短
发动
空前
浩劫
二战
为联
1948
系统地
民和
努力实现
1966
年联
任择
议定书
民族自决权
发展权
纲领
各个领域
意识形态
宪章
对峙
共处
批新
政治舞台
权观
框框
1968
德黑兰
权新
强调指出
永无
自诀
反帝
反殖
反霸
种族主义
殖民主义
永恒
纪末
不时
旧时代
现时代
马克思主义
基本原理
人权观
肤色
政见
割断
相互尊重
太广
查外
令去
空洞无物
社会存在
久经
自卫权
别国
自然法
古典
学派
引申
会员国
理事会
国际交往
独立自主
侵略者
还击
物和事
统治权
属人
外交事务
位次
豁免权
对称性
行使主权
他国
互不侵犯
国家元首
外交特权
外交途径
裆
对政
会委
该委
通报情况
会谈纪要
或制
不愿立
录音磁带
近几年来
日趋严重
电力行业
明礼
电力法
电力供应
催交
元者
经普
费不高
中先
______________________________________________________________________________________________________________________________________________________________________________
____________________________________________________________________________________________________________________________________________________________________________
正中
简明扼要
及应
特向
积累基金
主要用途
内且
汽车贷款
需花个
两三天
汽车品牌
快且
对致
gsxt
如天
威尔
朗
巡视员
确对
Pr
下半年
部委
用纸
水印
防伪
底纹
内页
光线
平铺
以人
与民
照章
免税额
海关检查
牵动
拆换
构件
分娩期
蒙受损失
生活实践
千到
对养
养后
款留
展期
以资抵债
批贷
中意
换家
可换
认不
hu
zs
so
公户
票到
再付
起至
劝诫
犯杀
依序
产籍
工程规划
恐
案功
书交
费男满
圈圈
转变观念
课堂教学
智育
育是
地使
一个终生
将职
课堂
育点
实验场
共同完成
化大
铸就
评分表
日常行为
各班
寝
旷课
仪容
顶撞
晚修
游动
类分
课室
分可
加分
减分
监督岗
评比
班级
三好学生
优秀学生
尚奖
标兵
军训
评优
评先
渗透到
角落
优秀品质
平行
集中统一
爱好
特长
为职
志愿者
服务队
锣
篮
跆
潜能
共同进步
才艺
八节
学分
多维
工学
四环
教学模式
练就
组织纪律
毕
培养目标
吊儿郎当
焕然一新
爱岗
敬
领悟到
不可偏废
有道
做起
去明
所辖
需地
续接
二地
庭去
某某人
特写
相欠
日注
复写纸
要调
望能
数字证书
先凭
预核
店名
证在
对烟证
烟店
卖酒
酒类
十几块
征订
经营规模
搞好关系
质监局
品外
零售业
独占性
附加值
功能型
潜力
铁观音
绿色食品
奥委会
篮球
闪避
😔
带卡到
自领
人社
借记
人可持
卡到
ic
其月
方无
硬盘坏道
坏道
重装系统
不才
你些
DM
后装
HDD
系统盘
先试
重装
我下
有坏
试下
你会装
WINpe
内核
四区
好慢
fo
read
erentryremoved
HD
ne
看吧
俄罗斯
禁忌症
劳累
或进
不好受
星际
系统集成
秘
计算机信息
学历证明
损益表
信息产业部
集成
持本
第四十四回
孔明
用智
激周
决计
误用
拿错
换用
骗财
公债券
买货
和纪
是纪
ptr
stu
或父
安全检查
联络人
大表
工商网
如沃
保网
局是
归劳
年费及
自上
险参
人武部
从军
老农
缴慧择
网费
前参
后顾之忧
长期以来
省人
副厅长
收支平衡
资金平衡
精算
实收
先主
向主
缴足前
及业
企业债
栗子
累计额
未知数
找点
最多话
社会效益
可找
凯德
护肤品
伤前
按浙
20.64
县市区
1486
全交
日止
听者
各存
略
合开
一夕
主营
放可
tm
生产实践
性非
no
ss
习知
技艺
pr
熟习
功效
进步性
ob
ad
充份
新颖
成熟性
先进性
写稿
笔尖
造出
外形
语言表达
法律合同
笠
费神
仔细检查
肩
不合规定
电子注册
客户端
寄交
托交
外交关系
第三国
爱国
非业
学院
结育
布满
患子
按经
保险机构
入园
领会
茫然
园出
直言
一怕
生源
保教
精神压力
无穷的
在园
避兔
针将
以兔
事敌
其所受
互为补充
保险期限
课外活动
教基一
发出通知
小学校
团要
治校
科学规范
竞赛
挤占
艺术课
要集
反响强烈
热点
科学安排
课业负担
走读生
寄宿生
自习
家庭作业
正确引导
邮至
原代码
新编
务所
后定
电话费
理机用
个人所得
通知函
理时
理所
迁址
理完
统计表
帐务
理报
证明单
服务站
联系卡
务征
消防系统
蛮长
说不清楚
分配任务
推广应用
会计制度
从优
利从
未入
局开
回四
原社
非广
一视同仁
转续
信息库
武术
电脑培训
缝纫
一届
变上
拼接
挖补
印模
引指
不舍
忍痛
准迁
表去
现籍
欺瞒
停牌
斩停
买全
3.5%
割破
失血性
84.7
杰之父
京报
国处
心官
金托
区公
按公
看原
买套
真酸爽
未明
好伤
陪个
够用
立方
核销
‚
税银
划税
凡大
建帐
消费税
大国
国家税务局
双定
能交
中涉
即持
遇期
需选
核批
保需
防御
寓意
个类
类目
园艺
未加工
人造
合成树脂
塑料
合成物
淬火
鞣料
工业用
粘合剂
颜料
清漆
防锈剂
着色剂
媒染剂
天然树脂
画家
艺术家
箔及
洗衣
漂白剂
擦亮
渍
研磨用
肥皂
香料
精油
洗发水
牙膏
用油
润滑剂
喷洒
粘结
灰尘
马达
照明用
蜡烛
灯芯
兽医
膏药
敷
填塞
牙孔
牙模
用料
消毒剂
真菌
剂
除莠剂
合金
铁轨
金属材料
缆索
金属线
小五金
金属管
保险箱
别类
金属制品
矿砂
陆地
传动
联轴节
手工操作
叉
勺
佩刀
剃刀
测地
衡具
量具
营救
磁性
投币
启动装置
数据处理
加温
蒸汽
烹调
干燥
卫生设备
海用
运载
火器
军火
子弹
焰火
镀
宝石
钟表
纸板
印刷品
装订
文具用品
文具
画笔
包装用
铅字
印版
古塔
胶
树胶
云母
塑料制品
金属软管
皮革
皮革制品
毛皮
箱子
旅行袋
雨伞
阳伞
手杖
鞭
马具
非金属
建筑用
沥清
柏油
碑
镜框
软木
藤
柳条
象牙
鲸骨
贝壳
琥珀
珍珠母
海泡石
代用品
厨房用具
所制
梳子
海棉
刷子
制刷
钢
丝绒
器皿
瓷器
陶器
缆
绳
帐篷
遮布
帆
衬垫
填充料
用纱
纺织品
罩
花边
刺绣
饰带
编带
钮扣
领钩
饰针
假花
地毯
地席
席类
油毡
铺地板
帷
娱乐品
运动用品
圣诞树
装饰品
野味
肉汁
腌渍
干制
煮熟
果冻
果酱
蜜饯
奶及
乳制品
食用油
咖啡
可可
糖
西米
面粉
谷类
糕点
糖果
冰制
蜂蜜
糖浆
鲜酵母
发酵粉
芥末
醋
沙司
调味品
调味
谷物
种籽
草木
矿泉水
汽水
含酒精
他供
烟具
火柴
实业
贮藏
展出
学术会议
原子核
人己
智囊
大锅饭
地铺
小黑
发大财
喷子
流弊
快去
小龙虾
已开
七十多
信息系统
为防
未同
属常业
骗得
7W
还信
NB
竞争机制
1990
标定
及西
价与
楼面
总面积
摊到
可摊
并非如此
异体字
简化字
冷僻
夹杂
乳名
学名
谐音
僧尼
还俗
粗俗
序良俗
或易
原名
栏上
祖姓
光大银行
中国光大银行
存缴
急需资金
工薪族
用公
网银后
提款
来放发
信秒
点贷
快贷
网捷贷
金闪
现只
像北
想拿卡
要变
需线
生活水准
应由来
为灾
出是
创业者
做者
劳苦
各个部门
怪不得
尿不湿
难不成
空在
该拟
祥光
以担
条条
产钳
场上
升降
台警
已改
国旗班
弘扬
主义精神
己任
当代
精神风貌
为武
戍
哨位
扩编
经党
礼炮
历史使命
转隶
威武雄壮
阵容
物价管理
津价
房地
438
拿会测
应满
户政
门须
人如系
已进
或报
专业培训
本学科
诉讼法学
经济法学
会计学
思想作风
工作作风
专业本科
内侧
漏缴
活费
应归为
逝去
活等
广东
晖
国晖
咨询中心
止险
培养感情
尽孝
答者
量力而为
家龙
宫
高空作业
高低温
按其满
招考
木料
改是
程序修改
新闻出版
药监
时断时续
保障型
债务缠身
市住
因资
用得着
用得上
中心环节
大可
多涨
确准
茚
批注
ISO
1.315
食品药品
寿终正寝
而亡
捣蛋
认了
劫走
方除
交将
按质论价
补上
同义语
出版者
出版业
领地
许多种
出版权
修改权
发表权
署名权
播放权
朗诵
词源
原词
天赋人权
公共政策
下视
人无远虑
必有近忧
版式
装帧
邻接
制作者
它性
广播电台
出版业务
如欲
公登
意料
交不
空档
中缺
排版
专利公报
单行本
第三年
维持费
经对
著录
座商
摊商
份核
由香
明书
理暂
县分
理发
人名录
照应
报样
资已
选址
发漂
按出
入资
请留
会计证
五枚
约订
比实
更变
降新
un
g8
断缴
缴均
从以
会会
95.8
66.84
快赶
8.25%
ce
wfjb
집
에
내
县公安局
有商
转公
产已
钢混
期在
上算犯
天欠
趋同
心里有数
验货
环保型
保修期限
๑
̀
ω
́
筹备
贷记
跨行
金融区
小小的
胃痛
非处方药
每换
六七
张卡
想想也是
社区卫生
工商行
扶贫开发
退伍费
各界
动等
优抚对象
力且
张榜
托村
过早
6550
没票
产道
270%
320%
420%
买满
各不一
诉其
找维稳
有批
提早
维稳
答辨
覆盖面广
拒保
可报
高新
后报
重疾
货运公司
蒙混过关
货主
细看
携货
阴险
少填
上船
加价
中列
悔之晚矣
双赢
无利可图
签下来
对要
信息流
产生误解
灵丹妙药
连根
十全十美
某一方面
见效
操之过急
寄予
匆匆
经过努力
中间性
订好
填交
货运单
货件
发站
押运员
开箱
填明
到货
班列
班轮
航次
班次
短少
切实有效
货损
水路
水运
保价
改下
嘿
环评
环境影响
建成投产
痒
止痒
勾搭
风景
真像
局自
商机
人继受
金月
低值
修住
时住
限公
加一
宝盖头
及花
有会
查询方法
矜
勤工俭学
繁杂
课题
区外
嘱单
核对表
保定
低得
要个
新手机
苹果机
一两千元
指正
落上
绩效奖金
甲法
乙法
某法
甲条
乙条
排出
监督机制
立法法
法将
经全
员们
羁束
出口配额
批给
乙时
好于
科以量
显属
元则
行政权
所中
劳教所
认尸
只付
着物
建在
女上
即时通讯
仁人志士
崇高目标
保障机制
胜利
一幅
终极
三权分立
自由竞争
守夜人
价值体系
一杆
标尺
家应
分权
对立物
强权
宏著
205
实定
暴政
精义
墨
帆译
南京
秋季
微观
参政权
制度性
主体性
越强
宏观
深入人心
纲领性
集会游行
徒法
黑格
有句名言
实处
徒有其表
序言
官办
历史教训
那得判
📁
看柯
股红
牛牛
作日市
私证
疑义
牢时
收尸
过命
往死里
有望
六十天
满至
劳服
五七
日及
填入
票贴
章社
方型
询征
刻章社
监督局
自分证
各别
发改委
尺划
一支
动议
良好环境
榜样
抚平
职工队伍
非深
跟交
地写
疾
档级
疾证
疾人
联可
数周
入窗
守候
集结
接地
测法
停顿下来
休满
应休
没休
因少报
社评
植
元件
病理切片
每具
开棺验尸
好才行
调税
从产证
未止
记税值
出大
坏蛋
本去
办办
狗屁
不得了
不耐烦
公用企业
千预
搭售
畅销商品
搭配
滞销
高质
拖带
推地
高房价
纪律检查
人确
行政监察
领导人员
受刑
发过来
邀请函
开就行
回程
序号
假调
经一
分厂
抬头
发照
商业广告
依法制裁
空有
1096
200.00
时少分
这桩
可在社
化证
ical
ts
第八十八回
泸水
缚
王识
诈降
三擒孟
脚本
票上
质检局
按定
开边
覆盖范围
控制程序
国标
来换
打谷
晒麦
扬场
积肥
拖拉机
挤
放牧
牛羊
牲口
畜力车
摆摊设点
市貌
过街
林横道
隔离墩
抓人后
百分之九十九
我教
相争
著
该件
共写
化学式
清晰度
仍能
出图
或子
四十五天
发原市
请产前
就领
原市
假可
格次
053
8606
电子信箱
zf
gk
bgt
sd
中世纪
君主
敛财
名目繁多
窗户
灶税
烟囱
古籍
周礼
廛
唐代
间架
清代
房捐
发达国家
小辈
参团
所规
解困
侨房
没改
成反比
十几岁
数不胜数
指界
本规程
办公设备
议事规则
拟任
原所
人事管理
当次
搭桥术
移植术
终末期
TEL
-----------------------------------------------------------------
科学家
新名词
逗
巨量
数据资料
人脑
软件工具
撷取
可视化
并行处理
MPP
数据挖掘
电网
分布式文件系统
分布式
存储系统
神奇
八七
三儿
四二
五零
凑热闹
惟有
极限
开源
崛起
结构化
数据服务
致可
Tr
iti
rpr
CR
ms
ERP
传感器
chin
呼叫
R
智能仪表
Digit
xh
ust
ci
Twitt
商业价值
发掘
整条
业界
um
ri
city
个基
体量
10TB
PB
数据量
其新
1PB
1024TB
千亿
200PB
数据源
日渐
冲破
数据类型
绝对多数
处理速度
实时处理
各种类型
愈发
新一代
结点
数字家庭
运算
出巨
社会变革
洞见
yy
Kr
hn
卡内基
梅隆
信息产业
引擎
业态
不断涌现
软件产品
关键因素
各行各业
零售商
市场动态
公共事业
抽样调查
社会科学
量体裁衣
极高
实境
装有
模型模拟
API
云端
用量
亚马逊
诺基亚
如中
彩云
流失率
中小
CRM
而贵
飞信
老客户
特价
售前
IPTV
商用化
地为例
优惠券
汉堡
频次
实时性
广告业务
盘古
净利润
制造业
亿美元
管理水平
交通流量
路径
交通状况
高性能
清醒认识
地会
人工智能
亿万
流感
无用信息
不夸
开运
IT
哲
IBM
Or
Am
rc
油井
金矿
广阔
新机遇
技术创新
共进
愤而
有苦难言
转身
由济
等定
小行
次用
内需
次经
会封
懂吗
票款
그
某市
某房
❓
判理
交互
私解
得款
国有股
法人股
价在
价并
价应
监拍
拍卖无效
调议
编立
调确
部颁标准
该户
腾让
典期
典价
承典人
原典
零售价格
宽宏大量
佛缘
不记前仇
新家
忘掉
痛哭
二钱充
预产期
不值钱
1496
x12
x43
限深户
7480
3216.40
7480x8%
3057.17
3216.4
6573.57
护场
客轮
设赌
泰然
一笑
投影仪
布上
input
VGA
Me
ck
借借
分高才
交些
百余
办新产证
老产证
收掉
新产证
独吞
卡死
首减
硬道理
从进
攻略
课件
那节
低齿
生育率
姑表亲
情是
人治
零散
统计局
农转
指本
村有
文祥论
星
认述
实会
声光
拆为物
不拘
亦应如此
商报
功作权
重试
归定
一个样
试一下
议法
同税
泼出去
脸要
mei
天不含
不懂装懂
简单明了
百分之几
院已
各奔东西
薇
呺
kk
558
5881
没卵用
假章
见个面
签大
毒赃
免疫力
血红蛋白
低龄化
静脉注射
反应迟钝
神经衰弱
失眠
生殖系统
畸胎
死胎
飘飘欲仙
白面
恶魔
扼
镣
公害
中药
推向
风口浪尖
生涯
阶下囚
论辩
胆略
乱摸
连贯
上装
ll
清热
果体
片片
分半
攻关
要父
突然袭击
没有防备
临之
两人及
制伏
起先
防为
转化成
方时
紧追不舍
杀伤性
重大事件
抗压
帮则
吸血鬼
自作孽
别着急
高官
九百多
水来土掩
37.7%
59.51%
0.045%
随借
拴
7.2%
太是
债有主
来日方长
惊人
分息
栋梁
人生价值
以身作则
三观
全局
总分
单品
忍不住
仿制
伪造者
因出
持票人
结后
赔礼
本无事
庸人自扰
破事
顾不上
歇会
喝喝
别忘
搁
岁光
玩游戏
小子
辟谣
梨
仨
闪到
辨护
自由自在
悠闲
起家
度全
倍加
本前
办家
按民
事部
民发
我欣
慰
它会经
常出
惠活
来照
7798
sc82
xinll
net
ld
人气
翻本
负数
程序控制
输进去
很稳
刚输
蛋蛋
幸亏
输死
ie
ed
whichpoi
网路
カ
鸣门
国纪
莫属
sdsg
dxex
kdrh
U盘
插进
放电影
鼠标
插上
后会弹
对话框
迅雷
能装
回不来
开水
十多分钟
买本
豹
越怕
越会
时不入
回见
给力
最多算个
不算什么
罚点
同判
工读学校
扰乱治安
数定
5.0
侮辱性
看扇
办不办
看样子
喜不喜欢
修正主义
羞抱
琵琶
半遮面
不识庐山真面目
玄之又玄
奇妙
无穷
以规
治党
两条腿走
文人
政治文明
儒
实用主义
连祖宗
八代
臭
航母
力变
复古
王八
送法
补章
需好
难容
惩前毖后
治病救人
浪子回头
所律
卓凡
仲恺
侦查员
村叶
使司
本司
2O
又系
庭对
判长
所依
庭应
该债
不欠
会盟
五十多万
算上
57.5
从义
主欠
子卖
系合
58.5
53.5
换锁
渑
707
抵顶
俊
抵给
向购
批而
未用
叫停
三中全会
严守
在售
配合默契
从许
炸药
从田
胖子
见山
并刑
对许
向许
七次
奇
中年男子
找田
给许
天给许
到许
钱时
经别
次许
跑腿
缘于
年王
日许
过马
洗煤厂
座
非王
老马
片言只语
因许
过许
称其
旅游费
告许
点钱外
干过
日谢
塑料袋
九十万
家办
石水
称王
其临
次次
天向许
请史
个证
说王
对王
且许
拿取
为许
倒退
比田
处拿过
用许
陈了
干干过
某犯
闲鱼
pan
1IB
JrYQ
0f7u
谘询
变本加厉
明治
国会
2022
人口老龄化
由想
市人
庭交
系为
渐
落下风
托辞
奏请
圣驾
比试
除掉
大点
每项
嫁过去
别管
退个
apo
起版
本数
四五千
年资
降低标准
走人损
相向
蜀道难
所答
弄错
案中案
所幸
隐约
躲开
指责
凑巧
无其
查其
鲜有
常所
魅技
下单
一拍即合
为态
形诚
鼓历
还照
内部网
直要
新去
从古至今
换种
芝
敬业
大汉
梦断
紫禁城
骑兵
外块
议事日程
菠萝
啤
部令
👌
伊斯兰
不信谣
十四个
教学楼
牢狱
玩笑话
大龄青年
假证
小团体
戏弄
恶作剧
卷入
抄袭
剽窃
万美金
零分
千辛万苦
掏枪
语言不通
警匪
种族歧视
世界各地
熔炉
其他同学
脱口秀
奥巴马
穆斯林
黑人
美的
若遇
切不可
主权在民
制社
归西
体是
君主制
牙人
构筑
本宪
蒂
牙语
语为
官方语言
旗由红
三道
每条
创
陆海空军
扞
卫西
受宪
阻扰
开化
权的责
世界人权宣言
何出
殊
入籍
仅西
引渡
或社
第一分
拷打
非人
牙社
天主教
教派
全的权
其权
律条
屋主
别是
律应
迁徙
艺术创作
此权
预先审查
共单
青少
平集
该权
游行示威
社团活动
准军事
参与权
下担
民权
民在
益时
预先规定
招认
时据
所行
重返
基础教育
教育体制
第九款
持社
请愿
第二分
民的权
以社
税赋
立在
果
益为
庭在社
充分就业
护为
共社
旅居
策是
改善生活
或视
各族人民
律地
全社
策所
为青
化发展
感觉器官
服务体系
从速
向宪
节所
例行
护民官
汇报情况
武装集团
恐怖分子
副署
历代
朝合
波旁
世袭
长幼
顺序排列
前支
支系
长者
少者
何宪
律摄
摄
按宪
权者
本生西
鳏
寡
登基
首相
候选人
部长
显赫
赦免权
大赦
主事人
大使
外交代表
驻西
使节
命及
由众
四百名
普选
为省
休达
各选
每四
侨居海外
前众
期四
每省
四名
屿
大加
戈
耶
帕
每地选
本选
中担
警察部队
军团
选举委员
受司
考网
www.51
test
show
obew
ua
父之念
出题
汇编
第三十一
布自
第二十一次
行班
321
批转
第二批
信访工作
与行
章及
范性
...+++++++++++++++++++
老龄
慈善
局服
基本方针
着力
三中
四中
邓小平理论
于外
外合
料及
于金
贸易部
于合
外投
用租
业品
机电产品
对外贸易
合作部
申须
计表
列名
第七批
制经
开发性
流通业
初稿
律哈
坦
卢森堡
上避
约克
卫普
1974
由金
司租
广电
面下
小雨
神秘
三下
船头
灯后
汇聚
一艘
机帆船
船上
圆圆的
缉私艇
WTO
旧轮
部和税
减税
今年年底
废轮
炭黑
橡
密封圈
委的
再生资源
多万条
越发
和利
亲和性
万条
新轮
斜交
在世界上
巴不得
抗热
机械性
降解
蚊虫
垃圾场
全息
多万美元
目测
内轮
装车
子午
长姜
全力支持
法制化
以旧换新
集散中心
贪图便宜
亟需
用法
即交
如认
筹金
指某
想尽办法
受美
以青
派权
X3000
江省
席位
抽签
事实真象
违法不究
人贩
贩卖人口
邢点
---------------------------------------------------------------------------------
严刑峻法
严酷
小分队
好比
课文
商鞅
变法
连坐
强盛
席卷天下
序八
同列
厉行
苛政
冀望
于千世
万世
一夫
作难
七庙
隳
身死
笑者
十数年
治世
后患无穷
紧接着
礼刑
璋
乱世
重典
明刑弼教
弼
杀官
一茬
气得
捶胸顿足
官吏
奈
个别人
几千年
我举
一个点
崇拜
呼吁
已显
逼仄
难收
徒增
公民自由
约法三章
父老
杀人者死
及盗
抵罪
-----------------------------------------------------------------------------------------
杀人灭口
今亡
大计
可乎
犯多大
轻罚
益都
生还
逃出来
贫困山区
简单易行
深得民心
1983
路遇
红头文件
彭
自古以来
再能
重了
分支
吐槽
微博中
名言
抨击
深有感触
存废
维基
伤好
并提
另诉
感谢您
直通车
概少
梗概
全懂
要学要
考要
伟为
脱岗
答对
双掌
连环计
三打
庄第
插翅
虎
枷
白秀英
铁笛仙
马麟
进星
出洞
蛟
童威
退星
翻江蜃童
远方
参与度
刑事法
要面子
说辞
故要
两大块
病因
移放
停尸
周后
本篇
法帮网
fa
与其说是
不如说是
驾驭
aPP
医代
管护
缺夫
返款
难作
起随
呈上升
文库
不验车
会拟
部副
日北
巧合
已入
代驾
车里
车中
颗粒状
块状
药片
药丸
药瓶
锡纸
香烟盒
口香糖
银色
吸管
卷成
管状
纸钞
打火机
瓶罐
燃烧
变瘦
痤疮
皮炎
发痒
流鼻涕
嗜睡
磨牙
出汗
食欲
便秘
酒瘾
坐立不安
唾液
孔中
抹除
毒驾会
妄想
院去
奷
触发
求财
求色
算好
摊牌
红头
由尹
由关
演尹
影视
男演员
歌手
演艺
尹
导演
美少年
之恋
上映
这部
艺
片中
邪
魅
温柔
多情
科幻
动作片
幻影
攻
反派
银发
主演
警新
演坏
金牙
爱情片
半支
古惑仔
滚石
首张
专辑
恐怖片
炭烧
凶咒
客串
神偷
次世代
琳
薰衣草
提琴
霖
绝色
色情狂
爆破
白骨
男主角
不死情
谜
TVB
剧
密令
古墓
仁
亚视
庭剧
嫁错
邦
rry
乘务员
维与
聪
单曲
阿当
抉择
喜剧电影
千杯不醉
采儿
喜剧片
雀
自摸
演细芬
态
该片
纪录片
喜剧
宝贝
忠烈
博多
森之
第七集
传奇
精武
陈真
剧中
演日
务柳
爱情喜剧
绝配
科幻电影
戒备
单身男女
演负
贱
男欧
执导
夺命
演宋
EP
首歌曲
一夜情
题材
蕾
商战
一屋
哎呀
演黄
邵氏
古装
铁拳
皇上
悬疑
寒战
演香
警队
首席
陌
姚
风暴
偶像剧
演吸
血族
男爵
演白百何
霍
演薄
未婚夫
蔺漪阳
电视剧
美籍华人
酿酒
悬疑片
演邓
鸿
演关
于菲
宾
恒
出道
LaLa
喝彩
AY
arT
mb
曲目
死性不改
参演
古宅
慌慌
足球
夺得
叱
流行榜
颁奖礼
金奖
金曲
zCa
美味
无谓
挑
主角
阿爸
鬼马
狂想曲
伙头
多星
情癫
虫
个人专辑
IFPI
畅销
劲歌
颁奖典礼
时光倒流
荒村
美惠
学警
一角
黑道
无悔
gr
和容
舞台
代表作
新曲
精选
玹
十周年
献礼片
莲花
妍
翡翠
明珠
adyt
午夜
凶梦
秦香莲
惊悚片
照镜
剑侠情缘
之藏剑
山庄
播出
网剧
神话剧
追鱼
演唱
插曲
漩涡
神话
白狐
江山
歌行
杀青
救火
一人分
两角
济公活佛
翔
依等
万缕千丝
湖南卫视
由应
4K
民等
有喜
经之
赤影
卫视
暌违
为概
三首
时光
颖
倾情
MV
女主角
情怀
环球
盛典
接拍
武侠剧
飞刀
血战
铜锣
领衔主演
拍电影
血拳
开拍
拜见
宫主
档于
搜狐
独播
献唱
片头曲
江湖
星座
金牛座
维是
六十年代
影星
康威
妮
混血儿
故尹
维有
血统
演艺圈
特警
铁了心
饰演
警匪片
乐坛
天王
Aliv
向内地
蔺
矶
主修
哲学
因到
被成
经理人
强看
力荐
入行
维回
跳进
电影圈
拍戏
Star
ast
好莱
丽影
反面角色
中说
粗口
戏份
刻画
演员
Boy
五张
心慌慌
大圣
多部
Re
山海经
剧集
再发
变脸
FBI
探员
结下
不共戴天
之仇
无恶不作
恐怖份子
刺杀
约翰
沃
发誓
密告
搭机
逃亡
枪战
毒气
人潮
宁死
长官
对换
复活
高度机密
主事
清醒过来
将计就计
杀掉
义正
ì
è
ngy
á
nc
í
斩钉截铁
ǎ
ī
ngji
é
ě
亚瑟
凯斯
演员表
饰
海清饰
食客
马苏
赵又廷饰
张钧
甯
梁静饰
戚薇饰
任贤齐
采儿饰
华饰
然饰
帅气
荒唐
无厘头
迷恋
华录
百纳
出品
普拉
意像
影艺
行天下
勋
该剧
小巷
每道
中拉出
一段段
市井小民
冈
模特
于加
舞台剧
DR
OFPA
ON
亮相
特摄片
假面
骑士
主人公
剧情
踏上
戛
电影节
红地毯
阿墨
出色
院奖
新人奖
甲贺忍
法帖
国宝
椒
呼喊
东京
力系
转转
悲梦
八重
悬疑剧
大川
侦探社
古巴
合拍
埃内斯
传播方式
成罪
以供
公之于众
公之于
封禁
询可
询是
询费
゜
ロ
行政法学
基本功
启蒙
论法
社会契约论
源流
专著
楷
著述
崖
前沿
类书籍
得读
马克思
思想史
秘法
学以致用
国际私法
必修课程
读过
读取
民刑
诸法
相遇
法家
蠹
文乱法
犯禁
儒士
忠君
治平
抱负
专制
相左
法之战
唐宋
居易
秦中岁
退朝
公侯
贵有
风云
富无
饥寒
忧
所营
第宅
所务
追游
朱轮
车马
红烛
欢酣
促密
醉暖脱
重裘
秋官
上头
日中为
一乐
夜半
岂知
阌
死囚
朱门酒肉臭
路有冻死骨
异曲同工
之妙
本为
官名
代指
刑部
刑狱
至北
晚唐
事毕
寄本府
尚书
越鸟
栖
飞入
日暮
欲雨
兼羽
翎伤
民言
刺史
蠹物
蝗
行装
仆隶
驿路
四顾
奔驰
投荒
门下
长锁
树影
空过
驱囚
绕
戢
狱吏
堆满
打锁声
目旁
既舍
馀
五斗
忍学
空城
潜身入
官仓
子令
曲木
直为
恐孤食
恩地
昼夜
遑
仲夏
气热
鬓须
忽成
霜
社鼠
灌
城狐
偶于
擒
纵间
尽得
见否
臧
截断
奸吏
擘开
冤人肠
明朝
归汶
恶行
刘孝
团未遍
田讼牒
纷如雨
诛
骄虏
椎破
铸铜
联翩
将军
开府
车轴
海取
鼍
漫
战鼓
汗流
奔走
恐乏
污质
斧
尔来
实降
新书
抉剔
根株
穷脉缕
诏书
恻
怛
吏能
浅薄
平生
流俗
众里
竽
比数
忽令
独奏
凤将
雏
仓卒
况复
连年
饥馑
剥啮
啖
泥土
蝗虫
生翅股
忧来
洗盏
强醉
虚斋
卧空
甒
公厨
更望
红裙
踏
筵舞
中信
当归
无别语
将雀鼠
太仓
未肯
衣冠
神武
丈人
真得
従
冠盖
二浙
高踪
自杂
渔钓
大隐
何曾
簪组
问道
已许
逝将
弃官
卒业
俗缘
那得睹
霅
云如
羽
应怜
进退
心教
初祖
圣可子
同游
宝莲分
韵
郭字
末俗
竞芒
忽
讼纸
霜叶
地一
郛
跼
蹐
高厚
而况
羁络
巨帚
一扫
廓
超然
解尘
净镜
磨垢
日炫眼
刮膜
野水照
曳
杖
烟荐
屩
清朋璠玙姿
寄相
领略
世间
秋风
古兰
翠
巘
拂
觚
棱
滥关
钥
晨钟
隐町
疃
香雾
散林薄
万夫
迸
苍虬
跃进
黏壁
篆
乾蜗
檐
丝下
晴
蠖
蒲团
倚
茗
碗
瀹
香火
身脱
领虐
窟深
迷津
锐疏
凿
心期
汗漫
知音
丘壑
俯仰
造化
谑
道味胜
世故
妄念
春朝冰
间市
疟
出据廓
入分
禽鸟
屈伸
胸次
何绰绰
一官
驰
代茎
未害
尘迹
讵
可削
倦
鸟争
暝
短景转
修阁
固未厌
良不恶
复命
便道
过龙鹤
比得朋
旧书
多索近
长句
庭下讼诉
堵墙
案上
茫茫
酒酸
朒
椎床
大叫
发狂
书来索
吏责
终岁
寒龟
事缩
病骥敢
重腾骧
曛
稍退
凫鹜行
厢
呼儿
炷
炉香
楚骚
祓
不祥
做官
犯谏
唐朝
骆
两宋
偏偏
朝代
文字狱
咏
蝉
蝉声
唱
冠客
思侵
那堪
玄鬓影
头吟
露重
难进
风多响
易沉
高洁
表予
这首
起笔
典故
隋书
文志
谓之
行北
冬
之语
囚徒
楚囚
风马牛不相及
词用
传神
困住
浓浓的
佺
同狱
叹
同僚
何许
乘春
多知
辨夏
双影
未尝
食蕊
嫌丛
棘
衔泥
怯
死灰
黄雀
冶长
首句
桀囚
汤于
分外
北宋
讥刺
圣上
受控
下狱
品尝
好平
肉食
坏消息
改送
银钱
小菜
鲜鱼
补养
鱼大惊
凶多吉少
送弟
圣主
万物
愚
暗自
亡身
十口
无归
累人
处青
可藏骨
雨夜
伤神
今世
结来生
未了
二柏
霜气夜
凄凄
风动
琅
梦绕
心似
魂飞
汤火命
如鸡额
犀角
真君子
牛衣愧
老妻
百岁
神游
第一首
通篇
身逢
盛世
愚蠢地
自寻死路
中年
老少
十多
骨骸
夜雨对床
盟誓
雨潇潇
兄愿
因缘
来生
第二首
妻儿
沉
凛冽
御史
阴风
惨惨
檐角
珰
风中
叮当
梦中
那颗
向往
滚汤
危在旦夕
眼前
现出
个个
额角
丰盈
面相
好样
同甘共苦
独受
贫苦
一带
深情厚意
为之动容
笔下
力量感
连连
身之官
赎兄罪
亲笔信
连夜
宰相
进言
奸佞
之人尚
能容
祢衡
陛下
新党
石已
生死关头
奋力
上书
疾呼
圣世杀
士乎
不愧
气量
堪称
不觉
心动
囚笼
文坛领袖
写道
此去
不厌
谪
为官
宋两朝
逐客令
司空见惯
放得开
名利
苟且
登柳
城楼
寄漳汀
封连四
惊风
密雨
意蕴
城上
高楼
大荒
愁思
飐
斜侵
薜荔
树重
遮
千里目
流曲似
回肠
百越
文身
犹自
音书滞
永贞
革新运动
四位
友人
韩愈
谏
迎
佛骨
遭唐
去潮
提笔
朝奏
九重
夕
潮
圣朝
除弊
肯
衰朽
惜
残年
拥蓝关
马不前
知汝远
收吾骨
瘴
地颂
孤映
千古
而此
配之
两首
欲惜
春去
之句
质朴无华
胸怀
不可同日而语
愤慨
之气
一绝
下四
杨梅
次第
荔枝
三百颗
不辞长
儋
宋朝
极致
大彻大悟
此心
夫复
何言
渡海
斗转
苦雨
终风
解晴
云散
月明
容海色
空余
鲁叟
桴
粗识
轩辕
奏乐
九死
荒吾不恨
兹游
奇绝
祥
临刑
前写
雄浑
昔年
单舸
万死
辅宋
地不容
社稷
邦家
无主失
忠良
神归
嵩岳
风雷
气吐
烟云
草树荒
尘沙
黯淡
七载
混毡
憔悴
龙驭
两宫
貔貅
万灶
海门
丧
破家亡
一灵
碧空
长共
暮云
愁
奸相
八十一
往事
四千里
外无家
流落
情真意切
潭
惟用
自绳己
寄卢仝
谶
扫除
诗书
诵
轼
石鼓
始读
亲笞
秋怀
辙
次韵
子瞻见
兼通
傅宏
归觐
待观
城阙
叙
先公
宓
送师
弟守
德庆
春秋
咏史
宣帝
闳
仙居
剡章
黄簿
森严
信殊
斯得
孤愤
吟上
十韵
渗商君
谷书隐
寄题
蛟峰
石峡
书院
督师
曹将军
尧
何济川
学士
知汉州
洵
自尤
耻言
羞丘
戎
新作
南门
镃
傅景夏见
简徐
季益
且说
刚中
楼枢蜜
浩然
有念
古慕
希夷
谨用
韵作
底须
议明
甲戌
乡中
民情
寄彦
文布
治国
利国
利家
正道
悬崖
乌云
一响
露头
无路
甘蒸
壅
蜜糖
养蜜蜂
放松
播谷
催芽
织布
不忘先
纺纱
致富
饼
有乏
麻
园香
红花
丰收
勤劳
全靠法
当家
有章
有节
文不乱
有词
成歌
依法治国
欢乐
打狗
棒槌
打蛇
竹条
触
翅
天罗地网
斩妖
身来
试法
头来
落雨
天起
不平
人心不足蛇吞象
无情
短命
卒
挨
割来
国法
莫要
拿头
碰刀
老虎
莫桑尝
害国
飞蛾扑火
遭殃
种田
播好
秧
砌
四化
宏图
竹篱
船难行
秤砣
秤
难称
弓箭
难射
国难
妖
沙鱼
恶浪
征程
万里
遥
挑水
淋
花花
更鲜
肥土
瓜瓜
更甜
兴盛
长治久安
万万年
四字经
寸步难行
诗句
敬请批评
必惩
牢门
负案
惹祸上身
抗拒从严
时辰
收凭
初判
招郎
省定
少生
利国利民
读完
敬老养老
子孙
老有所乐
夕阳
正红
西周
亲亲
尊尊行
五礼
亲其
所亲
尊其
所尊
质牛剂
贷傅
六礼
七出
三不去
休妻
嫡
以贤
嫡长子
听讼
断狱
出礼入
相为表里
辞色
耳目
五听
官来伙
反内
惟过
五过
三刺
书晋
邓
私杀
竹
私写
王杀
但用
其竹
网捕
杂具
六章
秦改法
经论
六禁杂
典具
六禁
具其
秦励
耕
军功
郡县
诬
立县
亭制
汉上
恤
相首匿
缇
萦上
废肉
指汉
杀戮
决狱
以心
秋冬
应天
时节
天地
肃杀
秋审
两晋
八议
官当始
官当
五服
以制
斩衰
衰
小功
缌
相犯者
需复
奏
布废宫
布废
启后
承前
隋
承前启后
开皇
十罪
十恶
商周
劓
剕
宫辟
旧五
更得
笞杖
徒流
新五
祖夺
贞观
加役
贞观之治
宗唐
疏议
作永微
史称
统汇
政六典
法汇
公罪
私罪
吏忧喜
未举
揭自新
自新
以明举
诸断
正条
出罪者
以明轻
其应入
罪者
举轻以
明重
赃杀
保辜
化外
六赃
六杀
敕
皇权
当道
折杖
配役
买典
室女
分承准
妻离
翻异
审诉
宋庆
五代
立命
绝女
夫亡
立继
称立
俱亡
尊长
称命
但分
教朱
诰
教是
理学
明会典
学六唐
重轻
两极
廷杖
新意
重其
所重
轻其
所轻
颜面何存
奸党
充军
例集
成者
事成条
则例
成例
会典
明政
字无狱
字罪
晚清
渡新
和民草
宪纲
挽
残局
约法
史宪件
天坛
宪草限
奈何
复辟
凯也作
明清
会审
审五
宦
圆审
快决
空牢
能放则
清秋
斩
绞
监侯死
监侯
霜降
部嫌
附京侯
精华
初心
白旗
出东
破屋
数间
矣
一奴
长须
一婢
赤脚
无齿
辛勤
奉养
慈亲
憎俗
闭门不出
动一纪
邻僧
乞米
忝
俸钱
时致
薄少助
祭祀
劝参
谒
大尹
掩耳
水北
作幕
下士
继往
仆从
闾里
少室
索价
两以
谏官
徵不起
彼
刺口论
世事
三传束
阁
独抱
遗经究
终始
乃父
侍从
臣
汝今
邸牧
疲民
天低
日近
临照
土旷人
稀费
抚循
得暇
释手
舟来
方物
惬
老亲
不著惠文冠
信论
当价难
盍
言粹
学辈豪
首其
忧民
反覆
坐满
箱
老来
向学
平康
楼枢密
过华
夷之心
作二诗
箴
郑刚
他汉
武好
神仙
脱使
如鼎
自屏
宋末元
安得河
数国囚
莫道
汉家
杂王
半分
推官
可成
归长
郑真
云杳长
客思
凉风
赋归
欤
五雷
阐
神明
一卷
犹存
抟
鹤
屈
水满荐
嘉鱼
作官
何似
家乐
丹心
恋玉除
靳
校游
灵岩寺
留题
乱云
深处
出双尖
瞻
石发
栉
风分
鬒
岩
透日
珠帘
露寒
仙肘
声容
云护
禅衣
喜共清游
归路
绿阴
亭槛
纤纤
次金
陈迹
黯
悠悠
泪滴
遗文
不自收
讥评
小诗
提携
晚进
松圆阁
苔
花信
楼空
自流
禅心
幻形
真作渡
神舟
二十首
麋鹿
姿
结爱林
误怀济
物心
汨
没俗
中言
亭疑
彼哉曲
功名
广雅
六首
清谈
纷纶
区区
鱼鳖
蛟龙
哄
已扬尘
杂感
民国
时平
拥专
鹬蚌争
屠人亡
托言
富国
恣
讥征
真凉血
嗟
何补
惊
滔滔
此辈
丧心
毋乃负
苍生
尹能
北山
山人
征不起
高阁
遗经穷
弄笔
嘲同异
怪辞
惊众
坦途
犹上
虚空
跨绿
駬
生儿
添丁
意令
充耘
耔
丁口
四海
农夫
耒耜
终大用
未许
终不仕
陈力列
立言
垂范
恃
苗裔
当蒙十世
宥
岂谓
贻厥
无基
阯
故知
忠孝
天性
洁身
乱伦
定足拟
下状
隔墙
恶少
恶难似
骑屋
山下
窥
阚
浑舍
惊怕
走折
趾
凭依
婚媾
欺
信令
行能
受屈
忽此
告良
操权
欲何
立召贼
曹呼
伍伯
尽取
鼠辈
尸诸市
遣
非所喜
当长
养节
猛政
固是
余所
畏
窥涯
涘
效尤
仆愧
前史
买羊
沽酒
谢不敏
偶逢
明月
曜
桃李
降临
更遣
致双
鲤
古诗
颔须
白尽愈
落寞
讼氓
满庭闹
吏牍
围坐
迷路
回十
经额
败方
估佣方出
参考值
必耍
殿堂
相敬如宾
取名为
一座
诉称
同龄
平平安安
含辛茹苦
苦苦
期盼
不管不顾
有加
来直
及供
已长
锁事
哈尔滨
应分
马局
不太能
这辈子
由安迪
改行
人脸
录上来
包过
好解
我闷
帮妮
闻卧
当不成
怎会
有底
毁掉
小律
红圈
所贵
水务
以住
清欠办
算数
黑字
html1
投够
克至
麻油
大麻
脂二
叶及
大麻烟
可卡因
二千五百
片剂
25mg
万片
二氢
埃托
啡
μ
一百支
咖啡因
罂粟壳
拍大线
系统安全
郑重
转摘
联入
联接
存储设备
搅
屎
外蒙
搅匀
搜看
卫星
搜到
武器装备
密件
秘级
转让技术
宣传报道
甲方乙方
散步
文件柜
乱放
废弃
粉碎机
经甲
签不签
谦抑
一百天
劳总薪
财企字
40.41
干的事
辣鸡
木木女
得饶人处且饶人
来清
签到处
第十九章
本编
第二十章
第二十二章
具体任务
8x
x150%
x300%
x200%
义无反顾
邪门
堔
小包装
名医
列如
提额
奥强
常平
嘉锐
挺能
一切都是
组队
不大好
执法检查
理因
联系地址
重点难点
关上
股级
股所级
副科级
科员
非领导职务
副职
厅局级
县处级
科级
总局局长
部级
下边
副部
省部
正厅级
副厅
局局长
正处级
副处
正科级
厅级
乡镇级
副局长
副局
应拿起
据劳
8900
0.4%
百度搜
因小失大
上千
草率地
劣性
所作所为
及亲
本状
需人
可真能
关起门来
gei
难争
年二建
故选
不帮
耕田
农业税
菜园
几口
图解
安置工作
兵役法
中国人民解放军
乘飞机
国际航班
海员
记不住
网传
个人主页
窜通
素颜
＃
德州
睁
眨眼睛
眨眼
睁不开
歪头
坐姿
目视
眼尾
眼线
修容
服饰
领子
有领
顶住
上颚
脸会
瘦个
好几圈
如对仲
意向性
社险
发布新闻
沉沦
读点
阅报
红尘
短是
拉去
刚回来
听不进去
成功经验
听听
偿肠梗斑
妓职
幻办
潍暴璃
原姓
养父
之列
房袋
挺久
送礼
心坎
自拍
立得
浪漫
七色
玫瑰
永生
泰迪熊
天气预报
包包
手链
真人
软陶
台灯
DIY
心意
UW
COM
川崎
沙画
满满的
御姐范
硅胶
长刁
定上
比而定
早销
吾
人口普查
邮到
邮回
化妆师
面甸
美颜
😄
fb
方父
该些
换肾
一举
七百多
tium
c#
mu
哥们儿
银监会
商初
住济
1150
无据
费解
七八百元
658
原水
浜
木制品
交易平台
必招
一下张
白玫瑰
红玫瑰
退想
部给
多交不退
错诉
胁从
加害者
56.0476%
探访
做传
话筒
照实
同根
煎
何太急
债编
加工款
可归
告等
核产
清帐
余钱
拍手
憾漳
房期
天内要
进检
看要
助人
天内会
事不大
判员
两日
理对
执限
拐骗罪
算在内
613
对等关系
矿盲巷
转发给
炭
各点
矿井
配齐
配全
二氧化碳
一氧化碳
硫化氢
二氧化硫
仪器仪表
全区
切实做好
作中
瓦发
账上
精诺
将本
应入
抽走
偏小
承销
公对
合规性
分支行
外帐
太好了
五六十
你妹
做空
780
398
27.95%
还算
必封
洁是
百分之八点
吓唬人
打打
2.38
3.87
关进牢
缺德
等易
出入证
饭票
底单
若劳
群众利益
无小事
狠狠
弄死
侩
丼
早晚
长痛
短痛
先知
上位
保驾护航
放错
传单
放下架子
别怪
谁错
谈得
拢
家当
老死不相往来
追大
搞不定
动粗
卫士
眼光
打江山
身体健壮
前旗
脑热
证信
打份
安身
网黑
外访
天塌下来
真有假
除甲醛
099
别理
捿
木会
3w
最多上
微性
减息
会员卡
傻瓜
会信
be
my
亲兄弟明
烦死人
用点
高招
有点烦
强硬
冬至
日照时间
设计标准
捞外快
纪律性
法圣网
适中
欢迎光临
代办点
房产信息
规划法
投标法
l95
已届
因可使
换价
透明性
位流
流抵
或期
约款
指物
找补
困窘
逼使
希冀
暴利
金融部门
收个
各执一词
2670
理层
及员
应邀参加
三周
日常事务
战术
入土为安
殡仪馆
科去
出国人员
驻外使馆
士为
因胡
峪
不合情理
当事者
充其量
强加在
502
台币
库券
时中
外汇券
仅起
1l6
尽可能减少
分期偿付
了然于心
批单
方从
项所
所送
落水
信之源
部拟
原处
滚雪球
人罚
只罚
油水
壮丁
证都领
父妻
三十户
金自
294
中长期
人才济济
金融业
信托投资
告授
最底
行会
专利费
极其重要
该司
官给
名片
证区
对侵
先行一步
因侵
之积
订房
前应慎
五年期
分多
玩意儿
万家
字能
标表
商业用途
因琴法
帮带
额月
傻事
多开
截止日
白送
欠考虑
◔
̮
续延
伪造罪
非常感谢
中得
同一律
经司
克尽
背弃
####.##
上期
##.##
232.14
9767.86
####.##-
97.68
234.46
9533.4
95.33
236.81
9296.59
往期
缘故
3.26
3.29
繁简
分流
杠杆作用
荟律
总要
没说出
而富
成全
还办
有求必应
Cs
xU
ds
ig
回车
HK
CU
NT
ER
Mi
ft
Cu
Run
另存为
宏
C++
函数
离散系统
C语言
管理程序
底层
硬件资源
放不开
堰
养义
亩数
djy
bsfw
fw
jz
zd
bz
t2
好吃懒做
分配情况
那刷单
耗过
单有
石沉大海
Run3
移除
bios
默认设置
插拔
键盘
连线
全盘
电脑前
安装盘
重新安装
浊
釉
釉中
氧化铜
吞
轻而易举
地退
共进退
半边天
肩负
风雨飘摇
半途
再乱
疑心
隔阂
哄哄
真凭实据
因微信
辅证
险应
11w
辅以
铺要
软饮料
咖啡馆
茶馆
托儿所
桌布
玻璃器皿
烹饪
多地
主动攻击
抑或
力去
湘军
专治
凶猛
义不容辞
另论
或持
说一千道一万
利欲熏心
物归原主
组中
组内
数据文件
SQ
读写
调用
CPU
最优化
组时
--------------------------
数组
ay
tf
free
n0
近似值
定常
流体
常数
马赫数
Ma
黏滞性
沿着
流线
相交
依作
密聊
肯管
不在济
避风港
预见性
识别性
这应
从民
置之不理
解绑
招到
兔兔
巧
菁英
区后
前行
愿不愿
产屋权
证且
以贷
养贷
找份
增加收入
非常低
撰稿人
鹊
可控硅
惹下
大祸
领回来
两人耗
两败俱伤
蚕烂
拖死
外侧
申对
遗择
当章
同病相怜
妖灵
哪点
节哀
赶集
晕
请说出
搭赠
车判
多半儿
具罪
凑够
能先
再刷单
本岗
反感
找旧
上层
调任
闹矛盾
给亡
烧点
纸钱
车务
省管
违章行车
文件名
F3
删完
选项卡
dll
勾
弹出来
LOCAL
MA
NE
SO
ARE
镜像
切换
虚拟机
Vm
Vi
模拟出
程序运行
慢得
蓝屏
外部设备
接口
光有
总裁
保卫工作
用印
秉公办事
岗位职责
以未签
题主所
HI1
通例
于债
以主
随主
债所
点多
多得
地儿
经济庭
333.33
291.67
114.3%
牢去
偷窃罪
真傻
再家
别现
愧对
请乡
